<pad>
<unk>
<s>
<\s>
？
，
怎么办
吗
什么
的
有
治疗
是
怎么
了
吃
可以
,
会
我
请问
能
?
好
药
慢性
医生
宝宝
手术
。
##
症状
该
和
得
用
严重
感染
需要
要
后
#
不
是不是
如何
子宫
做
啊
呢
急性
引起
么
治
检查
应该
月
囊肿
这个
怀孕
岁
怎样
感冒
...
多久
注意
你好
息肉
！
想
不会
过敏性
哪些
性
胃炎
怎么回事
您好
乳腺
孩子
方法
影响
这是
阴道炎
看
治愈
还是
一下
个
在
不能
病
疼
肺炎
导致
宫颈
这
能治好
还
都
湿疹
现在
糖尿病
增生
术后
内膜
发烧
新生儿
医院
小孩
结石
药好
肝
多少
结肠炎
打
损伤
小儿
有点
肛门
药物
原因
流产
晚期
患者
咨询
复发
瘤
下
很
支原体
大
咳嗽
咽炎
肺癌
鼻炎
有没有
反复
长
前列腺
为什么
对
问题
做手术
高血压
静脉曲张
说
肿瘤
骨折
吃药
多
乳腺炎
天
上
比较
效果
就
喝
根治
糜烂
卵巢
自己
心脏病
去
出血
肥大
人
血管瘤
办法
积液
区别
前列腺炎
抑郁症
障碍
中药
眼睛
看看
预防
正常
肾病
小
嘛
过敏
最好
没有
荨麻疹
传染
肠炎
怎么样
一般
直肠癌
甲状腺
心脏
意思
先天性
狭窄
可能
胸膜炎
疱疹
病毒性
周
皮炎
是否
尖锐湿疣
知道
早期
婴儿
高
谢谢
才能
感觉
头晕
盆腔炎
哺乳期
综合征
疼痛
女
一直
情况
胃
恢复
轻度
饮食
神经性
结核性
帮
炎
输卵管
产后
症
粘连
胰腺炎
到
黄疸
没
型
紫癜
:
结膜炎
还有
男
肺
综合症
又
出来
经常
精索
大夫
痔疮
肝炎
痛
脑膜炎
切除
疝
贫血
出现
痒
几天
啥
#.#
脂肪肝
处理
疫苗
问
妊娠
结果
结肠癌
肾炎
快
上呼吸道
胃癌
肠梗阻
龟头炎
脑瘫
发作
念珠菌
细菌性
东西
腮腺炎
病变
钱
调理
鼻咽癌
脑
跟
被
肝硬化
才
突出
尿道炎
一定
扁桃体炎
出
支气管
左侧
衣原体
确诊
呀
两个
化疗
孕
病人
转移
胎儿
颈椎病
高血脂
包皮
哮喘
容易
如果
近视
中耳炎
功能
不好
请
大便
宫颈炎
霉菌性
用药
关节炎
淋巴瘤
细胞
轻微
传染性
也
.
多囊
癌
儿童
过
不孕
###
治好
乙肝
男性
查出
月经
重度
疾病
红眼病
恐惧症
一个
完
孕妇
病毒
脸上
最近
中风
关系
肺部
膀胱炎
发现
胆囊炎
下肢
中医
尿路感染
头痛
支气管炎
膜
时候
表现
红斑狼疮
异位症
快速
肾结石
胎盘
紊乱
阑尾炎
肛瘘
阳性
体检
视网膜
左
必须
怀疑
造成
窦性
性皮炎
焦虑症
与
败血症
睾丸
鼻息肉
诊断
宫颈癌
结节
皮肤
判断
不育
浅表性
胆管
肺气肿
缺损
后遗症
白血病
溃疡
属于
鞘
这样
腺样体
鼻窦炎
脱垂
纤维瘤
垂体瘤
神经
反流性
肝癌
萎缩性
前
体质
中度
今天
幼儿
神经官能症
就是
已经
乳房
十二指肠
动脉硬化
挂
胆结石
阴道
这种
脑出血
缓解
复查
吧
一个月
有效
早产儿
胃溃疡
脓肿
三个
纵隔
肠胃炎
住院
帮忙
附睾炎
食管炎
哪个
母乳
为
禽流感
起
肺结核
活多久
不足
附件炎
遗传
气胸
平时
尿毒症
年
血
给
口腔
胆囊息肉
科
非
癫痫
肺大泡
玻璃体
脑炎
期间
伴
脑梗塞
血栓
神经衰弱
来
溃疡性
老是
先兆
胆囊结石
早泄
内分泌
报告
以后
-
心肌炎
患有
麻烦
那些
会得
异常
一年
失调
宫腔
尿
妇科炎症
滴虫性
胃出血
乳头
咽喉炎
烫伤
脐
心律不齐
好像
总是
扁平疣
急疹
社交
（
服用
多长时间
钙化
食管癌
肚子
蚕豆病
彻底
肠
咽峡炎
炎症
鸡胸
静脉
咋办
糜烂性
大概
一
疤痕
能治
肝内
厌食症
烧伤
女性
康复
血管炎
外阴
肋骨
肌瘤
身体
脑病
前置
一样
心动过速
假性
甲状腺炎
疣
混浊
自然
右侧
中毒
晚上
腰椎
身上
腺瘤
失眠
些
直肠
坏死
腹股沟
乳腺癌
您
肛周
艾滋病
患
双侧
厉害
管
韧带
性病
控制
脊柱
老人
痊愈
好治
彩超
强迫症
什么样
阴囊
前列腺癌
畸胎瘤
肿
胃肠炎
脑梗死
高度
肠粘连
直肠炎
食物
热
痢疾
风热
痤疮
睡眠
吃点
皮脂腺
黄体
右
沙眼
呕吐
出院
脂溢
疝气
单纯
应
度
特别
弱视
椎管
冠心病
痰
子宫癌
形成
积水
突然
高热
小叶
脱发
惊厥
慢性肾炎
嘴唇
有用吗
问下
难受
之前
癌症
包茎
神经炎
激素
扩张
中
股骨头
查
肾积水
你
堵塞
糠疹
妈妈
排除
卵巢囊肿
胶质瘤
室间隔
胆汁
系统性
长期
唇裂
原发性
鼻子
输液
毛囊炎
肠套叠
宫外孕
肉瘤
手足
低
丙肝
颈椎
化脓性
刚
医治
最
时间
青光眼
心衰
脑溢血
淋巴结核
结肠
肾衰竭
一岁
头疼
…
腹水
同房
面瘫
胃病
完全
性早熟
包皮炎
妊娠期
情感
多发性
霉菌
全身
下垂
多月
心肌梗塞
确定
问答
肾囊肿
淋病
水痘
精神病
勃起
舒服
腿
梅毒
关于
拉肚子
风疹
耳鸣
黑色素瘤
遗精
一次
脑血栓
点
恶性
之后
鼻中隔
危害
或者
巧克力
食道癌
老
保守
锁骨
图片
食物中毒
引发
B超
妇科病
肾
或
及
单纯性
胃穿孔
胸
能否
淋巴癌
畸形
白癜风
微创
胃下垂
吐
脚癣
风湿性关节炎
那个
费用
脂肪瘤
牙髓炎
鸡眼
抽动症
营养不良
麦粒肿
白带
老年人
心肌病
带状疱疹
脂溢性
不是
吃饭
精囊炎
疙瘩
药膏
手癣
时
求
早衰
中暑
玫瑰
缺铁性
甲沟炎
几率
骨癌
肾癌
腰肌劳损
阴茎
脖子
葡萄胎
里
口病
发热
哪里
专家
脑血管
半
冻伤
幽门
耳聋
肠胃
变性
类风湿
妊高症
初期
手
散光
红
动手术
膀胱
牛皮癣
一点
远视
腰椎间盘
喝酒
偏曲
肥胖症
发育
自愈
脚
脱落
脚气病
外阴炎
风寒
区分
前庭
顺产
备孕
硬化
四个
软组织
妇科疾病
精症
瘙痒
非淋菌性
弱
那
算
(
手淫
危险
淋巴结炎
护理
脑震荡
喉咙
无
泌尿系统
解决
我家
结核病
淋巴结
早孕
并
血症
裂
检测
未闭
半年
加
通过
喂奶
肾盂肾炎
有关
动脉瘤
萎缩
睡觉
发炎
头
管用
到底
恶性肿瘤
高压
腱鞘炎
我想
重症
显示
药能
淋巴
开始
b
动脉
耳朵
盆腔
方面
的话
软疣
性生活
小腿
流鼻涕
肺动脉
腺癌
开刀
犯
鼻
哪家
血管
肺心病
破裂
高烧
以前
有些
放疗
消炎药
类
发生
胶囊
食管
抗体
近视眼
百日咳
腰间盘
里面
植物神经
飞蚊症
声带
不全
颗粒
恶心
神经纤维
桥本
方案
生
骨质增生
激光
黄斑
智齿
怎样才能
膜炎
吃些
病症
痣
停育
房间隔
一些
可不可以
真的
腹痛
哪
!
分娩
麻风
膝盖
猝死
漏斗
注意事项
腹泻
肾小球
每天
伴有
多发
反应
适合
角膜炎
输尿管
胸闷
肿大
肚子疼
龟头
早产
皮肤病
拉
冠周炎
手指
一种
腹部
半月
海鲜
三岁
白色
肾虚
咋
内
风险
让
染色体
可
有时
一氧化碳
回事
妇科
吃海鲜
两天
很多
螺杆菌
病理性
无力
总
癌变
起来
反反复复
打针
要紧
头孢
中期
性功能
双相
功能障碍
伤风
下降
尿频
像
血压
胚胎
着
带
多囊肾
CT
口腔溃疡
泪囊炎
银屑病
外痔
便秘
斜视
保养
期
生育
看出
不要
流血
ct
视力
鸡蛋
两年
鼻塞
一周
五个
科室
脚气
甲肝
灰指甲
水肿
唇炎
贲门癌
变异性
良性
前期
##.#
混合
一起
水果
问问
几个
害怕
走路
鳞状
功血
手腕
运动
病毒感染
了解
还会
滑膜炎
大腺
低血糖
不用
发育不良
视神经
很痒
呼吸
不孕症
脑损伤
必要
血小板
奶粉
#mm
八个
成
周围
出生
肾功能
上长
片
解脲
生化
心肌梗死
呼吸道
湿疣
脑萎缩
后能
变成
更年期
红肿
洗澡
甲减
流感
硬
查出来
非典型
豆状
左右
灶
乳头状
死胎
建议
肌无力
中晚期
心包
颈
死
内痔
胎停
面部
脑外伤
主要
衰竭
煤气中毒
从
窦性心
水
丘疹
脑垂体
他
习惯性
膀胱癌
老公
针
脑膜瘤
具体
心肌缺血
脑供
擦
担心
喉癌
最佳
#.##
白细胞
哺乳
嗓子
核
双
能够
反流
觉得
发病
变
肺结核病
精神分裂症
流脑
干眼症
去除
昨天
圆孔
急
伤口
两次
跖
纤维
附睾
明显
唇腭裂
异位
腰疼
房颤
缺血性
小便
食道炎
扁桃体
风湿性
软
开
现象
颅内
汗
不了
改善
股癣
已
小孩子
糖尿病足
再
可能性
精子
一天
缺血
脸
化验
胃窦炎
抽烟
湿热
洁癖
卵
有个
水泡
下面
疱疹病毒
脊柱炎
腺
神经症
血糖
叫
缺氧
两岁
胃镜
牙
儿子
多年
手上
腭裂
腺肌症
动过
做过
慢阻
疑似
状
脑瘤
扩散
氏
大腿
心电图
蛀牙
脱肛
牙周炎
眼
厘米
泌尿系
买
偶尔
腹腔
自闭症
肩周炎
胰腺癌
七个
心理疾病
甲状腺癌
后期
卵巢癌
消除
疤痕疙瘩
半个
管瘤
病理
地中海
干
鹅口疮
牙齿
矫正
侧弯
今年
除了
易激
频繁
早上
关节
目前
种植
三天
痱子
肚脐
化脓
六个月
寻常疣
北京
雀斑
孕期
星期
该用
发展
有过
细菌
龋齿
会长
溶血性
继续
消化道
牙龈炎
恢复期
花斑癣
腱鞘
低烧
酒糟鼻
功能性
头癣
副作用
帮助
毛细血管
胸部
痔
体癣
眼药水
脉管炎
哪种
不想
临床
导管
级
减少
脱皮
办
面
鼻涕
白内障
腰
斜
狂犬病
粥样
维生素
父亲
人流
左眼
接触
无精症
由
后果
神经病
进行
忌口
二期
脸部
焦虑
老年痴呆症
留下
病情
间质性
把
筛查
涂
几年
偏高
这么
退
那种
前兆
便血
口
结核
多汗症
口腔癌
色素痣
破
早
高尿酸
风湿病
胸口
供血
疑
右眼
流行性
皮肌炎
停
针灸
乙脑
冶疗
便
超
脑肿瘤
化验单
扭转
加重
浑身
男孩
依赖性
样子
甲
筋
行
遗传病
更
好多
腔隙性
小腹
不适
睡不着
怎
皮肤癌
其他
样
膝关节
这些
外伤
奶癣
地方
猩红热
服药
生活
多大
牙龈
眼底
颈部
传染给
改变
作用
治不好
深
突发性
躯体
胆脂瘤
希望
母亲
脊髓
扁平苔藓
截瘫
我该
掉
胆管癌
肝脏
有时候
修复
扁平
女儿
增多
处
防止
休克
越来越
室性早搏
清宫
好转
分泌物
卵泡
脑中风
刚刚
风湿
转氨酶
贴
消炎
帕金森
淋巴管
减退
泌乳素
同时
穿刺
金黄色
三年
尿道
颅脑
静脉炎
爸爸
等
阻塞
舌头
阴性
骨髓瘤
不正
胆囊
乙肝病毒
愈合
强直性
发
鳞癌
能要
胎位
胀
胰岛素
怕
苔癣
丸
持续
次
少量
继发性
软骨
过度
但是
使
只
滴虫
成人
丹毒
主动脉
流
停药
痘痘
口角炎
合适
血常规
酒精肝
结节性
稽留
肿块
抑郁
阻滞
喉炎
看好
传导
本人
而且
四岁
西药
啦
宫角
使用
失眠症
胳膊
分泌
上消化道
缺氧性
未
痛经
麻木
角膜
年龄
心肌
几次
病因
膨出
女孩
接种
灌肠
正
真菌
肠道
营养
免疫力
胀痛
外耳道
但
支架
指标
出汗
肠系膜
按摩
因为
解答
肉
椎间盘
前壁
甲亢
找
好点
酸中毒
cm
黄
胎
麽
硬块
左边
癔症
大小
史
后背
鼻骨
脊髓炎
硬皮病
脐炎
程度
腹胀
少
蛛网膜
耳石
最快
输卵管炎
骨
周岁
屁股
下腔
肠癌
呼吸困难
脑梗
大脑
确认
转
软膏
特征
黑
头上
征兆
是否是
片子
骨髓炎
药疹
胆总管
做爱
我妈
需不需要
合并
色盲
心慌
风疹病毒
模糊
试纸
肌肉
禁忌
缓
月经不调
巨细胞
昏迷
抹
尿蛋白
精神
很痛
非常
特效药
乏力
青春期
胃疼
脾
双向
相关
瘙痒症
号
只有
九个
穿孔
脱离
头部
克罗恩
两侧
生理性
摸
返流性
宫内
智力
霍奇金
困难
天天
朋友
并发症
双子宫
囊
然后
吸入性
脑部
心率
说话
输
口服
####
活动
阳痿
事
头皮
严不
痛苦
骨转移
股骨颈
手脚
避免
粉刺
过后
下疳
弱精
压迫
黄水疮
剖腹产
活检
公分
注射
晒伤
上火
头发
酒精中毒
乙型肝炎
滑脱
酸痛
肋软骨
好不好
一个多月
抗生素
没事
补
肌
甲癣
霉素
低钾血症
锻炼
睡
下去
海绵状
中成药
癫痫病
老婆
分化
下来
好得快
太田
想要
血液
脚上
外
心跳
根
毫米
干燥
后要
食疗
空调
升高
种
消失
巴氏
屈光
喝牛奶
不育症
消化不良
上面
分析
##mm
跑步
泡
浮肿
只能
胸腔
它
骶
病史
肝病
快点
住院治疗
排卵
比
需
复发性
小时
算是
因
难治
十个月
休息
肿痛
尿急
打嗝
胎膜
部位
纤维化
验血
肚子痛
宝贝
老年痴呆
怎样治
增大
胰腺
报告单
干净
抽血
隐性
脊髓灰质炎
别的
打预防针
女生
黄色
平常
血压高
方式
大约
宫腔镜
消肿
梗阻
下腹
较
夹层
减肥
血液病
心里
指甲
状况
裂口
流脓
洗
冷冻
急性肾炎
满月
裂孔
气短
虹膜炎
布病
产生
阿
更好
右边
发红
肿胀
一块
痛风
部分
造影
感
术
小结
说明
手臂
帕金森病
霰粒肿
谁
遗尿
有何
眼病
mm
子宫出血
对于
上海
体重
十天
不同
腰痛
调节
副
麻痹
会痛
肥胖
肝功能
概率
内侧
上举
右肺
戊肝
粉
小三阳
腋下
心力衰竭
足
伤
射精
憋
每次
色素
嘴
胃肠功能
念珠菌性
球部
不见
扁平足
睾丸癌
能用
拍
葡萄膜
五岁
蚊症
～
回声
良性肿瘤
预后
二度
感染性
偏方
孕酮
腺性
排便
位置
川崎
去掉
咳
艾灸
膜性
咽喉癌
免疫
A
冬天
变应性
眼外伤
腹腔镜
胃痛
眼镜
亚急性
早破
疗法
异味
啊啊啊
呈
老师
红色
第
那里
栓塞
值
有点痛
肛窦炎
红斑
二尖瓣
止痛
空腹
闭锁
有事吗
久
脓
是因为
我爸
打喷嚏
住
hiv
咽喉
肥厚
肝胆
乙状结肠
生殖器
别人
丝状
急急
听神经
回复
不疼
日光
无痛分娩
倾向
介入
自发性
炎性
减轻
根除
去年
亚
请教
防治
胆红素
胆碱能
穿
局部
腰部
经期
蛋白
很难
胀气
鱼
免疫性
髂
尿酸
盲肠炎
患上
怎么弄
好处
老年
口腔炎
推迟
先天
高脂血症
不到
磁共振
长时间
在家
引流
还要
疹子
黑色
过长
弱阳性
牙疼
调养
大不大
开放性
房室
考虑
状态
鼓膜
潜伏期
干性
求解
失明
日常
指
发痒
难
主动脉瘤
肛
美尼尔
关闭不全
口臭
体
毛细
测
有用
第二天
窦炎
多毛
结婚
心理障碍
喝水
西医
两周
冶
气
普通
提示
iga
醒
胆道
测试
粘液
见
声音
尿崩症
频发
爱
很大
保胎
缺陷
喉咙痛
精液
伴随
上次
换
腹膜炎
看到
背部
感冒药
腿部
如何治
选择
心理
二胎
#cm
肺栓塞
后会
传播
透析
生命危险
热敷
皮
肠镜
慢性病
好些
好几年
五天
动
甲流
脊椎
刺痛
单子
铅中毒
听力
米
双眼
酸奶
我们
心脑血管
退烧
几种
尘肺病
密集
再生
扩张性
咬
四维
三期
懂
颜色
大人
糖尿病人
夏天
嘴巴
有血
冠状动脉
错构瘤
无法
一期
血糖高
肺病
留疤
皮肤感染
专业
液
重
推荐
脚趾
以及
割
反流病
疗效
阿奇
酒渣鼻
牛奶
降低
连续
除根
骨头
充血
隐匿性
走
上颌
摘除
骨关节炎
发黄
心
交叉
爷爷
肩膀
坐
起泡
抽搐
桥
张力
闭经
退行性
障碍性
游泳
半月板
带血
麻
形式
化
眼压
直接
髋关节
不吃
裂开
白
拍片
肌酐
血栓性
视
泌尿
胃胀
引产
避孕药
剥
发麻
雾化
吐血
堵
奶奶
滤泡
a
出血热
第一次
血丝
远视眼
四天
腿疼
先
分
治愈率
眼球
高位
陈旧性
寿命
分辨
算不算
疤
酸性
标准
家
手部
恋物癖
不痒
女人
腹
脚底
颈动脉
血管性
癣
汤
肾结核
嘴角
遗传性
褐色
尿路
为啥
泌尿道
EB
嘴里
改
支
消化
恢复正常
后面
矮小
完全性
下巴
家里
在线
夜间
肥厚型
差
眼皮
医
人能
青霉素
量
恐艾症
皮肤科
工作
三次
临床表现
照
由于
滑囊
奶
原位癌
没好
天花板
隐痛
抵抗
一侧
红细胞
甲醛
听说
年轻人
恶化
鹅掌风
项目
张
豆浆
歪
受孕
草莓
空洞
干咳
发高烧
球炎
厕所
吸烟
+
浆细胞
例假
滴
变形
假孕
生命
她
溃烂
常规
可怕
晕
羊水
抽
阴虱
大三阳
复位
结痂
降
外用
嗎
压力
太
没什么
并且
好了吗
尿血
母乳喂养
排出
携带者
不管
茶
突发
复方
检查报告
预防针
按
健康
基因
酸
那么
喘
常见
预激
两边
肝腹水
肝性
肺纤维化
口周
六岁
油
马上
男人
气管炎
靠
紧张
求助
右手
脚踝
看下
五年
刚出生
膏
拿
新
生完
脑缺血
上班
熬夜
难忍
自身
复发率
眼角
痛风性
hpv
有人
包块
开水
刺
异物感
试管
挺
人工
点滴
圆锥
氧氟沙星
吸收
吃奶
炎吃
复诊
二次
食道
疗程
喜欢
典型
脑血管病
会痒
拔牙
梅核气
不通
胸片
救
链球菌
用点
再次
血脂
第一胎
子
偏瘫
白斑
红霉素
群流脑
提前
心房颤动
单
放
阴道口
上皮
两
缺乏
通气
炎会
自我
鼻甲
淋球菌
嗓子疼
好使
酒精
苯丙酮
早早
人格分裂
硬化性
包
眼部
睑缘炎
菌
脓包
什
不停
尿常规
三七
段
三级
途径
)
hcg
能活
胸痛
性交
性肺炎
小脑
碎石
老年性
好久
身高
疮
舌苔
无痛
晒
性肝炎
流感疫苗
慢性子
现
尿症
痒痒
斑块
斑
瘘
面神经
双肺
靶向
心脑血管病
类型
敷
表面
生小孩
附近
大动脉炎
车祸
eb
发黑
事项
隐形眼镜
外用药
正在
自行
、
医师
戴
脚肿
脑袋
饭
便是
辨别
房性早搏
告诉
止血
躺
牛肉
死亡
羊肉
小肠
舌炎
肺脓肿
只是
体温
乙型
涨
事情
植入
小儿麻痹症
小样儿
弱智
左腿
不要紧
男科
刨
高危
机率
增厚
低血压
结
咳血
抗原
吃不下
旁边
鉴别
之类
十年
消
核磁
亚甲炎
躁狂症
坐飞机
双角
腰酸
四肢
安全
激光治疗
多动症
药会
不齐
惊恐
碘
单角
鸡肉
不能治愈
生长
中央
夏季
右腿
粘膜
慢
产妇
血尿
至
一颗
额头
不痛不痒
伞端
三尖瓣
盐水
疲劳
浓
要是
小时候
医好
乙肝疫苗
不尽
药品
生气
手机
蜂蜜
向
写
HIV
大量
皮肤过敏
巩膜
放化疗
回
麻疹
胫骨
药流
不行
内科
像是
试管婴儿
胆囊癌
阿胶
精
甲状腺肿
细菌性痢疾
准备
做人流
核磁共振
不知
瘦
联系
尿检
偏低
肛裂
多梦
痉挛性
移植
肾移植
可是
晕倒
割包皮
一只
脂肪
服
眩晕
机会
大拇指
五项
怀
斤
隆起
异物
判定
鸡
尘肺
心血管
液体
开颅
人会
泡泡
灵芝
寻麻疹
双下肢
酒精性
克服
壁
没劲
室上性
瘫痪
气管
血管硬化
乳膏
孕晚期
左手
皮疹
之间
植物
大肠癌
阵发性
婴幼儿
稳定
打点滴
初步
成功
光
治得
超声
高血脂症
病是
药方
子痫
烧
高压氧
第二次
剧烈运动
烂
寒冷
葡萄球菌
我要
女朋友
头昏
弄
饭后
六个
清楚
拉稀
下颌
区
左肺
胎心
下午
切除术
青少年
短
措施
胃窦
挂水
怎办
消化性
吹
抗
飞
嗜睡
及时
骨髓
男生
肾衰
回答
玩
扩张型
见效
药有
度数
刚才
固定
膝
表皮
球
流鼻血
消瘦
止痒
挂号
滴眼液
道
不止
国内
长大
补充
得到
右肾
多天
多次
不去
三度
正确
过程
弥漫性
牙周病
寻常
增强
阿莫西林
尿液
大叶
证
不痛
意义
夜盲症
血脂高
进食
尘螨
儿
喝点
保住
菜
排气
不疼不痒
且
全麻
切
囊性
蔬菜
胃肠
药治
性咽
会变
用力
哪位
丙型肝炎
足底
理疗
拔
口子
伤寒
多长
涂抹
白天
第二胎
里长
分离
淋菌性
诱发
泪腺炎
双性恋
病灶
占位
久治不愈
主
矽肺病
性病变
觉
下一代
断根
肉芽肿
交会
痘
c
放屁
C
其它
吃水果
几期
清洗
早搏
脑干
排
炎是
质量
通
潜血
处有
外科
手足癣
强
脑水肿
筛
从小
伤害
血友病
虾
两岁半
痛感
尺
药能治好
疼痛感
球菌
哦
转阴
部
准确
钙片
飞机
新生
喂母乳
幼稚
拖延
下会
免费
长痘痘
病会
超能
隐形
能生
干呕
好多年
人格障碍
按压
天后
血压低
慢慢
次数
黄体酮
止疼
骨肉瘤
入睡
弯曲
平台
好后
辣椒
天能
哭闹
地
尿痛
自慰
中间
清
类似
情况严重
白化病
周期
家族
脑癌
膈
阶段
用些
为何
膏药
酒
三
方子
T
迹象
吸
四年
咋样
权威
肺上
高血糖
破皮
四肢无力
我会
阴唇
全切
啥意思
做好
胖
睑
肾上腺
白点
起水泡
药物中毒
胆
胃部
很小
心情
创伤性
肝功
红疹
烟雾
乳腺病
补品
几级
王
查血
凸起
蝶窦
八岁
烫
忌
危型
板腺
附件
辣
块
变小
脸肿
性神经症
半夜
口炎
刀口
好痒
左脚
性障碍
提高
有飞
眼睑
刺激
一边
一到
这里
详细
舌下腺
见效快
俩
阴囊炎
桡骨
HPV
有无
甲硝唑
药物性
易
拆线
哭
很多年
脐带
炎有
肛门口
症是
医疗
背上
证明
变化
中心
几岁
人民
毒血症
越
乳突炎
刚好
量少
前天
散
带有
花
取
局限性
长奶
什麼
第三天
主要症状
特发性
低压
图
误诊
疟疾
盐酸
断奶
询问
家人
人类
比较严重
一个半月
预约
记忆力
存活
手术费
怎麼
右脚
损害
大姨妈
存在
并发
肺动脉瓣
舌癌
梗
主任
经
指数
钙
特点
跳
肾动脉
阻塞性
干涩
手汗症
孕前
伤风感冒
二级
小朋友
先心病
胸前
戴眼镜
痛是
能长
紧张性
皮下脂肪
颊
浑浊
食欲
昨晚
分别
糖丸
颅骨
眼科
双眼皮
恶变
肾脏
二
泡水
痉挛
达克宁
保健品
差不多
瘢痕
阴部
保护
女童
饿
消退
偏头痛
窦
风
抑制
阴超
看不清
解读
这病
胸椎
气喘
蛋白质
有救
骨结核
印
岁会
一会
退烧药
病有
撕裂
恐怖症
大小便
小姐
症有
用于
半边
红红的
口服液
怀上
眼角膜
登革热
情绪
一点点
月子
最后
外面
房事
左心室
不完全性
就诊
混合型
力气
广州
停止
可否
蛲虫
脾大
颞
流水
时有
十二
镜
两种
大出血
末梢神经
老花眼
喝茶
皮下
难产
霰
输精管
浅
中浆
肺大疱
粒肿
点点
一级
病能
低蛋白
阵痛
经常性
曾经
主动脉瓣
根管
变大
卧床
出门
淋巴细胞
失禁
冷
毛病
缺钙
后视
臀部
栓
核桃
出疹子
闪光
根部
胆管炎
成功率
胃肠道
只要
凹陷
苹果
胸膜
臂丛
右束
生产
冲洗
这会
简单
排尿
hpv##
培养
药好点
大面积
偏
发白
长个
回来
人体
阴影
白塞病
腋窝
体内
强制性
天花
起床
氮平
当兵
巨大
上吐下泻
口水
巨
而
三周
检验
采取
活
所有
一度
睾丸炎
咋治
邦
每年
于
坏
炎用
踝关节
换药
夜里
边缘性
因素
性能
口交
抽筋
骨性
闭合
百多
热水
药水
窒息
风湿热
有治
外侧
神经外科
你们
戴套
概述
浅表
贲门
厚
降压药
狂犬
角化
反酸
维持
酸疼
概念
僵硬
##.##
孕早期
心悸
肌间
单侧
流泪
手麻
育苗
电
蒸
igg
鼻咽
排卵期
喂
鉴定
处女
洗头
范围
组织
洗液
I
部长
溶血
心理医生
滴虫病
神经内科
痒疹
无症状
igm
内有
阴毛
叶酸
数值
腺体
具有
强迫
十岁
胆固醇
好用
高是
排查
多个
酶
背
孢子
七岁
或是
能治根
补钙
眼眶
后应
脓毒症
脲
间歇性
约
杆菌
刮宫
快好了
横纹肌
纠正
口服药
实性
白蛋白
非小
黏膜
测出
一月
错位
小宝宝
症会
如图
孤独症
泥沙
红枣
几周
流出
眼屎
一片
真性
过多
尿失禁
不敢
腔
腹壁
手掌
婆婆
隔
粑
后脑勺
狗
院
戊
受不了
犯病
血流
母细胞
解释
第四天
克
增加
达到
梗阻性
震颤
超过
基底
晚
间
能查
月份
哪些项目
牙痛
多岁
脊髓型
多少度
十几年
报销
六天
吸氧
隐
敏感
B
鞘瘤
会厌
白塞氏
门静脉
要求
脑卒中
内裤
脑积水
月经期
心功能
食谱
马拉
止痛药
转为
有事
返流
律
垂体
小心
整个
药才
白质
肝上
塞
肺咳
成年人
却
每个
配
干裂
筛窦炎
自杀
认知
很久
下方
一粒
麻醉
养
眼前
鼻腔
人参
近
二十天
脓疱
指导
糠秕
特效
调整
蛋白尿
好药
治理
肚脐眼
曾
红点
最大
粘
代谢
者
石
拔掉
宁
心口
心内膜炎
男士
一条
嗯
脚部
花生
骶骨
嘶哑
打呼噜
基本
尿道口
减
红酒
潴留
空气
原来
粥
着急
肉芽
需注意
应当
昏迷不醒
低钠血症
达
扎
呛
前后
后来
喷
多处
剧烈
不怎么
结缔组织
以上
十一个月
瘊
大腺炎
血块
泡脚
几项
健康证
好痛
天生
增高
tct
网上
活力
患儿
抗病毒
哪几种
定量
😊
天气
胆石症
周围神经
尿床
六项
右耳
嗜铬细胞
站
明确
保健
喘气
叶
香蕉
DNA
相关性
麻风病
谷丙
不断
低下
胸疼
高不高
畅
回奶
坐月子
眼底病
手心
门牙
生物
/
接吻
不良反应
四期
性质
好几个
益生菌
胃酸
吸气
分钟
波
平滑肌
浆膜
咖啡
色菌
上要
二型
少许
礼拜
不治会
结膜
色弱
拇指
奶水
健身
时不时
韭菜
时期
不畅
阑尾
以
肋间
根肋骨
禁食
男童
直
经过
葡萄
特异性
男宝
活疫苗
正常人
狼疮性
七天
大蒜
狼疮
第一
处长
哪科
迟缓
如下
结合
精神分裂
憋气
斗鸡眼
凝胶
下坠
咽
刷牙
好吃
回家
肿瘤科
上皮细胞
估计
贵
任何
关联
终身
脑子
烟
红薯
不来
结节病
时常
中耳
氨
尽快
后天
不让
胸骨
后该
炎能
系统
祛除
辅食
😭
糖
肿瘤医院
擅长
已有
面积
脚后跟
电切
血清
矽肺
结石病
冶好
远端
镜检查
药对
无套
九岁
灌注
外敷
炎要
酮症
烧心
大病
好好
慌
脑脊液
海参
隔离
加号
发冷
毒性
同
前有
×
电解质
做个
累
包括
IGA
这张
绿色
腺肌病
帮看
自动
患病
下体
老爸
刀
门诊
隐匿
明天
窗口期
介绍
蛔虫病
黄水
抓
年前
留
胃底
体外
l
掉皮
男朋友
以下
肌炎
太阳
类癌
日常生活
有害
松弛
治療
白斑病
脱出
女方
疏通
亲戚
尿道感染
发紫
阴
唾液
急救
亲
减肥药
用药治疗
西瓜
听
军训
腓总
缓是
红糖
全国
左耳
瘘管
排出来
碰到
背痛
搽
越长越
脸色
坐浴
开车
泪囊
脾虚
中重度
用手
颗
有疑
臭
零
夫妻
..
全
加上
碰
肺水肿
这药
皮炎平
十多年
没用
用做
典型性
人工流产
饮料
前胸
吃药后
屎
加速
液化
手段
很快
很少
插
打鼾
阿司匹林
刮痧
收缩
周边
心包炎
比如
有红点
基底节
老人家
帮帮我
奇痒
真
鱼肝油
隐隐作痛
二个月
右小腿
遇到
方便
小肚子
嗅觉
长得
核变
丘脑
发了
能过
正常值
单眼
南京
醒来
规律
股
麻药
生二胎
葡萄糖
血精
腹产
洗剂
摔
瞳孔
淤血
胃口
上腹
外伤性
消毒
环
孕囊
进一步
存活率
四联
级别
肝肾
补血
合理
迟发性
E
看见
如
吐奶
厌食
调
一周岁
艾滋
x
苷
补牙
排石
属
虫
左胸
小阴唇
除
毛囊
线
肽
软化
摔倒
盗汗
发抖
脸颊
延长
前两天
泪
检查单
耳后
弟弟
肝部
男方
隐血
源性
不过
能冶好
全部
颅底
椎动脉
黑便
恐惧
继发
上去
早晨
嵌顿
第五天
做肠镜
该不该
行不行
关节痛
冬季
泡沫
照片
响
常年
四周
药店
哪些方面
补肾
肌筋
牙龈瘤
酒精依赖
一段时间
硬硬
娃娃
发低烧
早起
高锰酸钾
动静脉
毫升
器质性
半岁
吞咽
抬
传染病
拉屎
碱性
扭伤
短小
桡
心律失常
男性病
过高
玉米
外翻
宫
严重性
头胎
本身
妈
养胃
看过
癌细胞
脑电图
十几天
西洋参
无菌
鼻孔
汞
观察
症能
闭塞
受伤
特应
黑点
吸入
心绞痛
轮状病毒
性感冒
因子
针对
喂养
肺囊
轻
复杂
清醒
蚊子
大肠
凝血
压痛
洗脸
解决办法
头顶
切开
一半
一胎
使劲
D
可疑
流清
四级
有药
价格
开角型
数据
粒细胞
甲型
带套
结束
床
小孩儿
稍微
美
稳
酮
吹风
疹
伽马刀
蓝光
疼得
南瓜
边缘
蛋白粉
夹
脱髓鞘
真菌性
隐翅虫
皮肤痒
发育不全
红血丝
HPV##
上药
太阳穴
不留
潮湿
燕窝
肢体
坠胀
牌子
摔伤
周炎
不太好
纳氏
不爱
肺门
颅咽
防
献血
整天
梅尼埃
切口
宝妈
暂时
消掉
缺
这次
两肺
下次
干扰素
后脑
之
近期
人格解体
蜂蜜水
第二
头晕目眩
右心室
哑
占位性
根型
产
蛋糕
无效
奥美拉唑
头晕眼花
喝咖啡
搞
十
缩小
漏
未婚
揉
受
窘迫
双腿
药用
侧
率
辅助
假
连
粗
舍曲林
骨肿瘤
唐氏
眉毛
边
受损
下叶
凸出
推拿
影
紧急
囊炎
石膏
神经痛
通而
外婆
蜕皮
宝
类风湿病
小红点
仪器
根尖周炎
阴虚
沉着
浆液
：
很红
二年
意识
硬结
成年
断
变黑
八天
各种
干细胞
不高
作
射频
期是
双肾
癌有
啤酒
泄泻
喝啤酒
眼膏
耳
榴莲
诊治
病例
肠子
结果显示
配方
叫做
床上
前列
睡着
己
做些
挤
胎芽
前段时间
神经管
溴
没来
洗牙
胃管
成型
挫裂伤
妇女
迷糊
虹膜
猪肉
食补
待
凉
谱
上方
钢板
妹妹
长有
得病
治疗法
心梗
小包
梦游症
阴痒
t
三维
柚子
松动
坑
中风病
颧骨
碱中毒
吊
掉头发
预兆
撞
乘
粘稠
药都
生殖
进口
看着
浸润
是非
心室
睫状体
阻生齿
输血
做梦
肛周炎
视网膜炎
枸杞
可见
携带
全是
照顾
俩个
椎体
三甲
肟
额叶
貌似
不良
时会
罗红霉素
转变
煮
完胃
消融
跪求
倍
可用
谢
散瞳
动脉炎
困扰
看不见
信号
百度
拖
闷
拆
耳前
产品
我脚
优甲乐
有助于
封闭
吃螃蟹
髌骨
穴位
不够
单核细胞
皮试
采用
猫
黑棘皮病
忽高忽低
妇产
看不懂
六年
降压
速度
年纪
拉血
挠
棒
修补
性病科
干活
女宝
可治
中药方
妈富隆
寄生虫病
板蓝根
上起
胎记
季节性
纯牛奶
十多天
怕冷
耐药
亢进症
肾小管
药来
咯血
宫颈口
较大
刮
炉甘石
面包
快些
查询
不明
切掉
性行为
学习
六周
验
神经质
不清
眼肌
防疫针
过来
病能治好
物理
饮酒
溶栓
区腔隙
患过
小女孩
卡
气泡
过敏源
五
标志物
后续
吊水
不规则
氧
节
出疹
擦药
配眼镜
抱
正是
舞蹈
病该
季节
如何是好
条件
一型
上午
倒
死亡率
双乳
氯雷
右膝
止咳
通畅
一步
骨科
沙哑
告知
中草药
行为
新液
搭桥
早博
代偿
四次
父母
肩胛骨
百白破
物
思维
两周岁
M#
肾下垂
维
少弱
稍
对比
常
对症
血肿
鸡汤
胸腔镜
张嘴
复杂性
非典
单位
进去
蚕豆
中老年
粉尘
林
蒲公英
县
我患
这份
脂
毛
应用
天疱疮
手抖
斜颈
间隔
海带
低会
训练
交通
停经
霰粒
窝
精神病人
愈后
肿物
肠化
超标
降下来
生理
可乐
感到
证状
稀
症该
媳妇
坏处
这算
打篮球
低热
眨眼
三联
二甲
透明
围产期
蹲
一类
坚持
黄痰
回事儿
脚麻
安宫
血象
唐
几度
诱因
二岁
天津
面膜
藿香
跳动
有点像
增长
后遗
意外
纵膈
找个
各位
定期
换肾
反胃
上升
舌
舔
法
脑内
药能治
胸水
面条
无脑儿
似的
性欲
脑胀
黄豆
血气胸
完后
开裂
预产期
肩
能消
流眼泪
这能
IgG
臭汗
受凉
甲型肝炎
骨质
成熟
保温箱
腮腺
左小腿
准
剧痛
这有
肉眼
皮样
眼药
单发
唑
保持
薄
郑州
腹膜
受限
风疹块
云南白药
肛肠
吞咽困难
骚痒
出去
能得
病状
差别
左上
分为
######
有块
发胖
疔
对称
臭氧
发病率
沈阳
喉喘鸣
喝奶
上叶
会成
剖宫产
那位
贴膏药
扩大
致
长好
癌是
蛋
胎动
病用
儿童医院
水平
糖浆
春雨
成都
苦恼
胆石
长痘
啥子
喉
肱骨
能行
好长时间
烦躁
就要
金银花
脸红
氟康唑
一辈子
背后
肝区
尿布
移位
取出
HCG
就医
吃完饭
啥病
粗糙
乱
咽痛
长出
跑
斑点
有脑
血检
心房
拔罐
炎该
脾气
老妈
边上
感谢
堵住
会阴
冒
中午
减毒
宫寒
我刚
重型
直径
出虚汗
偶发
暂停
火烧
过快
d
e
起红
知觉
醋
双手
房缺
酸胀
含
疗养
运动神经元
气血
骨刺
软下疳
脚背
仍
每天晚上
用量
额
一阵一阵
微量
食用
切割
喷剂
进展
脓血
好看
我用
偏小
小男孩
处方
武汉
生存
室
间质
卖
鼠疫
代表
割掉
末端
湿气
避孕
天有
一碰
胡思乱想
几
开腹
升
下壁
针剂
专科
放射
虚
生殖道
手背
分期
微
挫伤
动力
随着
转成
闺女
出血点
治才
深度
做肠
测定
治能
多喝水
假如
味道
低位
冲剂
飞蚊
脚痛
法洛
十个
子宫炎
三周岁
牛黄
白酒
上学
急性期
过期
深呼吸
日
病发
剥脱
球蛋白
咽部
泌乳素瘤
請問
久坐
快要
翻
室性
痴呆
肉球
抵抗力
雌激素
忧郁症
要查
护肤品
花费
一次性
转化
根治术
敢
接受
脚趾甲
吊瓶
用过
灵
首选
知识
减会
翻身
配合
下腹部
低度
一根
丝虫病
华西
许多
剂量
均匀
表面抗原
三月
佩戴
伤疤
坨
鱼油
纹身
底
根据
蜂胶
加深
伽玛刀
清除
忌讳
破溃
三金片
上个月
胰头癌
看病
智商
精神科
染上
素
癌能
螨虫
两对半
风扇
反
内镜
重影
营养品
IgA
黑影
病好治
肾盂
梗塞
按着
急诊
年轻
软腭
时好时坏
病要
瘊子
表示
塞药
好烦
们
软肋
疼不疼
替
六
弯腰
不洁
饼干
曲张
要花
食品
蛋黄
期能
药是
浸润性
姨妈
代谢性
分散片
嗳气
依据
黄胆
全面
那家
饮
有肠
长到
套
吐痰
甘油三酯
烧烤
一下子
谷维素
#a
成为
综合
十字
总有
肛交
形状
印子
科学
间接
湿
酵素
传
i
伏
缺失
七年
段时间
资料
涂药
这边
乙肝患者
中国
瓣膜
截肢
大于
鱼汤
通水
中段
进
TCT
水能
插管
马应龙
能带
那样
顽固性
康复训练
淤积
合剂
当时
脾胃
添加
II
醋酸
石家庄
外出
弥漫
皂
因该
螨
脑栓塞
说法
右上
肚皮
联合
讲
清理
劳累
紫色
所
药酒
泡温泉
休养
外公
绝经
不住
➕
上眼皮
掌
克霉唑
溶
精神障碍
X
多高
微小
灼热
尖
回去
双脚
氟
子宫颈癌
拉大
流口水
唐筛
癌前
##cm
割完
特
他定
非淋
没长
补救
血沉
谢谢您
方
生子
上应
一圈
失败
分型
恐
布洛芬
半身
乔本
十八岁
红豆
咯
胃里
四
进行性
下边
长年
骨炎
周多
受到
细
妈咪
渗血
皲裂
旁
安
学校
乳晕
终生
性疾病
脚臭
下身
半身不遂
成功率高
洞
喘息
算好
突起
隐亭
痔疮膏
难度
半年前
甲鱼
夜晚
不退
像不像
吃生
性激素
加快
钡餐
高风险
渗出性
妻子
疼会
八年
颞叶
未孕
不再
国家
待排
抬头
催乳素
会胎
蓝
顺利
转换
发胀
路
深圳
鸽子
抖
变异
检查和
描述
侧脑室
倒流
具体表现
解释一下
注射液
娃
入院
咳痰
当
变白
每晚
今
青春痘
猪
完全恢复
硬度
骨盆
转变成
坐骨神经
闭合性
一位
同学
Iga
缓慢
左脸
缝
救救
吃糖
能吃些
肯定
退热
离
附
奈德
破伤风
点多
高血压病
前面
须要
对象
两只
尤其
喉镜
我能
看不清楚
钠
糯米
#####
性爱
解
余光
多汗
舌根
裂纹
强化
今日
行走
监测
转移性
管事
夜班
病患者
派瑞松
春季
最新
时能
山楂
脱敏
自费
太难受
腮
交流
几乎
要输
康
食欲不振
豆腐
绞痛
退化
伤后
早餐
促
往
上来
复视
症要
睑腺炎
螺旋杆菌
站立
安排
止疼药
寻求
白喉
他克莫司
朮
双胎
农药
靠近
内脏
症狀
辦
等待
电脑
心源性
挂线
里边
最合适
昨天晚上
花粉
請
腹胀痛
芦荟
能治得
自卑
肝右叶
茶叶
会事
治疗仪
牵引
学生
位于
刘
晶体
马蹄
刚生
影起
不消
发紧
柠檬水
牙隐裂
未见
生病
抢救
撸
前列腺病
百分之
延迟
牙病
埋线
症用
查体
第五
拿掉
变得
肿是
备
包扎
落后
辅导
脑神经
牛黄丸
会起
o
所致
减退症
流感病毒
三种
灭
当天
医保
运动性
房
乳
重庆
患处
入职
起因
发现自己
成活率
技术
身子
破损
中老年人
山药
杂音
隐隐
习惯
不坚
坠
磨牙
两条
出气
没得
劲
清洁度
染发
当地
频率
提问
男婴
瓣膜病
头脑
心理咨询
凉水
植皮
化妆品
五周
促排卵
宫缩
口渴
米粒
过敏原
染
七周
之内
压缩
视物
机制
胍
偶有
毛糙
危险性
瓜子
栓剂
病历
伤残
小点
保妇
喝药
打吊针
紧
大半年
大会
丛集
吗啡
蒲地
几颗
去世
诊疗
起红点
失忆
狂犬病毒
打算
海绵
溢脂
忘记
M
泡澡
长高
发烫
指教
吻合
脚面
黑变病
撞击
核酸
耳洞
养护
辅酶
参加
人有
严
b#
泌尿科
管子
肠绞痛
芒果
氨酚
话
零食
进入
舒
纱布
喉部
主意
红印
肌电图
帮帮忙
没治
消融术
中医院
促排
中枢性
微波
一吃
流涕
六味地黄
参差
毛周
儿科
绒毛
性贫血
安眠药
起痱子
洗手
挑
有得治
肺性
炖
过量
火
很瘦
专门
葡萄酒
闻
_
少精弱
调解
稠
再生性
姐姐
杠
正气水
甲功
慢跑
变硬
变细
固定性
侵犯
草药
沙拉
地塞米松
常用
内服
抹点
符合
食
需做
一项
要切
双氧水
出血性
后脚
中有
在生活中
渗出
修养
叶黄素
口苦
血型
糕
变癌
爱人
腿脚
四项
虫草
常常
医学
呼吸机
电轴
胃药
含有
耳膜
流程
拉肚
造口
求教
吖
着凉
紫
买点
反复性
人群
打吊瓶
出是
治根
意见
处于
失
髌
右脑
眼白
心律
丶
西安
新鲜
裂有
二个
能冶
有利于
新药
甲胎蛋白
什药
纯
自体
不带
短暂性
治病
查看
究竟
呼吸衰竭
思明
检出
大隐
羊奶
带点
葯
血吸虫病
顽固
喝完
几粒
碎
药要
优
二十多天
下腰
发软
冷敷
难道
砸
汀
多钱
克拉
下不去
男女
双胞胎
移动
疑是
不易
咽干
铁
收费
手指头
耵聍
大片
逍遥丸
可行
口腔疾病
器官
#MM
隙
明白
沒
请求
绷带
割除
愿意
石头
掉下来
隐疼
呼噜
四五年
脚趾头
阳虚
炒菜
特殊
原理
拔火罐
记得
开塞露
康栓
生长激素
消了
鼻梁
露阴癖
全愈
过速
感染者
胸透
滴度
红绿色盲
肛肠科
不长
内扣
五次
涨痛
装
侏儒症
精少
鸭
眼晴
女友
不治
硬性
绝症
有什
牛痘
高会
妊高征
电子
哈尔滨
嚒
家里人
锻炼身体
不宜
.....
肚
下图
两月
度能
肌酸激酶
淡化
皮化生
最早
弓形虫
流黄
烦恼
抽动
头胀
最长
药后
持续性
肾内科
会出
烤
中叶
偏执
跟腱
姿势
佝偻病
发干
会治好
记忆
周有
疼有
橘子
指点
小针刀
上能
促进
天麻
出脓
益气
阴道镜
....
五十岁
妇炎
发凉
老鼠
经验
夫妻生活
屁眼
看起来
断裂
阿姨
诊所
肺里
没见
多少岁
溶液
寒风
率高
黏液
双耳
晒太阳
抽风
大包
上肢
逆转
解毒
可靠
头颅
烤电
吃什
第一天
没法
丹参
坠痛
冷水
小于
侧切
中枢神经
x#.#
米饭
泼尼松
摇头
淤青
抓破
鼓
有气
凹
难以
溢
疯
养生
潜伏
脑膜
姜水
不下
舌乳头炎
多度
病情严重
打胎
餐后
意味着
止不住
难好
虚汗
求救
忽然
挤出
会患
马
法治
心境障碍
分化腺癌
复合
左下
应对
肌腱
口唇
肘关节
降血脂
星形
创面
豆腐渣
血红蛋白
咋整
腘
中医科
专治
st
第六天
拍片子
缓伴
今早
毛巾
霍乱
皮蛋
全性
孢子粉
起小
抽水
红包
微痛
尾骨
一小
泡茶
因起
早饭
血项
鳞
得治
历害
CM
致癌
熏
通常
瓣
汤药
一共
电压
完药
土豆
左腹
彭出
抗过敏
珍珠
病好
宽
胺
滴血
七
上会
前要
疗
缺钾
断定
金
失去
脊索
肾阳虚
外有
最高
拉伤
转院
香港
慢行
病毒检测
横
非得
轻中度
看得出
偏曲会
腮帮子
小宝
喝多
做出
修补术
骨关节
很胖
同性恋
喘不上
答案
炒
包裹
药行
绿
痛得
心烦
多会
大碍
交感神经
物理疗法
辽
椎
奶茶
各有
体现
两三年
手肿
处置
指征
谷草
急求
能测
下眼皮
春天
脚痒
随时
主食
鱼腥草
最多能
赤面
长满
蜂窝
分叉
鼻翼
哮喘病
L#
睡觉时
发肿
三叉神经
食指
念珠
行成
闭塞性
黏
抖动
磨
冻
水样
髁
生活习惯
预防措施
化妆
果冻
强的松
臭味
温度
公斤
高能
内测
脉络膜
浓度
加强
形态
塌陷
光滑
增生症
低于
胸腺
油腻
吃火锅
声
不太
纹眉
一生
口气
既往
发青
流行
心内科
打过
总疼
三四天
裂是
肿疼
牙膏
出血量
脑室
豆豆
免疫组化
发出
手脚冰凉
私处
间隙
ca###
底下
群
飞秒
过去
皮肤性病
爆发
纹理
射
减量
非洲
哥哥
脱位
老有
病程
阻肺
冲
甘油三脂
有点儿
长小
口角
石通
多生牙
经常出现
被子
刺痛感
黑豆
气虚
错
除外
脑缺氧
动眼神经
锌
完成
猴子
前得
石斛
乙
尿量
术前
游走
嗪
祛疤
冠脉
弄掉
第三次
增宽
疏松
现已
头孢类
很着急
上不来
犯困
鼻血
一张
把脉
肚疼
害处
小孔
假瘤
酸软
冬虫夏草
女郎
吊针
将
项
盘状
大家
卡介苗
左面
催吐
不成形
自
起皮
内斜视
形
杀菌
脑鸣
精通
抹药
假性近视
有治好
良方
制
局麻
黑痣
打呼
死前
真菌病
胃体
防御
十二岁
睾酮
中指
理解
眼泪
原则
是从
鼻漏
肿起来
上颚
会阴部
祛
脸针
盐
黑头
哪儿
体位
房性
误食
发做
要命
肠痉挛
隔代遗传
起包
孕吐
认识
乳汁
布
dna
神经节
牛羊肉
十七岁
毛孔
脾肿大
绿豆
F
脓性
缝合
上长个
改道
盲肠
狗肉
总想
癌会
烦死
糟糕
足癣
有所
精吃
暖
二十年
接近
大豆
滴眼药
费劲
月经周期
毓婷
国产
试验
成分
流汗
钾
高钾血症
幻觉
碍事
饭前
弯
病症状
止住
后患
影像
熬
粘液性
骑车
分流
藏红花
酒后
肺泡
滑膜
轻伤
生育能力
尖锐
复原
哈
泌尿外科
眨眼睛
精油
积血
硫磺
梦
理疗仪
颞颌
外观
亢进
皮脂
交替
受精
功效
生姜
没救
骑
补中
参考值
不出
紧绷
暴躁
干嘛
紫外线
乳酸
手汗
跟治
一针
方便面
原体
戴美瞳
救治
女孩子
会肿
千金
急腹症
眼花
输水
不得
整容
集中
蒜
上涨
黑色素
检
胆源性
口里
六十岁
二十
加剧
垢
保胆
危机
腺细胞
生存率
一个包
侧壁
诺氟沙星
鲜红
阳光
花椒
杭州
肠鸣
正气
可逆
若
黄瓜
理想
两根
这要
蛋蛋
两颗
不准
锉
排不出
减能
肋
会留
爆皮
颅压
动作
忌嘴
出诊
摔跤
马桶
脱
ST
超生
疥疮
有腺样
红皮
急促
视野
脂肪粒
蒙脱石
创伤
就行了
整形
用眼
股骨
姑姑
置换
北京协和医院
盆底
无创
忘
眼珠
右面
长不高
打哈欠
平扫
后腰
鳞屑
五十天
肠瘘
增粗
带来
前突
适当
散结
乘以
用派
铁蛋白
换血
软胶囊
脚跟
汗斑
B#
#b
辛辣
汁
cin#
练
最终
麒麟
阴超能
昏厥
生牙
要治
会流
枕
厚度
菊花
伪膜性
多大能
庝
绿茶
异性
煮水
口服药物
下床
重要
水疱
性炎
昏睡
有多囊
醒过来
多有
抗结核
美容
奥司
H#N#
超单
听不见
家属
扫描
后腿
主治
双方
远
B型
很胀
看不到
南昌
鬼头
急慢性
略
一道
失血性
拜托
自测
腰背
硒
济南
分子
会有
尿潴留
红茶
结晶
器
第十天
怀过
自救
枕头
进来
配镜
手法
风能
爬
囗
皮癣
口蹄疫
将近
抓伤
皮屑
两项
喜
拌
一段
等级
晕厥
鼻窦
我长
走动
髋臼
Ct
尿多
老太太
罗汉果
癌胚抗原
胡
吃醋
字
办理
电话
本来
肝內
脚指甲
内部
衣服
降到
等等
慢支
孙
单抗
四十天
头皮屑
病后
本地
十分
啥时候
专科医院
其
女婴
另外
耳垂
瞎
这方面
八月
好怕
西红柿
强直
买药
按时
重物
触摸
赵
尿素
诊
一切正常
性变态
肝移植
应激
周做
地尼
青
李
拔管
牙根
中要
没关系
危人
丹
补铁
门
环状
鼻镜
果
就算
沟通
惊吓
出水
精神状态
好了没
白醋
干吗
炭疽病
泻
布鲁氏菌
骨骼
失常
扁
制氧机
能力
看得
粉色
用来
经历
几针
肾阴虚
粪便
麝香
硫酸镁
击伤
韦
恶露
一小块
金钱草
满脸
分不清
挑破
再长
铅
药抹
有泪
很累
十五天
不可
缺少
甜
确证
我生
传给
一动
霜
仍然
艾畅
吃会
第二个
早醒
妄想症
子宮
病菌
后起
剔除
樱桃
硬化症
胃涨
歪斜
桂枝
升结肠
药流后
清开灵
九天
精囊
立即
碘盐
流掉
测量
梦游
迟
压
产褥
致命
鼻水
鼻部
指骨
周得
剖腹
生存期
肛管
化疗药
各
做不了
肩关节
医得
痛会
芦荟胶
脱毛
正规
后长
戒烟
哪类
丈夫
案例
算大
长斑
m#
变直
硫酸
右胸
则
解尿
血泡
寄生虫
规范
痕迹
可信
起个
结疤
灰
抬高
幻听
唇
疼死
分裂
伴肠化
严重后果
应挂
纠结
高温
岀
脾脏
外加
死人
啪啪
体征
钢钉
褥疮
吃豆腐
太小
莫名
后头
金刚
露
系带
下颌骨
结块
残留
上周
静脉注射
还好
阿昔洛韦
玻璃
心理治疗
排毒
平
针刺
补佳乐
时说
忌食
味
有脐炎
一份
适宜
ll
录音
维护
疖肿
挤破
A#
卵巢功能
早晚
淀粉酶
摆脱
自查
根尖
挤压
通便
健忘
产前
肉类
鸟
能拔
首次
最有
回流
黄芪
搏动
化生
最多
周加
等于
禁欲
腰上
利巴韦
两眼
蛋清
##%
茶好
三项
开胸
男子
眼里
交叉感染
心脑
米酒
干什么
何为
姥爷
n
面对
他乐克
冠状沟
饮食习惯
发涨
癌症病人
干预
我前
黑斑
子宫颈
血液科
茯苓
BB
😞
底部
左前
血透
馒头
姥姥
降温
槟榔
一夜
实验
腹沟
鼻屎
防护
睡醒
肩部
cT
针会
两张
慢粒
麻是
咳喘
要么
小囊
鸡翅
鼓起
红痒
😢
罐
泡腾片
姜
心机
💊
中医疗法
苦参
坚果
清水
间接性
纳囊
用什
大嘛
芋头
拔出
左心
肺内
脓水
小灶
个子
脏
头会
雪梨
辐射
扎针
够
运动会
放射性
止泻
孕检
咖啡色
排气管
睡前
脱水
困
杀
名医
十六岁
思密达
Q##
丁
粒
鲜血
每
好会
华蟾素
冰糖
视盘
全程
点状
李医生
女士
幼儿园
沟
肠系
吓
尿里
银耳
玩电脑
初次
剪指甲
不久
还痛
四川
气味
侵袭
肺叶
安装
反射
清嗓子
氏杆菌
滴耳液
高出
接着
宁片
没生
再要
它会
前额
上环
激动
内外
靶
局灶
反映
胸脯
外涂
翻足
多谢
蜂王浆
多点
防范
中年人
接下来
有白
左膝
泡性
五周岁
全套
煮熟
交界
接触性
别
青枝
对待
洗肺
片能
密度
距离
照成
胫
家族史
瑞松
减压
硫
征状
附属
兰州
烤瓷牙
选
危害性
咸
代替
指头
坐车
传统
两三天
验尿
不顺
伸不直
此
公公
开药
嘴上
胃粘膜
我怕
含片
难看
易怒
种类
动完
着床
少会
盘
成因
语言
凌晨
第七天
好治嘛
缓释片
安宁
重金属
帕罗西
上部
剥离
药擦
药敏
热水袋
响声
弱阳
酚
几分钟
裂缝
氨基酸
脓液
左室
温水
人型
应多
阿昔洛
第一个
钴
注意力
脑子里
玛
喝了酒
洗面奶
地贫
托
肉毒素
右乳
灼烧
喉咙干
及其
雌二醇
右下
五六年
开刀手术
杂菌
有弱
鸡巴
做腺样
癌痛
织炎
不排
null
扣
图中
我手
咋个
心超
不错
刀疤
姜汤
四周岁
团
棕色
门上
易瑞沙
一阵阵
块状
公务员
值高
硬是
氧气
硬膜
气体
多种
抛
根冶
算高
没药
活血
心窝
普外科
肿起
行么
自我调节
有大
科看
小鸡鸡
下眼睑
AD
扎破
能醒
顶叶
喷雾剂
腓骨
必需
求看
去查
爱爱
症能治好
鼓起来
手术过程
黛力
节结
IGM
牙好
有病
有益
印记
已婚
空
妄想
万
初
动脉血
一回
头有
替硝唑
评估
左臂
肠管
协和医院
叮咬
后果严重
️
完肠
菠菜
有红
艾滋病毒
脚心
多么
冰冷
风心病
火锅
耳鼻喉
鼻出血
超级
无比
秋季
今晚
内科医生
笑
旋转
完会
能涂
药方子
得花
比例
脑科
自理
前能
迅速
孔
右肝
家用
查查
川贝
下泄
硝
肠结核
嗡嗡响
黄绿色
搭配
照影
平衡
绑
病根
发音
·
多大才
针后
不发
口腔粘膜
梨
疖
马尾
药房
何时
芹菜
水洗
酸钠
洁尔阴
电击
坏死性
为主
腿酸
俯卧撑
鹏
AC
###cm
造口术
幽闭
式
甘蔗
唱歌
HP
减缓
妇幼保健
二院
全能
治有
很长
亲吻
手指甲
优生
药较
后位
沉淀
取石
先心
昆明
怀不上
甜食
表
趴着
动态
口疮
送
没消
救心丸
🙏
鼻头
腔隙
测试题
痂
黄热病
周期性
延缓
一身
一层
广东
扑尔敏
据说
免疫系统
头孢曲松
查不出
内瘤
八
几片
易醒
前会
低头
被害
跳舞
钼
灵活
美林
澡
左叶
感音
糖类
视线
叔叔
打球
精神性
心肺
急需
八字
迟发
声像
长沙
祛斑
脖颈
茸
发硬
呐
仓鼠
肠溶片
危险期
保
小气
钩
农村
护肝片
奥利
MRI
伴鳞化
花胶
躁狂
部瘤
累及
民间
最坏
接
鸭肉
精神疾病
助听器
黄疸型
见风
一大
地步
漏气
人工授精
气道
妇科医生
黄是
解决方案
刮片
咕咕
避孕套
蔓延
疖子
纹
痛有
西藏
脚尖
过多会
有长
后壁
清热
噎
针好
牙髓
脚腕
摘
煲
流食
记性
低置
益
利尿剂
儿科医生
印象
藓
孩
衰弱
粗大
常见病
摸上去
烦躁不安
细节
质询
多吉
鹅蛋
吃晚饭
核心
初步判断
最少
浦乳期
催乳
性鞘
呗
饮用
洗完
嗜
生出
多糖
海鲜类
唉
压缩性
不少
腭
艾叶
针有
保留
确实
夜
手摸
男友
卡韦
沙星
运动障碍
要死
黄连素
划痕
挤出来
郁闷
卵磷脂
脑功
检验单
这块
鸡鸡
今天上午
牛
一热
一浅
显著
左手腕
闭式
苦瓜
豌豆
这该
高中生
复检
脚有
血是
厌氧菌
选用
硅油
启赋
三代
司
肾功
碰水
庆大霉素
取环
要滴
心电
乳腺瘤
胸有
m
S#
脐带血
蒸汽
内出血
地区
先进
得来
小泡
多吃点
五联
复
原发
就长
想到
认为
阳
危后
磷
节食
用法
泪道
低氧
灭活
）
房间
舌尖
喷雾
杀死
汗毛
封闭抗体
瘦下来
呼吸系统
牙齿痛
针能
除去
涨疼
該
右心
怎治
重复
成活
退后
火旺
对方
大全
鸭子
验孕
鲜红色
应急
十一岁
大牙
门脉
针头
讲话
鹿茸
家有
至今
腺肌
二月
活动期
打电话
扶
最小
合格
愈
自主
养好
冰
家庭
现有
无精
医冶
丹皮
干痒
豆制品
大脑炎
同事
三十岁
豆
地黄丸
度会
小红
十五年
每分钟
急性子
两三个
冯
大动脉
肌病
得出
影不
下段
全身性
瘤子
伟哥
口腔科
多大要
打扰
一个多
第九
灼痛
泡面
降血压
精弱
睁不开
ma
柠檬
瘉
咪
噢
小米粥
硼酸
性脑
猪蹄
全组
生理期
清扫
°
A型
颈内
压抑
丙
强烈
顺
陈旧
干重
查处
胃角
黏连
好大
呼气
体力
粉碎性
电影
汽车
所以
卫生
安神
利胆
机能
多疑
##kg
依然
米粉
低密度
瑜伽
桃子
同一个
破腹产
十二天
样变
洛尔
性囊
不透气
往外
月龄
后代
治用
止疼片
右叶
实质
腥味
丰胸
环境
各项
查过
冒汗
变是
IgM
粗盐
胰岛素瘤
中山
羟
腿软
溃疡病
瘦肉
恢复健康
痒痛
危及
相似
曲度
期前
奥
总会
平躺
看电视
更加
中性
右室
桥会
杂
发慌
第几天
医大
翘
裂高危
拉定
眼疼
骨龄
颌骨
最初
那有
不适感
马齿苋
心痛
求问
被动
妇炎洁
乔本氏
安定
打碎
腹疼
致死
癌能治好
两腿
伴鳞状
烦
少精
黄酒
十三
吃喝
生殖器官
学
头屑
龙胆
奶瓣
三高
常用药
免疫科
所谓
衡量标准
爬山
莫
啥事
长春
没力
⊙
轻重
✘
lgg
正中
完肠镜
少儿
黑素瘤
j
情
睡眠不足
卒
冠心病人
##ml
精神病院
失灵
无痰
高有
有颗
拉粑
肺不张
记录
香菜
希罗
左胳膊
啪
抗癫痫
分类
衰退
腰困
阿米巴
立刻
驼背
jj
症壮
低血糖症
三角区
胃部不适
能补
十三岁
拉不出
张口
仰卧起坐
右脸
有什麼
豆类
蚊虫
当月
样癌
盖
#.###
开口
几点
完针
转化成
哇
不安
惰性
扭曲
入盆
苏打水
有眼
河南
左肝
妥布
上唇
桂圆
能割
要拔
眼看
高低
气滞
依赖
第四
泡状
真是
足部
一号
健身房
柿子
降支
扩
背疼
咨
葱
嘴边
之分
鼓鼓的
历史
双顶
能救
生理盐水
镇痛
丙烯
戒酒
寒战
未来
甲状腺素
引流术
伊曲
高级别
耻骨
从来
偏瘦
平扫能
整
甚至
外长
纵欲
‘
金黄
俞
菊花茶
前驱
重大
受压
海边
难耐
有解
狗狗
径
心前
轻型
内口
自检
感情
冠区
出肝
后置
十三天
怕不怕
ABO
爸
康唑
平均
老疼
完汗
能办
落下
给予
本
美瞳
呆小症
致密
做月子
淋菌
美国
太高
......
胰头
生发
泛红
高考
冲突
速效
坠楼
我查
鼓包
胸上
三四个
问诊
发物
职业病
草
血值
天会
病证
肾上
性功
验光
电切术
疼该
鸭蛋
胡萝卜
增殖
点儿
停育会
类药物
孔型
模糊不清
印戒
龟
求医
角质
饮水
焦躁
ac
气肿
插尿管
耳道
每到
周能
条
龙虾
趾
鸣音
室管膜
肥肉
不算
康片
治本
炖鸡
非淋性
岁腺样
内容
睫毛
平稳
脚疼
族
非司
心病
爱哭
高原
残余
四五天
撒
例如
初产妇
必然
转移因子
免疫治疗
步
胸腹
非处方药
盆
第八天
看望
猕猴桃
疼疼
妊高
平坦
报
付
羊
大枣
血会
肚胀
酱油
能备
户
高三
停奶
小腿肚
短暂
侧身
通开
好发
血色
能干
他人
阴蒂
播散
附院
满身
蜈蚣
通液
菠萝
距
稀饭
面容
能下
右膝盖
层
冰凉
骨髓移植
看一看
恐艾
早上好
三十
性肠
肛肠病
超声波
折磨
大学
计划
不拔
痛疼
干皮
一米
愁
一深
煤气
店
前叉
残疾
时而
怎樣
牙有
同仁堂
步骤
念
伊可新
老慢
螺旋藻
读书
试
陰道炎
活动性
一分钟
二十岁
方剂
s
上边
忙
后方
混合性
要用
下个月
长过
来个
小苏打
很困
九年
烤肉
下雨
注
平片
分裂症
眼红
催产
哎
摩擦
查到
睪
看不出来
归
通红
采血
那边
薄荷
减低
广泛
三四年
脑梗后
丁啉
氧化锌
性腺
保证
灼热感
机
才行
终止
过缓
区域
拔除
乳癖
不破
黑变
胶原蛋白
腐烂
体验
紫菜
人用
擦伤
胸是
中年
不吐
能吃生
输完
烟熏
除掉
尿裤子
根本
性传播
台
有甲减
老爱
和解
跳绳
良药
营养液
能能
具备
针眼
骨膜
吃零食
产检
看个
白血球
功血要
查是
计数
利尿
划伤
肢
保肛
水会
围生期
一支
剖
网膜
预苗
胸外科
乳突
眨
患肠
戊肝会
葵花
反弹
畏光
^
十五岁
上该
合
观察法
好冶
所说
抑菌
臂
边缘型
猪油
吃水
爆
发脾气
烧退
标记
灰色
波动
心外科
皮质
夹闭
贵阳
虚弱
地屈
侵蚀性
眼袋
秒
我儿
否
扒
茴香
秋葵
化学
神经功能
身体虚弱
呋辛酯
金丸
偏胖
定片
药量
过早
指甲盖
更换
面食
摩托车
喷嚏
聊
捏
双膝
~
哪些因素
隐睾
消吗
香菇
怎嘛
人得
*
生婴儿
个人
有类
狐臭
橙子
裂会
睡姿
真正
打掉
开些
翻白眼
体力活
去过
看不出
杨
没退
初中
莫名其妙
哨兵
脚指
疏导
咱
上颌骨
春梦
口中
人应
缺铁
己经
过大
经血
阻断
外向
山东
抬起
期吃
练习
秘方
变窄
高于
鲫鱼汤
火辣辣
有利
生精
合肥
发闷
性别
片会
湘雅医院
鸡蛋黄
封堵
湿润
氯霉素
北京医院
雪糕
求求
团块
颤抖
婴宝
打瘦
改用
血稠
暗区
转位
上身
提
##x##
贵院
性冷淡
乳酸菌
吃茵
蘑菇
不能不
混
还用
下颚
公司
竖
我右
鱼虾
一科
哪几个
求治
位
药可
便宜
小拇指
意
尾椎
伴肠
MR
两道
崴
脚掌
灸
重新
趋势
咽颊
十四个
利福平
全好
冻疮
药治好
松解
缺什么
突
报告会
时有时无
好事
脸黄
流清涕
摘掉
滑动
发型
六次
弹力袜
L
胶质
长效
怀孕期
lga
甲状
肺有
皮质醇
从事
长久
擤
缺乏症
安乃近
肿涨
活性
起奶
间期
变厚
白头发
瘀血
口吐白沫
闻到
肛泰
荔枝
碘伏
智障
畅通
长霰粒
眼神
信
肿得
夜尿多
相处
省
妇产科
牛排
图是
滴剂
他们
今天下午
艾草
能照
同治
纸
雄性激素
女能
奶头
何
内壁
未成年
内斜
月饼
小妙
只用
幻想
换上
创口
提升
购买
后流
低落
一口
身体健康
哪治
定义
三九
球囊
可不
大师
胳膊肘
威胁
长胖
恩替
宫口
咬伤
好心
中心医院
一百天
突变
分开
得知
后能活
中西医
行动
心动
静
呆
左乳
第九天
肾石通
一阵
做成
开过
查些
颠簸
疾控中心
家长
葆
豆角
损坏
脊
呕
刺破
第三
这颗
右半
全身检查
变好
不进
时得
当中
以为
红外线
打完
人家
蚊
应吃些
##x##mm
物质
鼻癌
呼呼
五月
很重
融合
左肩
末次
抗抑郁
小细泡
楼梯
克制
其中
不红
栀黄
沾水
原
基本上
轻松
得救
戒
粽子
桥要
会越
乌鸡
电疗
内耳
占
一两个
红花
脚脖子
浓痰
家中
稳定期
後
破腹
还会胎
望
恐怖
自从
还肿
性溃疡
醛固酮
三分之一
充满
腋臭
小小的
右肩
生齿
火疗
羊肉汤
环切
缝针
打架
痹症
甲氨蝶呤
唐氏儿
能染
骨密度
老家
室壁瘤
吃饱
甘草
隆鼻
福州
敷药
杨梅
疮疡
不均
看得出来
尿毒
味觉
班
材料
寿司
白皮
责任
开个
解不
癒
十日
不治之症
变多
招
做药流
划破
双氯芬
三根
煎饼
压迫感
个加
化痰
疑心病
桥脑
脖
酒酿
髂骨
穿鞋
上半身
引
蚯蚓
衍宗丸
昏沉
偏头疼
滴丸
小黑点
获得
肺源性
几张
厘子
积食
资讯
一院
鼠
昨天下午
绕颈
找到
细长
蠕动
鹿角
过药
出冷汗
会消
趴着睡
白厚
酮体
高中
内分泌科
胚芽
吃法
达英
好多天
体表
左偏
液性
十七
永久性
婚前
;
炸鸡
吻
数量
瘸
憋不住
日本
脱臼
口罩
腰突
沉重
满
意味
年龄段
坐骨
胚
长成
照射
右肋
小肉
薏米
闹
快死了
卡住
浆
检查一下
血瘀
治能治好
TSH
首先
查有
紫草
第六
枕叶
脓胸
多囊性
丅
中断
河粉
客服
周后
软软
总管
鸡蛋羹
阿尔茨海默
四月
一一
刚得
色素性
尼龙
西京医院
听见
一团
自言自语
剩
病房
脚底板
有效期
时间段
我娃
番茄
驴肉
巨幼
拴
尿管
會
新长
打眼
铵
看清
强力
至少
诺
hp
宁波
碱
镁
衣
大宝
嚼
当归
饥饿
脂蛋白
腓
最迟
拐
导至
南宁
头围
翻性
........
复旧
吃易瑞沙
体虚
吃鸭蛋
五官科
组合
冠
考试
前症
这像
就行
不该
结构
肌肝
能治嘛
五六天
結石
翻倍
太痒
十项
资询
左肋
没多久
太瘦
仙人掌
肿有
洋葱
兼
曲霉菌
脉搏
杂办
研究
晨起
骨化
科是
胃黏膜
抠
失聪
包虫病
出去玩
专科医生
会演
做泪
难闻
排泄
变为
癖
虑
重伤
饱满
甲状旁腺
肚痛
中能
韦片
PSA
炎能治好
暂时性
睑下垂
边界
后出
大事
极度
劳损
楼上
肝能
麟
藥物
电焊
长红点
难过
性格
毛滴虫
藕粉
不起
青霉
麻木感
考
天前
诒
初诊
纤颤
起搏器
环素
止咳药
征象
男孩子
疑问
全副
跟前
吃黛力
涂点
消化系统
趴
萝卜
轻症
并存
胳肢窝
药涂
易患
性骨折
经鼻
脚板
近半年
中医中药
退皮
厚白
高丽参
夜尿
有木有
机械性
须
脑细胞
白班
海鱼
吃力
黄豆大
梗死
补钾
伴肝
皮损
龙眼
偏右
肿着
补药
喝粥
制疗
肥
龙
丧失
偏黄
霍金
老想
降糖药
动手
松花粉
猪肚
胆壁
第七
还会痛
用地
h#n#
吃维
吓死
顶
踢
闭角型
痛能
谷氨
凸起来
呛咳
肥大症
无意间
太胖
熊胆
几下
置
爆发性
憋闷
长包
挺大
肝郁
浙江
有要
高发
故意
黄金
血糖值
角
码
开髓
腰酸背痛
结水
上下
戊型
能出
一名
早熟
螺
控制不了
左脑
妇幼
湿性
下部
敷脸
覆盖
云南
茎
感是
象
环形
脑门
大泡
室内
內
忽冷忽热
扁桃
空囊
外力
枇杷
清肺
咱们
疲惫
逐渐
会转
百日
有余
末期
外斜
.......
贫血症
芝麻
不大
七八年
局限
唇膏
有种
不直
近来
液氮
排名
有水
癬
心疼
常备
伐
冰冻
红是
高发期
豆渣
重感冒
有肉
事儿
利普刀
肠溶
针扎
手有
白糖
太宁
那项
摁
宫腔内
同桌
整肠生
问过
程
溢液
灼伤
很差
做脑
乙状
动不动
大哭
IV
仕
派
无味
片状
憋尿会
来说
珠
随访
产后检查
佳茵
做到
奶瓶
适用
环磷酰胺
耽误
神经元
第一期
网状
Eb
芡实
扩张剂
养猫
肠胃病
果糖
出车祸
旧
隆
<
虫子
小学
说不出
眼下
按摩器
几回
教授
蛇肉
内长
色
吃达英
眼上
钉
呕血
金霉素
神精
露出
异黄酮
超说
问哈
剃
陈医生
睡会
饥饿感
答复
有性
八宝粥
抗癌
圆形
脚丫
性关系
为宜
X光
后手
涩
会到
好多钱
总数
迟迟
前查
瓶
内心
二联
上个星期
再犯
亲人
搓
有痛
小龙虾
关节镜
拔甲
开瑞坦
后侧
天得
三处
我多囊
阴阳
泪管
能养
副伤寒
临终前
迈之灵
不严
通了
什麼藥
枕部
情绪低落
周去
夏枯草
包包
內膜
蒲地兰
奶油
环切术
近视眼镜
脑力
变红
内衣
单是
咳不出
庠
预
吃了饭
能动
骨头汤
无名指
腿抽筋
卵子
中应
踩
能药流
吃治
镜能
鞋子
ca
阻止
监护室
起痘
管会
炒鸡蛋
爽身粉
几根
自治
病痛
发性
鼻尖
嗝
单上
发苦
撑
腹股
同居
十七个
陕西
月余
扫
#Cm
牙后
十周
超出
陰道
缩窄
低温
丨
工业
打通
下唇
查说
血钾
肌层
原先
变粗
疑病
鬼
体毛
停胎
换瓣
Rh#
右偏
镜片
畏寒
痛痒
吃抗
卡他性
痛痛
耳内
能调
每月
刷
有能
饼
硝唑
七月
亲们
照光
嘴干
会否
刺痒
伽
肿该
反复无常
单独
Hpv
镜下
顺畅
散步
弹性
挨
黄鳝
二天
病检
我姐
棘间
没得治
逼
系数
社会
哪有
泌乳
先是
呼吸科
恶臭
魔芋
临近
疼醒
二尖
普遍
坠疼
清创
基因突变
少痰
手痒
性洁癖
通不畅
痒会
热疗
照出来
袁
包住
黑水
丁香
耳科
饭量
a#
痛死
自残
四十多天
缩短
奥美
后天性
减弱
很稀
偏少
缓释
脉
听诊器
红痛
应起
对视
立马
后边
捂
崩溃
癌中
之一
抽出
两下
鹅肉
巨细
有多痛
提供
闹肚子
几家
天大
元素
会破
碳酸锂
丁苯
退去
第四期
过于
示
正好
螺旋
表情
麦片
兴奋
限制
二十多年
球形
蚝
管状腺瘤
不好意思
玻
硝苯地平
舒利
或卵
药材
孢疹
剩下
胯骨
怎末
做大
火碱
产检能
磷脂
物体
麼
肾亏
欠
无缘无故
天热
准分子
排骨
吐酸
大块
房子
太多
室友
人格
耳朵痛
前一天
化石
牙缝
县级
倾斜
撒尿
長
下能
呛到
六十多岁
阴道内
称
答
七星
保婴
鱼肉
蒙
给出
禁止
煎
多重
梦遗
三体
肾会
收腹
老实
nt
迂曲
性伴侣
烦请
上课
植物油
不像
间盘
挂水后
五十
肩峰
鼻痒
起效
指关节
####mm
良好
始终
利索
溶石
艾条
金水
腹肌
六期
事宜
哪些地方
暴食
筛选
淋漓
菌群
猪肝
咽鼓管
带美瞳
好医
O
少突
长短
内酯
瞳线
烫头发
受过
贝拉
共用
粪
循环
脚烂
😱
五期
指检
高蛋白
鱼鳞病
坏血病
起风
计算
哪项
洗发水
想想
脸部皮肤
何种
变会
凸出来
参
怎能
外科手术
咽不下
性期
疫
可不可能
顾
吞口水
阴天
吃不胖
存
裂个
lgm
后角
中后期
收到
沉
热气
能输
香皂
醪糟
CA###
高跟鞋
卵黄
痊
绝望
显
思考
转到
血水
X#.#
常吃
不硬
裂痕
黑血
嘴苦
催眠
黄黄的
百分之几
起头
实在
结扎
男有
课
冬瓜
身边
吸奶器
十一
面色
人生
出过
随诊
木
美白
系膜
恐惧感
时用
"
区別
性交时
不难
坐久
随
扯
Ac
六月
周半
转动
片仔癀
进口药
昂
五子
才刚
刺疼
易得
寻找
息斯敏
内向
为什
孕后
炎症性
异同
救命
噪音
充血性
生成素
头皮癣
第三期
含量
吃米糊
牙床
芒硝
那科
做做
戒奶
火龙果
传导性
长牙
牙髓坏死
个别
海扶刀
关注
牙结石
黑糖
肝门
沙棘
喔
力
益母草
igG
大有
肾性
张不开
轻生
四五个
昨天早上
后部
实质性
鱼胶
单单
瞌睡
褪
兔肉
暴饮暴食
缘
黑眼圈
俗称
打点
门齿
接骨
降血糖
牌
抽取
息
短时间
神灯
末梢
饿肚子
参军
克洛
长泡
不全是
刚起
标本
甘露醇
吃恩替
会发
灌药
乳糖
内囊
奥氮
淡盐水
尿少
评残
耳鼻喉科
内会
秦
破水
瘦肉粥
脑梗有
过敏反应
视觉
头重脚轻
转癌
好办
烫发
呵呵
垫
屋
地瓜
股藓
没人
隐约
浑身发抖
挽救
少女
颅
特罗
定性
不上
狼
不流
✖
十五
撤
y
隔膜
滋养
百分百
燕麦片
壶
病严
低危
同济
针要
西林
会醒
蒸蛋
差会
蛮
闭术
应不应该
青菜
烧伤科
没醒
小狗
管炎
窦及
天花粉
破坏
解手
咳嗦
这款
灯
上速
炎好
遇
评价
后过
NT
紫药水
蛙
一遍
尾部
探通
七十岁
更快
猪血
稍大
一摸
脚会
闷痛
粗粮
嵌甲
昰
变少
伴炎性
颗粒状
刚满
脊椎神经
崔
汗症
摸出来
用丁桂儿
舒良
以内
几块
残
麻麻
在意
下雨天
尾
结实
专家门诊
凸
水中
下滑
高潮
灰尘
解说
###.#
似乎
一味
保险
放药
能怀
##mmX##mm
木有
二十几天
菜谱
药快
毒
宝妈们
薯片
清晰
非要
日子
申请
工伤
西乐
渗液
九月
化浓性
断断续续
痦子
曲安
肿能
鼻科
打后
沾
隔天
勒
内陷
#x#mm
浓性
钙尔奇
吃香
水状
长红
黄片
大致
茵
显性
天是
米线
痔用
久治
饺子
用辅
讲讲
发痛
雪
吕
跟着
暑湿
开导
pph
度多
痱
香水
手术刀
帕金森症
辽宁
肺小
不降
巧囊
一包
口齿不清
水好
存活期
百草
岳父
右腰
初发
左氧
喷药
带环
anca
挫
没掉
晚餐
风吹
发火
李子
其间
葛根粉
银翘片
内窥镜
适应
好法
标志
传人
闷疼
油炸
语音
间断性
精是
脸会
高龄
科好
均
德
缝隙
尿不出
垂
宝塔
四种
黄连
体重减轻
敏感性
C#
强阳
体温计
罗
😎
肌部
裤子
茶油
少年
长跑
弊端
宫产
参苓
实情
锥体
nkt
空间
腰骶部
刚发
诊断书
机化
餐具
可食用
肖膜
钻孔
湿毒
缩窄性
一会儿
评分
放心
特痒
眼肿
斑是
能留
一过性
要药
生殖细胞
百花
出得
重叠
病患
清淡
吵
征
那雄胺
那敏
治疗费
###.##
摔下来
戊酸
说梦话
血性
必
神經
期有
那囊
w
化胧
不肯
CIN
疲软
破壁
老化
射血
增肥
小臂
脏东西
骨穿
精会
吵架
肠穿孔
不得了
南通
缝线
周部
这脚
葡萄糖酸钙
锥切
成长
动物
止血药
开同
问前
一吸
左氧沙星
网
六七年
痛不痛
溃破
眼科医生
该输
病情恶化
分隔
吓人
门口
abo
降糖
褶皱
哪款
仙
头昏脑胀
皮赘
拳头
发酸
结肠镜
晶状体
利通片
竹笋
受寒
四十岁
喊
中带
休学
整治
做爱时
摔了一跤
只好
护肝
矿泉水
III
铁皮
小洞
小指
孟鲁司
推
硬币
合胞
精有
胸锁
天做
拉水
尿疼
程序
甘草片
歪眼
将来
替代
半山
用治
液能
抽液
粒子
发木
语言障碍
麻辣烫
髓系
可好
心颤
功血算
用到
致使
肿用
曲
周二
宣武医院
雄激素
变胖
请假
弹力
医用
吐出来
卤门
近两年
青年
做后
闷气
嗜血
未有
爬楼梯
水囊
吃过饭
关闭
溜
呃
小学生
根炎
磺胺类
微疼
待查
体重儿
艾
肺用
小柴胡
有红印
机器
用维
淋
造瘘
灌
胡言乱语
有图
九
太快
过低
外周
双上
保湿
夹腿
晚饭
过敏者
滑精
复制
太夫
减小
越来越少
病发症
肋部
体检表
离子
固肠
西咪替
吻合术
喉痹
枸杞子
阿达
头皮发麻
基特
脑涨
郭
麦角
反弓
里会
十六
引导
甘草酸
#O
碘酊
十六天
盲
巳
需吃
六神丸
女医生
过会
用肤
绣
尿意
阳萎
糊糊
渗透
煤烟
戒口
殅
整形外科
屋里
炎炎
还长
復
増
两点
会诊
要开
定时
自已
太疼
橄榄
欲望
外边
缠
腰椎病
调好
略微
小肉球
尿尿会
涨涨
做宫
舟骨
病况
瑞康
鲤鱼
八周
可有
十九天
三角
外表
银黄
第一张
精片
糜栓
回春
总犯
眼结膜
二类
重点
回避
诊刮后
耳闷
九周
婚检
系列
新农
巩固
范
宫劲
圈
通窍
周长
啖
年会
步行
非手术
如此
两处
第十二天
天来
昏
推动
嚴重
走出
气雾剂
酒吧
母体
偶见
有包
一块块
容
徐州
栀
一堆
炎好治
晩
bc
缓和
永久
发愁
安康
尽早
生殖系统
肺腺
间壁
片治
行房
侧面
详见
多多
往后
理
大型
坠涨
挤眼
粉红色
v
鸿毛
颌下
镶牙
经肺
眼罩
鹿胎膏
血细胞
期要
讲解
霉
刺激性
绝对
老烂
十月
询
心得安
状有
要放
Igm
试孕
交往
茄子
冷热
两片
初生儿
肤色
姐
猴枣
鳞片
识别
完整
兔唇
咱办
万分
吸奶
气来
泛白
摇晃
暴力
扶刀
冶愈
篮球
泪囊处
联想
拔过
T#
做久
临时
雪莲
想来
减毒疫苗
处女膜
邢
奶会
喷门
静养
品牌
来士普
能量
室早
药名
二十几岁
麻雀
背心
辣木籽
对生
嗡嗡
叹气
第八
骨痛
超看
治胃
受罪
五分
伯
热疹
右前
信息
右腹
做人
太原
多数
十几岁
三颗
无花果
吃鹿
杂交
拿药
果汁
耳痛
鼻音
延后
梭形
劳动
吉
活跃
钛
初元
四代
查着
酯
眼痒
延髓
护士
几小时
光线
筛窦
拖久
条状
功血会
电动车
多颗
二十五
点解
光片
虾皮
鸡内金
右心房
甜酒
性休克
流失
克隆
敗
尤
膝盖骨
酸麻
棘上
舅舅
特比
麻油
共存
心闷
用管
脊椎炎
大伯
想开
三型
补脑
螃蟹
微量元素
偏高有
远处
症性
端
血能
白板
尿尿疼
肌力
剂
周会
政策
雷诺
变色
西瓜霜
单个
失语
相应
打麻
世界
土方
陈
淀粉
早点
放血
必然联系
定为
自信
国外
八项
放松
节育环
留血
有骨
房早
扭
这么回事
喉结
宜
廋
黑木耳
z
疲乏
洗脚
傻
带状
偶发性
多细
作为
睁
聋
丁丁
增快
广场
官能症
干干的
受风
精神紧张
前列康
胰岛
左下方
昵
腔镜
三类
点有
经济
看图
把握
有机
向下
爱好
激素水平
#x#
点阵
探望
一两年
脑性
耳根
尊敬
皮质激素
外部
毛发
咽喉部
湖南
能练
降下去
心尖
拔阻
憩室
补锌
椎弓
医吗
结论
外科医生
八十岁
潮热
咳出
忍不住
；
腋
磨损
针管
复试
交联
膀子
刚长
女性阴道
近几个月
能服
阿弗
种牛痘
有溃
裂高
被车撞
查不到
激酶
再备
侧凸
量减少
肛内
太久
酊
葡萄籽
下水
第三代
代
比值
碰撞
黄素
手肘
拿到
纸巾
阵发
一件
治会
会导
踮脚
白苔
微微
白痰
困要
性癌
变瘦
胶
中学生
三文鱼
老看
组织液
体积
抗炎
扛
血浆
植
擦洗
疼胀
口病会
治沙
白头
安全套
肩盘
岔气
喉管
导尿管
挖空
Hcg
因果关系
后奶
孕妈
功血能
lgG
游离
一年四季
咔
性肝
走走
前位
老犯
神经科
暗红色
对症下药
胸涨
阿立
重力
颈子
血量
全胃
刚查
鲍鱼
会聋
胸会
低钾
用曲
五谷杂粮
转诊
回肠
中医药
自疗
舌下
站不起来
影像学
用什麼
禁
糖果
导体
圆
齿
需用
不愈
防疫
清洁
深海鱼
蚂蚁
我哥
婴儿期
咸鸭蛋
心房扑动
祛痰
静滴
补水
冰水
大该
行嘛
总好
脱脂
竟然
永远
二姑
净
倒置
酞
主动
龋
有助
心急
心血
精能
q
晨勃
完刀
牙套
变态
周三
牛皮
只查
擦点
苏醒
一百
牵张
臀位
光疗
岁数
惠氏
髋骨
要点
紫癫
指证
楼
扎到
效
凶险
长跖疣
吃车
护
脸色苍白
前辈
疼时
钩虫病
我国
通宵
内服药
最低
马肉
骨裂
炎伴
买不到
胃泌素
胃液
地图
点头
线状
橘红
三院
干硬
规定
胯
呕吐物
排掉
不治有
羟基
氟哌酸
具体情况
保心
摄入
什莫
口吃
加工
婆
会和肠
排骨汤
多西
壮
一瓶
明明
淘宝
干疼
生长发育
牙片
纤维素
潜在
孕棒
温度计
较为
起到
吴
身体状况
康王
二维
窦炎会
教师
间断
火腿
蔬菜水果
滤网
挂瓶
遗症
大闸蟹
切肛
取环后
共同
全喉
苦
出新
神智不清
侵及
早破会
王大夫
治法
挂袋
腰麻
手和脚
指尖
中年男人
脊神经
听觉
另
后用
用皮
蜘蛛痣
狂躁
丈母娘
白凤丸
下要
耳塞
活动力
甲强
杏仁
唾沫
半球
中西
酗酒
夹炎
停掉
自恋
人血体
听诊
下长
造血
德国
鸡会
利尿药
墨绿色
肺出血
雷公藤
积雪
如意
无副作用
缺口
患甲流
长毛
喝过
天冷
皱纹
臀
疼法
新型
兔子
根处
肯德基
质子
糸
生长因子
喉心
问得
牙要
八月份
开青
泡破
热感
根疼
#A
国
不定
小脚
治嘛
肺能
急问
四季
傍晚
近视镜
自我感觉
体育课
性幻想
混乱
和疑
七项
拉挫
潮红
小型
犯过
一哭
燥热
=
結腸炎
眼内炎
很烦
肉长
口疼
基础体温
腥臭味
有宝妈
多襄
凉茶
有望
几厘米
呜呜
敏感度
思想
总医院
小该
痔能
状是
太贵
过分
痛到
大是
教育
这俩
频谱
星
疼痒
大黄
月底
备孕要
血像
外凸
J
祛痘
垂體瘤
ALT
伊利
已出
水蛭
腰带
手術
九院
射波刀
型肠
时手
镇静
兔
肺要
吃面
叶有
雾
奥氮平
髋
出月子
完事
青年人
平日
Hp
附二
点药
半得
曹
丝袜
惊醒
一看
对付
不利
一处
再孕
归脾丸
不伴
能配
针孔
孙女
四至
寶寶
反流会
透视
心理压力
手续
脸晒伤
流速
美白丸
有慢
眼框
恋爱
洗头发
看能
培酮
容量
过脑
调经
扩展
巴金
发霉
银杏
打颤
咀嚼片
切片
排血
眼会
完能
移植手术
图上
能少
先治
现状
健
烧成
腰椎骨
大多数
痒用
病疫苗
有孕
暗黄
连接
发脓
黑暗
同性
留有
吃惠氏
体育
遗传基因
一来
鳞化
花斑
多吃些
尼
舒通
狠
公里
不愿
积气
羊奶粉
先例
流型
侧卧
十三个
萘芬
片行
虚胖
关键
迎风
脚长
制霉菌素
隔气
难医
几成
色斑
静脉血
没熟
胃热
总起
耐药性
潰瘍性
病愈
按照
环后
牵连
过山车
屁屁
低阻
绿豆汤
才治好
指南
玫瑰花
宫腔积
尾巴
低血钾
药叫
打吊水
帮宝适
地酸
触痛
献
肠壁
学车
不便
脱屑
娃儿
残留物
雅施
天阴
基
拉直
鸦胆子
药剂
害
迭
血粘度
蚊香
每隔
白白的
胎囊
肢端
同仁
传染期
老大
力量
多不多
新桥
同工酶
发育畸形
倒睫
肝肺
剪刀
数
特有
试试
签字
飘
药粉
糊涂
野生
鼓出来
不吃不喝
耐受
肚里
指诊
精神压力
胞
皮内
疏菜
脾丸
未满
莫匹罗星
一日三餐
以经
伤胃
侄子
花露水
痛该
太过
木瓜
這個
张卫红
倒立
壳
某种
左向右
花甲
ICU
遗留
打成
RGP
聚集
喽
看片
插入
胖子
口干
克林
泉州
橡皮筋
闹心
个点
上网
亲问
名词解释
请间
噩梦
肝有
断药
进水
百分之十
鞍区
过胎
颌下腺
头蒙
麻痛
作业
康宝莱
整形手术
散能
乳期
肿痒
肝大
发疼
鼻腺样
異位
近几天
解毒片
针水
尤卓尔
行房事
玉米须
尿胆原
侧后
黄体期
劲部
抗感
减不
不會
能产检
系
进补
部队
麦苗
六七
疝会
夜惊
uu
蛋液
壬辰
甲下
改正
包子
凹槽
不远
咪唑
E#
吹气
辣子
美容院
謝謝
一旦
不快
伤心
天药
筛能
防晒霜
室缺
向上
优势
全层
那一科
钝
我测
做能
苏州
脑外科
哒
向前
免役
药管
本性
替莫唑胺
胃肠病
耳病
独角
刚出
髋关节炎
十八个
对脑
tsh
元
能验
再用
清晨
沒有
眼皮跳
冲击波
补液
同床
干结
遗
药效
q##
我下
领域
确珍
自限性
减掉
下咽
抽不出
变薄
通络
壁厚
上周五
能医
会带
霍香
吐沫
齐鲁
鳞形
保肝药
解析
l#
比率
失神
问些
慢淋
超做
渗
一致
托百士
窦道
有三高
睁开
饱腹
奇怪
强迫性
dha
挖
黑黑的
一枚
物品
斑会
出口
吃炖
小血点
得药
未见异常
下楼
戳破
产科
口有
沙土
起不来
烷胺
羊膜
非常感谢
几类
降火
戒除
酮康唑
在生活上
喝汤
近日
比超
调治
冒烟
天才
h
侵润性
大气
流通
名字
红红
唇部
顺生
先前
苍蝇
淡
哪边
角处
三叉神经痛
直觉
无意识
胸膛
鄂裂
流性
火炉
缩
到达
百分之百
哈哈
长不大
cea
肠病
一顿
蛇
碳酸氢钠
澎出
舍曲林能
猫咪
越小越
小麦
江西
这肝
剑突
肉跳
脂益
西南
釆
人工受孕
能管
眼睫毛
裆部
花钱
那点
抗核
麻辣
小手指
取样
单看
oct
icu
止痛针
有冶
抚触
抓头
悬剂
结巴
先生
侧睡
肝丸
出点
安利
两粒
丛
生成
活着
熏蒸
无论
肽酶
累到
空心
甲戊肝
用消
临死
番薯
改掉
我孕
逗
逆向
戳
活术
不看
吃何
后人
跟腺样
会人
制服
天胎
脉冲
眼干
鳖
变高
金葡菌
鸡血
有红块
长住
精神恍惚
下奶
松软
氯
处骨
吃利
戊肝能
反而
不割
放电
腐蚀
好久没
角度
抽痛
消乳
确切
增值
证能
视觉神经
补过
鲫鱼
充气
一夜之间
多巴胺
劲酒
缺如
对弱
讨厌
卧床不起
牙会
八点
赘肉
听不清
大部分
咖
小娃儿
要照
发晕
止痛片
伞部
玄驹
江苏
下移
买个
沉积物
头位
皮囊
酸乳
粉对
吐得
逆行
用什药
软骨素
铅汞
想象
水蒸气
磷酸
想着
血脉
嗓
黑印
桑葚
花生油
几月
饮食起居
真有
白术
性变
布病会
般
药片
足月儿
实惠
中等
粉能
两针
阳是
肌膈
吃饺子
深处
发困
皋丸癌
带好
异样
后仰
从前
吐字
呜
产程
脚丫子
少精症
总爱
煤炭
中医医院
蹲久
感会
胆碱
不治能
会拉
胡子
拜
开点
小豆豆
仔细
摸得着
松果体
右臂
功
植骨
十次
手腿
支具
皮筋
菜花
一家
出不来
卫生巾
价位
濒死
姑娘
回到
堵着
墨镜
癌性
特灵
肌钙蛋白
起初
半天
两者
痢
胃烧
记
肺隐
闭会
叶酸片
饭店
不咳
能制
碗筷
脸蛋
鸡爪
乳糜
保守疗法
局部性
非霍奇
破口
拆除
压低
延续
u
李大夫
后现
不动
评定
披萨
四点
哭泣
阻
看来
肾痛
度要
姐妹
上劲
无限极
stas
通并
叮
负重
老茧
乳核
徐
丝丝
芬必得
名
榨菜
周五
淡黄色
三醇
看人
知
温州
打多
指检能
乳白色
考驾照
医学院
代夫
职业
瘤长
共
万一
救助
有血精
复腔
达克罗宁
反应迟钝
库欣
胧
天内
瘫
昔洛
抗感染
矫正器
病能治
泛黄
旅游
十几个
泥鳅
不取
拖拉
亲密
吃坏
昆华
疤印
侄女
更痒
南方
寻麻
残角
四根
银花
包会
龋病
丹参滴丸
瘀斑
伤及
太热
闭
脑液
有赘
激烈
眼都
足浴
刚动
发展期
买到
起身
栓系
中会
有心
三斤
书
成份
找出
肌注
忧郁
苏打
花生米
問問
苏打粉
泡疹
林赛
切出
内收
跌倒
熬水
前年
型号
突突
前臂
复康
脐周
河北
cta
还会来
打油
闭口
骨缝
素片
吃果
潜毛
发觉
聊聊
此病
线粒体
工
烧掉
灵片
胃全
茶水
钳除
甲泼
公鸡
装修
线性
越挠
血尿酸
非手术治疗
牛蒡
hellp
托拉
肥皂
烟花
另一侧
大神
妊辰
黄柏
萎靡
闭不上
椰子
止
脸会肿
餐前
合生元
缘故
咧
尽快恢复
仪
性是
太痛
后痒
失控
产前检查
抽完
碳酸
潰瘍
得脐炎
十四岁
漱口水
於
证有
少有
巢
光靠
沙
胃寒
有口
认知障碍
空腹吃
羽毛球
消化科
高血
孤独
清片
田鸡
总看
依
凝固
磷状
苍性
抛腹产
天数
天用
僵
眼科医院
哌
下肝
加味
爸妈
协调
悲观
太少
得过
比较慢
那会
管理
有炎性
戒掉
转发
牛油果
用查
霾
吃玛卡
冷汗
泡酒
处疼
想生
踢足球
止吐
光吃
G#
查道
頭暈
ercp
时要
低血
我想询
肋下
拍过
斯达舒
郊果
想备
气球
眼周
舒适
胎头
内疮
收
一盒
湿寒
十一年
六十
羚羊角
午饭
洗眼
洗胃
p
恢复性
#c
略有
酿
灶会
牙科
上限
脸长
利嗪
最先
不熟
哽咽
生有
裂嘛
开放
牵拉
儿童智力
尺寸
棉签
😁
活下去
补点
咨询服务
男吃
总说
防预
蛤
下疼
泛
宮內膜
打鼠
西替
影是
蛋花
孑
黑线
二聚体
长途车
几时
林是
取精
吉奥
安抚
难怀
时痛
右肝内
奈瑟
hcg###
搽药
罗布麻
经前
白百破
膨胀
舌部
想不开
百分之五十
发际
酵母片
未见好转
表明
夫西
身是
治要
分数
颜面
优生优育
擦拭
促孕丸
淌
脑电波
尿不净
革兰氏
保济丸
用制
脚会肿
完有
蔓延到
环孢素
减药
PR
mri
就是指
龈口炎
喝醉酒
巴雷特
芪
细小
半小时
凭
必利劲
大脖筋
喝洒
聚焦
黄脓
棉花
唐山
咯吱
b##
藥好
矫正视力
申
刺挠
长会
跨
S
风团
神马
脱恐
基因治疗
安律
脚崴
长多
病应
栗子
三厘米
做骨
問下
整夜
死皮
桂林
r
外露
闷闷
医药费
腹中
恢复过来
枣子
冒火
成熟性
畸
剃须刀
虽然
碘酒
夫妻俩
泪腺
追物
黑鱼
活络
一时
孕测
余年
操
踢球
不多
地上
应付
中频
长汗
太饱
感谢您
更痛
酸水
填塞
求一
坏事
有小泡
紫河车
磕到
墨鱼
肺热
秋天
痔加
事物
氧化
姨夫
缺水
枸杞茶
水分
失效
口眼歪斜
等到
几代
肚子饿
腮帮
既
回是
腹透
溶解
用足
侧边
定位
堵死
下型
炒蛋
八九
氟康
危象
一阵子
白术散
走不动
肝右
没血
千克
单杠
不开
度该
打人
醇
臭臭
我来
压制
周胎
小头
白发
牙冠
蔡华
淤
禁吃
成片
七点
标准值
亚宝
未愈
解救
盆骨
有面
烟酒
干下型
药该
莲花
地高辛
蜂皇浆
支气管镜
CTA
多动
抽气
推油
短波
洗浴
可惜
干果
会查
荧光
偶然
辅乳期
#B
五分钟
青紫
利害
懷孕
肘部
塞鼻
到处
上额
油烟
光散
全家
帕金森氏
无极
已育
馕
偏曲该
不当
吃盐
利弊
烷胺片
氯化钾
蓝芩
裂小口
试剂
建档
整样
青汁
昨
刺鼻
伸
渗水
五斤
疼用
普爱思
红光
烟味
湿热型
枣
头暈
参考
隔三差五
PET
壮阳药
迷茫
变浅
米诺
脯
采取措施
七十多岁
西比灵
兄弟
稀疏
不生
建卡
割胆
返流病
儿有
伤口发炎
普洱茶
退变
肉块
各类
孕纸
再发
番茄红素
petct
脂肪酶
血液循环
追视
相对
治治
ad
疼肿
出结
出差
不得劲
照出
問腦
肺右
说会
找过
俩次
弄出来
不间断
化解
博士
cin
打美白针
A##
T#N#M#
手动
善存
癌栓
各用些
油脂
头好
牵扯
辛苦
出错
会响
热天
吐口
#########
肌苷
觜
丙型
病理切片
滴流
左西
总院
无光感
炎老
治聊
红牛
山楂片
傻子
公用
#x#cm
😳
无药
开心
鞋
越痒
亨廷顿
沙拉酱
好象
手疼
炎滴
双球菌
胃痉挛
咽隐窝
轻轻
涨气
枯
见过
东东
拉出
还流
差异
清丸
@
炎平
豆腐脑
二月份
大学生
蟾蜍
经颅
痛法
老丈人
自制
奶制品
余
喝好
很涨
发沉
它行
麻腮风
昏倒
固本
点掉
丫
龙马
排出去
袋
豆瓣酱
活体
缩回去
药补
精力
圣女
黄褐斑
心跳声
O型
应服
分清
炙
燕麦
直不起
煤矿
达标
通道
杨医生
内检
藥
百香果
药排
对要
长肉
补补
眼膜
不能自己
左小
痱子粉
轻到
补片
卷发
伤肝
B##
何原因
神经系统
结结
好难
碳
离不开
超是
处痛
距骨
钓鱼
兰大
有法
超低
非布司
屁多
怕热
嘴部
减有
筋疼
铝
腋毛
打喜
碳酸钙
发生率
高效
米醋
吃益
咕噜
包是
前照
节段
晚睡
华山医院
肝管
异型
咬破
肺力
后疤
做会
十二年
病嘛
抗菌
尿沉渣
腊肉
苗
病者
灶能
标高
因是
停用
太累
取掉
全会
懵
六月份
匹多莫德
盆地
💔
养成
加班
持续一年
蟹
做无创
酸菜
醒后
左半
光子
医药
铜
纳豆
思
贾
出肠
支持
吃泻
平面
肝门部
华法林
颤
红肉
转安梅
宫寒会
咨询点
鼾声
咀嚼
FSH
养狗
吃哈乐
過敏
造
成行
壮阳
百合
看似
graves
Hiv
无性
婚后
半腺样
尿后
遮盖
解体
特异
试出来
拍照
流青
味丸
帕林
每周
ascus
变淡
知柏
搓澡
养鸡
胡雄
现实
胃子
全身上下
利培酮
问有
百天
#o
片能治
各个
真能
佳
怎麼治
能通
珍珠粉
同位素
野区
特钠
打升
以外
土
共济失调
购
散粒肿
软管
九味
血虚
往上
NK
性索
变绿
喝青汁
石能
曲南
拉尿
ab
小娃
见血
跛
康泰克
十六个
体积小
卧位
自由
咸菜
低回
临产
有雾
大蒜素
气是
脚凉
爆裂性
一百多
血塞通
怪
林能
两性
就会痛
皇
重性
包要
出有
意向
高峰期
核素
获得性
遇热
没怀
横结肠
高该
###mm
同仁医院
湿湿的
脸麻
肾精
我拉血
耳镜
hib
噶
看会
做针
回升
外路
阴茎头
血热
天长
奶量
社区
泵
癔病
红梅
急死了
胎死
时小
洗牙后
牙医
鹅
泛化
苄
松茸
跖骨
上结
安卡型
身
氨基
悬
人住
视频
氮
七八天
五十多岁
烧到
多日
清华
婴
有涨
下深
狼毒
尴尬
茵陈
部有
前例
挂水要
解除
希尔
电热毯
点样
有胎
紫癫性
入园
松
好要
這是
股沟
第二期
周六
腿毛
嫂子
淮安
糖尿
性冲动
无血
没打
金华
應該
镰旁
要说
杂合
后心
冰点
胸能
打会
切诺
鹅足
大笑
防冻
浓茶
损失
岁脑
伴胃
仨月
啥样
镊子
营养餐
紫薯
尿不湿
早就
格林
肩胛
搬
壅
母婴
可医
LAD
超查
聪明
丁克
不佳
环有
完血
哑不疼
解脲性
棘
汤水
V
换牙
肌症
稳心
后肿
站不稳
微石
变质
遇上
肾石
哮
革兰
中下
西
短阵
药洗
那要
表达
补血药
正装
胸要
胆襄
脸起
查明
说胡话
省立医院
甲硝
嗅
太重
嚢
裂伤
宝贴
清汤
精证
坏掉
用脑
后后
残疾证
验血单
哪所
恒瑞
小二阳
附着
😣
午餐
避风
挑眼
熟
目
⋯
抬腿
左骨
直乙
最痛
三十七
金针菇
长骨
全蛋
脑白金
辨
做海
化掉
杯子
亚甲减
想法
涂好
疾
老糊涂
做事
心胸
变差
我脑
敲打
两盒
胰
次方
附图
临界
只能靠
时侧
几声
柏油
用冰
旁有
有影
甲磺酸
集合
珍断
三点
晚班
能见
持
吻合器
红痣
起过
孕有
姣
权健
失血
坐火车
哪有卖
后右
顶部
变扁
镜检
太太
尿素氮
填充
劳
HSV
哪样
快感
一冷
依靠
ev##
不减
哟
甲流会
吃凉
相信
红灯
程为
脐炎会
勤
鹿
元音
包膜
喝高
法医鉴定
费力
困疼
幽
风油精
隐裂
饱
负荷
先得
蕁麻疹
大多
腸
长白
稳定型
抑鬱症
来看
小金
增长速度
尽量
臆想
心态
来潮
外形
陌生人
跛行
胆宁片
演变
过高会
猛
IGG
剑
贴膜
急切
用米诺
催生
健身运动
富马酸
骂人
肿要
没次
私密
后椎通
膜部
糊状
焦虑不安
第二颗
尿裤
半有
予以
TF#
打错
耐
完眼
裸睡
馅
胪
紫斑
病性
连带
这长
气质
北京阜外医院
窦段
十八年
山西省
麦芽
月子病
骨力
绞疼
要服
多出
蚕蛹
T##
过夜
#CM
打击
红绿灯
日后
引体向上
會得
这项
短效
平消
海马
适不
老用
残根
作息
周生
变大是
寒湿
带病
有痒
周圍
储备
未醒
泰必利
贵不贵
横向
风流
初潮
至于
参茸
喜怒无常
会心
腕关节
邵逸夫
术会
神医
灯光
万艾可
磁
这事
咬牙
一排
想查
流完
创能
低平
偏重
排畸
折
退黄
磁疗
導致
能取
额窦炎
三大
撕掉
先打
两级
链霉素
喉头
原位
蒸熟
t#n#m#
相互
镜子
胆小
人才
满头
犯有
娄
天水
地西泮
肾里
双项
振庄
研究所
肉丁
双目
印该
换个
数月
皮瓣
菲林
孕周
后胎
下端
这辈子
走久
病毒基因
经络
切胃
乌鸡汤
心超单
七叶
中西药
朱
远达性
我胎
白针
粉瘤
林可霉素
糖耐量
襄
咽后
#s
漂浮
😄
颞骨
肾宝
养血
变回来
氯米
裂道
浮水
肾穿
骼
条纹
岳母
莲子
后致
普
后活
疣体
改成
我父
酸酸的
睡不醒
午后
埋
肠虫
贪睡
小块
海盐
设备
边有
肾上腺素
出根
很强
突性
脲解
无糖
超导
护膝
不合
病对
用水
吃雷
力度
手头
痢疾杆菌
喝鸿茅
点子
揪
柴胡
隐患
药单
泰
未好
杀人
良恶
房扑
八院
定型
断端
敢不敢
越是
粉会
前科
#D
MP
泛酸
秽语
体查
牛初乳
BI
长眼
高血壓
中药材
和艾灸
矮
末
室外
隐匿型
LNM
花样
剥有
湘雅
抽油
天肌
月查
剪
十分钟
达喜
加餐
优点
放糖
打伤
复合型
哈乐
维酸钾
全天
喉咽
反跳
在外
暴露
青斑
踹
内用
自行车
床位
每分
三到
短期
节律
伴侣
不辣
中空
油性皮肤
防癌
吸着
要禁
米汤
专用
艾炙
纳
广泛性
单方
无乳
白破
周是
四颗
#X#mm
镜会
颌
湖南省
凯
瞳孔放大
师
麻醉药
昨日
##########
预测
有胀
瘤样
撕脱
火药
s#
舒筋
痛勤
用劲
后血
任
PPD
用处
此药
封口
贤
炎片
马丁
恢
回光返照
拉丝
嘌呤
救活
这么久
有什莫
煤
肝曲痛
坏疽
受累
一切
天然
RADS#
螺旋体
极
未定
哆嗦
窝池
丘
黄热
南阳
串联
就让
浴盆
叫醒
会胀
基转移酶
体型
光能
头盆
转弯
病治好
疼能
持久
轮状
针用
看待
双杠
中是
大豆油
修
医疗事故
水珠
绕
明目
钉子
相比
越来越重
贝因美
吸毒
洗洗
老肿
浅层
能作
脑梗是
骨瘤
紧缩
周见
鼻臭
大住
龟苓膏
车
会伤
加大
观察期
氨茶碱
俯卧
按摩椅
苹果醋
强制
海绵体
实用
妙招
喝些
有亚
手才
精液量
痔会
加胃
三枚
九江
治快
恶劣
监护
曾患
羊穿
高排
克雷伯
垃圾
白泡
老好
蹲下
鸡蛋糕
下陷
体制
ii
键盘
可宁
非对称
降脂
临死前
糖耐
私
环扎
遇冷
迁延
仁
较轻
相同
染色
川芎
零两个
莎
拄
同样
功血该
海米
怪味
坐姿
喝姬
觅食
十七天
双歧
综
不香
开学
心理因素
乔氏
表格
白加
跳痛
异维
输点
t#
置管
看一
三四次
此类
乳糖酶
全脂奶粉
不称
快快
Hpv##
脸痛
肿脚
活血化瘀
多大算
之会
斑痕
妇乐
心烦意乱
蛋壳
冬枣
正位
肩上
😓
氨糖
MT
做得好
三尖
通草
泮片
多大是
主动脉弓
保温
得腹
穿心莲
经典性
厄
很酸
大电
不成
艾艾
中枢
有结
劈裂
小东西
配高
周了
双黄连
胡须
食性
柠檬汁
汤好
五味子
肉团
求好
动刀
玻切
池
天液
热是
度过
可小
丙种球蛋白
开水烫
耸肩
明
好多个
老起
很软
七十
内漏
病假
耐心
有光
四季豆
低到
藏
胺酶
二手烟
窦区
吃西
乳癌
黄丸
彼
天脐
毒素
烧灼
当前
出人
会涨
银杏叶
蛰
初生
青蛙
蹬腿
患面
有得医
坤
黃
人际交往
Y
小电
用红核
影響
口干舌燥
腓前
反解
未成熟
肾是
挤掉
滴鼻
有氧
兰尾
损
后发
好红
断奶期
延时
县城
伤到
出窦性
眼有
藤
脑塞通
听到
颌面部
出油
退下去
高低不平
搔痒
流量
一千多
复明
脉管
不起作用
抗凝
通后
脱痂
何谓
八宝
未育
超市
懂得
贝沙坦
困乏
漏便
消癌
小肉粒
酱
先天性免疫
雷
提肛
我眼
挑食
丝
胎膏
怎心
仁和
无人
西达
桶
放法
泮
自觉
氩
指检血
围产
夫人
上大号
歲
舒化奶
天半
胡椒
rh#
局灶性
一声
康敏元
波立维
人要
T#N#bM#
南昌市
两手
八期
单边
溃性
性胃
七八个
左乳有
粳塞和脑
切肺
用吸
恩
超敏
滋滋
溢出
鸡胸肉
会恶
过得
相连
普特
水银
花旗参
普兰
胃肠科
打隔
微信
天不退
牛尾
另一边
几处
早泻
阴式
洗过
肾气
絮状
三支
静脉瘤
全者
馍
惊跳
逐瘀
血点
查无
阿莫
症生
碱水
超时
不问
能快
经长
虫牙
颈段
晃动
毛癣
融化
之四
两到
高达
汽水
挛缩
天查
周窦性
吃食
药才行
丸药
混悬液
老年病
酸臭
百令
张单
草珊瑚
小柱
有脚
乘飞机
好慢
治是
第十三天
干眼
吡啶
老火
十几次
吃素
螺旋菌
斤算
鱼石脂
藏药
做电
吸出来
我得
数目
冒泡
长云
决定
很能
蒸梨
后原
期腿痛
配点
天岁
两肩
精该
时高时低
聊天
咽癌
吃辣条
热淋
肝火
胃蛋白酶
疼好
法兰
快递
喝安素
润肤露
二十四
两期
两肋
宫外
晕眩
石药
脊背
青春
难治性
叶状
自发
下半夜
蔓
交通事故
伸直
br
清肠栓
越疼
弱智儿童
bb
证壮
总长
误服
損傷
油漆
不靠
栗
干有
不复
管后
虾肉
后颅
罕见
海豹
嗓子眼
不胖
退完
伴亚
挑出来
安全性
马蹄形
放环
乘坐
替芬
多于
罗米芬
兰释
心影
爱乐维
布地
大号
附体
涕
老花
后移
芝麻糊
蜜蜂
油好
溃脓
亚型
噁
鲢
很怕
流点
横突
八斤
来会
头沉
一面
电灼
腰脱
五六次
会致
咳得
完麻腮风
超会
谭
碗
替换
郁美净
鱼类
扭动
王老吉
没带
涨奶
福建
古方
象限
米粥
停孕
红枣汤
两样
偏左
問題
河虾
手会
判别
开到
饱胀
胶浆
近段
白菜
拒绝
我治
科有
障碍者
换成
咳露
转子
没查
怕疼
同服
阿托品
四月份
农合
水平阻生
肾囊
通风
人变
\
眼窝
散大
环丙沙星
半球形
肺尖
老太
一口气
佳音
有斑
一脸
吐吐
急症
血肌
贴用
毛豆
处得
总饿
消片
’
消肿止痛
筋骨
结核菌
重疾
游戏
闭眼
呋
十二周
内阴
起大
能除
包含
髓
因吃华法林
三八
神
泰诺
春夏季
老鼠会
旅行
不烧
抗宫
话梅
最短
胸肌
发汗
文拉法
能吃益
好坏
尝试
腦
鬼神
那通
工地
传说
级会
药冶疗
腰间
变病
串
本胺
随意
太低
人患
割好
配带
干得
裂能治好
不良影响
袜子
然
多一点
鼓气
舱
老父亲
多梦是
有洞
这么样
架
喉痒
桔子
导片
厉后
来源
沉积
拱
鸡鸭
完管
无肌病
瘘术
另一只
苹果汁
心腔
混淆
多潘立酮
抽脂
六味
十四天
好孕
两声
电灼术
时该
就响
美观
在于
锁阳
不良习惯
哭声
菊
紫黑色
气温
脱毛膏
糕点
感康
辅舒良
黑芝麻
益肠丸
完要
治双侧
陆军
及时处理
一挠
完术
有点累
好孩子
一月份
肺类
网脱
皮下组织
ib
心力
丹参片
快治
好治好
預防
后易
做腹
偏曲要
精丸
同侧
镜内
言语
鼻粘膜
斑有
敷好
基围
新闻
可治好
深海
胸背
哭会
钟
面上
带牙套
配戴
健脾
栓后
酥
病算
有肉球
松驰
氧舱
详细情况
因车祸
要涂
运动神经
癌嘛
嘞
我希要
磁县
体液
美宝
开会
杏
被查
吃掉
灶要
有后
晒黑
说说看
甲酚
妇宝宁
一宿
肉松
宮
足光粉
尚未
必利
近端
手癬
依托
出事
药丸
震碎
苞
告之
分早
一眼
风湿痛
香菊片
噻嗪
时阴
临沂
申捷
极限
能评
瘫痪病人
有医
价
微肿
沫
骤停
漂
双唑泰
巴特
哥
烤灯
溃疡面
莫西
越早
g
护眼
蝙蝠
这类
孕中
后快
炎吃点
出奶
肝后
高电位
凹凸不平
就点
😲
自家
左肝内
LA
发行
韦能
处在
期限
强光
萨琪玛
美托
伴囊性
恋熟
发图片
吃软饭
孤立
针是
宝得
脑后
MM
高手
排斥
蝎子
云翳
加固
蜕膜
绝味
吃芬
量变
天没来
蛇皮
pr
眼轴长
腸炎
超高
氯氮平
后悔
神志不清
出远门
圆圆的
度算
几样
冷淡
鱿鱼
豆奶粉
四斤
一哈
芥末
一天到晚
涂过
详解
制剂
醉酒
絮状物
坐不稳
穿过
梨子
加肠化
内翻
值为
澳洲
吃红参
障礙
胃有
循证
衣壳
无肌
涨感
甲乙丙丁
阵阵
对入
肌性
“
寒气
肉色
天肝
牙肉
过渡
上胎
下缘
病毒感染者
岁查
有癣
过滤
发光
激发
做痛
五六个
分心
阻生
心管
撞伤
怎么得了
精神病科
饮品
疡
生理反应
宫角处
大点会
发臭
钾低
嘴片
汗水
不好受
临产前
疲倦
重病
臭死
值入
胆碱酯酶
头昏脑涨
囟门
BV
偏高降
说不出来
腰腿疼
得腺样
晨
线头
输卵
磕
余月
白沫
上张
有次
鼻内
钎维瘤
多见
不小
当心
手痛
乐安
办好
出国
怎医
钾钠
完毕
打雷
裂要
设
妨碍
sy
低脂
打驾
显影
Cm
高嘛
左则
心血管病
阴型
期热
涨人
第四个
手凉
美罗华
抽出来
贵州
金鸡
眶
一条线
患低
居多
厌
删
重组
睑板
鱼鳞
皱巴巴
表妹
积乳
凡
肋前
暂无
疼且
连线
功血有
戴着
高压电
宁胃
精分
半夜三更
耳廓
埃索
膏子
咳嗽药
花旗
角区
上鼓
經常
叩击
夜磨牙症
有甲
安卡
立停
大象
碰过
主干
告
吐水
异烟肼
下楼梯
噎着
干燥症
腎
铂
杜冷丁
药比
鞣酸
褶烂
打虫
活不了
眼中
计量
恐高症
胸模
简易
能清肠
会导治
转播
气儿
拔甲后
前端
过段时间
冷空气
可清
脑钠
摘环
血流量
中线
肉会
师弄
很早
翻过
有手
放弃
针状
#C
hcg##
哪里找
周唐
Hib
左踝
两只手
痔安
十一天
控
撇
阿帕替
科查
子女
水滴
质
rgp
天提
托珠
适量
洋地黄
角质化
大庆
麻子
下地
羊汤
劳拉
姜茶
底位
垫片
复春
伍德灯
因此
新房
嵌
特色
扩宫
晓得
女有
希
一挤
隐窝
为甲流
口语
严重者
促使
性交痛
忌些
高对
遗证
握拳
药膳
低有
奴卡菌
康柏西普
劈
滑雪
鸭会
髙
π
退出
铅笔
动车
两份
抹掉
连带关系
疮用
左腰
边长
正确对待
春秋
打好
作痛
撞墙
湖北省人民医院
肾部
管型
得飞
AMH
又称
政治
去痛片
摇
我备
豆子
很肿
雨余时
黒
新疆
忽
正天丸
分支
水里
死精
电解
酸菜鱼
障碍物
经量
眦
造漏
HPV#
鸡腿
有瘤
#X#
黏稠
咽扁
晨尿
脑外
共振
用测
近两天
养心
消化酶
原味
fsh
光用
汤圆
排精
Ca
梨膏
糖水
不自在
有空
低微
未知
遇凉
胃犊炎
耳屎
城市
pola
唱
脑水
姑息
儿带
年底
陪护
探通术
百分
外甥
沟处
脱脂奶粉
扩胸
更大
喝补酒
耳下
贝母
爪
针打
圆子
肉里
啃
再次出现
天果
眼线
骨病
摸摸
肝源
骨节
改吃
未生
孔源性
能流
宫缩会
定
严寒
双叶
这疼
大声
牙洞
起博器
加热
二周
切胆
率大
胖大海
算治好
电缆
蹦
喝惠氏
硫酸锌
上楼
七八次
鼻器
兆
溃
不太懂
邓
洗澡时
欲裂
呼
脓痰
老长
对性
华林
脚软
吃干饭
奥替
割过
三角形
小猫
整日
柳
抗肿瘤
硬化剂
浓点
会脚肿
失声
时机
乳儿
现代
运动量
热淋清
抗癌药
有溢乳
怕死
做美
柴
那治不治
眉
头臂
注射用
理发
胸慌
不平
制定
血吸虫
肾有
经典
会不来
润肤乳
有变
哼哼
能当
深色
捐
巨结
暴瘦
叶后
无故
小能
我怀
长长的
psa
肝叶
全阴
挤奶
切腹
蛋挞
乐友
甚麼
有近
安全期
导航
坠坠
停会
挺久
平会
溅
偏多
幻触
伤寒病
清宿
检测值
菲
出脑
肺肿
#m
抜
我爹
微弱
衣物
保湿霜
初始
天坛医院
积极
鸡皮
伴肝性
附带
蒙药
勿
拉莫
原本
下尺
得布病
刮破
养鸟
火热
耗油
购药
颚
索精
具体方法
恋足
冲开
鼻烟
🈶
周说
书籍
脾亢
冠腔隙
😔
山
宾馆
肠上
先干后
奶癬
DHA
侵入
手裂
秋水仙碱
对口
片有
痛用
会烂
巴利
多普勒
无用
间歇
球炎伴
偏曲用
万古霉素
用曲安
没睡
脚杆
微痒
陪同
曼月乐
就会
三节
艾坦
马来酸
夜宵
症去
偏曲能
珈
牙刷
剃光头
变甲减
睡梦中
女孩儿
鲜
撅
外口
右佐匹
野菊花
米特
乌灵
来天
踏实
大得
外星
头后
跑操
加碘盐
诊刮
电视
氢化
吃荤
痔该
曲普瑞林
污垢
面颊
肛诊
凹凸
小疼
乙肠
这病会
梅
雕
理由
哭时
秃
带给
推后
腋窝下
能切
外皮
预计
对备
百
腹泄
皱褶
求购
心脏起搏器
烤火
处痒
后半夜
能换
小口
伴脑
不涨
遍布
很想
欲
油条
症犯
平板
起病
开开
妥
❤
四粒
中气不足
治到
想治好
老毛病
拜瑞妥
凝
利率
搁置
强生
寒颤
脚下
vc
透风
第十
一股
積液
帕
为期
厉不
與
提胃
念头
浦乳
欧米
青岛
脚裸
咕噜咕噜
橄榄油
测得
胸对
宿舍
酸碱
并伴
停留
一两次
总吃
排空
一千多度
南瓜子
蹦极
贴丁桂儿
全都
为了
零点
油对
肾脏病
大脚
串珠
异性恋
量会
胃腸炎
昔
消不
疤膏
尸检
卤面
控制目标
牡蛎
奶后
尼莫地平
腰膝
唐氏塞查
增性
漏水
😘
介的
头孢氨苄
浅性
已型
靜脈曲
泪水
青色
”
演变成
生过
才解
椎间
气涨
患慢
总在
多莫德
单肾
奶昔
肛門
山田
太短
两分钟
老说
能治肝
打破
熏洗
几节
非常低
滴药
蒂
座疮
手气
瘦弱
文胸
其他人
需不需
磺
多些
一般性
后蛙
中部
摔成
喝醋
呵
褪色
整齐
顺序
焦
凶
号脉
肉粒
小缝
海口
抱龙丸
大母
打行
修脚
气囊
盐藻
先有
侯
pd#
湖州
帖
用沙
床事
拽
我头
没疼
加脑
什莫好
胸下
社恐
可活
鼻会
律过
驾照
癌用
很深
目标
保定
洗衣
苍白
雪饼
头重
中远
两上
能话
做饭
有功
早射
多囊会
厕
警察
伴周
眉骨
睾头
腰骶疼
半卵
脑壳
钢针
脂类
胸大
九点
散播
重活
急死
星期一
一日
缓要
醫生
时应
后会痛
累计
复苏
对肠
嫩肤
闫建林
点痣
鼻堵
四十几天
菌群失调
终身免疫
腹带
右归丸
布鲁菌
普刀
叶内
偏向
增
共餐
莲子汤
迷迷糊糊
北京肿瘤医院
鼓得
afp
伴囊
会生
升级
冷饮
完霰粒
周黑
肛痿
开赛
身形
急救药
失恋
落
最强
取油
白芍
蘘
格列
振
黄花菜
开角
饭菜
撒子
电池
起夜
锯掉
格
受孕率
一下一下
刚刚开始
磁可引
熏人
修正
一方
伯父
不稳
下胃
会冶好
如果说
脚汗
样影
腕部
用要
一颗颗
抗焦虑
c##
喝红参
拧
十多个
青斑样
哪天
馄饨
脉络
小球
淮山
共血
火辣
二十几
长胡子
冶用
月牙
睡午觉
药去
能涨
鄂下
绞
腹查
伏贴
血迹
病原
长疮
###.###
流沙
活动量
腌
没效
粉丝
海苔
月初
姑父
康复者
广东省
考特
木糖
霉毒
保过
高到
背肌筋
糜烂面
虹吸
伴后
com
儿时
小儿科
不戴
纳式
下痛
找位
人好
消丸
鞍上
奶嘴
切完
初三
治跖疣
髋部
锤击
造口肠
祛湿
错误
剥落
震
期待
独立
血癌
痛起来
糖脂
第五期
天没好
面颈
致病
三粒
用托百士
吃头
解脲型
一晚
掉下去
维他
管能
散行
药号
哌嗪
高点
松花蛋
充填
##x#mm
常益生
脆弱
用布
蓝莓
兒
管壮
刮好
数个
想求
稠能
肯
带上
样痣
痛灵
吃降
痨病
重创
克污
擦掉
用酞
半法
眠
乐霜
治地
段性
几十年
云芝
兴趣
曲唑
击碎
猴头菇
❓
茉莉花茶
神经原
通脉
综合性
浙二
神经错乱
打得
酯酶
各是
检是
周时
位子
推会
金锁固
心累
补肺
菌丝
错乱
大肚子
咧嘴
牛鞭
千多
显微
气阴
转染
空空
我想問
可疼
无疼
房里
一问
皮膚
手冻
后查
大连
新进展
生精片
麦
ia
累喘
嘴肿
能放
病重
足疗
打药
八一
紧急措施
支扩
降下
脏水
尽头
学医
百蕊
洗血
翻来覆去
多形性
腿骨
六十多
硼
清肝
ghcg
有限
阵状
心疾
洗洗澡
田七
原失
苯中毒
用慢
##X#
也好
肌炎会
度美瞳
顺便
颈椎骨
￼
AFP
今后
问询
開始
怎麼樣
起满
熊去
二氧化碳
纳米
运动员
光点
三百
上图
万年青
右季
旁长
sd
史能
大麦茶
密切
留脓
大能
持续时间
G#PD
CKD#
平卧
吊线
孪
完吃
红块
停后
生闷气
简介
杨桃
上端
手能
这段
随便
一碗
手得
爬行
线炎
##X##
抗炎药
前提
请問
很慢
怪怪的
心想
分裂性
可复性
禁水
配型
僵直
老年性痴呆
医科大
传到
#cm#cm
皮包骨
入
赘
PCR
热时
係
驴
亚健康
前不久
AI
脑补
病初
总要
交际
吃九菜
安环
牛磺酸
机械
雨天
体俭
流流
东莞
碘甘油
利妥
病叫
政状
厲害
搬东西
瑞金医院
中年妇女
印会
医的
拿点
不干
胎牙
未能
小儿麻痹
禽类
你们好
头斗腿
有過
几分
穿通
头紧
完步
表哥
排尽
美好
木炭
眼水
吃思
打出
男婴儿
咳有
低威
遇见
禁忌症
菭
蜜饯
下个
打火机
全脂
拍个
磷癌
有酸胀
就范
那得
花红
无法控制
有牙洞
括散
变天
調理
植发
严舒柠
右斜
丸子
凡是
有根
腎炎
铁片
亚麻
昔洛韦
有活
感染期
看法
提醒
科普
泌
小通草
肺主
直径约
鼻非
伤口处
发亮
喝红芪
诊为
药泡
对腺样
生奶
银
频道
严舒
涂片
睡后
钞票
痉
补好
退掉
烂掉
肉碱
要生
坐下
其有
乳牙
###ms
肩颈
十余天
该补
EGFR
鸿
海产品
娜
风险性
筷子
内舒拿能
眼梢
服啥
潜水
肉片
右小
坦静
宫血宁
一氧化氮
能排
做手
重会
为准
左右脑
奶疼
药塞
痔栓
周剖
扁条体
隐隐约约
陀
饱子
足光散
金匮
预苗后
出医
登革热病
粗细
冒青
金蝉
黄葵
明显好转
做术
發
避孕环
正状
白腻
累活
似
我换
太晚
脊灰
甲级
后备
嘴皮
准确性
肉牙
鼻噻
期肺
会动
中浆性
田螺
牙能
夹板
老打
显瘦
榨
奥硝
最晚
十号
耳鸣现象
原样
证刻
爆弹
复用
喝醉
想尿尿
天针
扇贝
生个
韦膏
注射剂
强化剂
氢氯
误打
手伸
剝
疼要
咩
先锋
减产
喝有
耳蜗
两腮
官能
蝉蜕
洗海澡
酰转
复安
跌打
有酸味
简称
变软
地氯定
隆胸
内癌
鼻梁骨
证兆
淌水
变吃
打冷战
看嘛
心蛋会
雌性激素
敷有
血点会
快长
转肝
静点
有分
不吸
金戈
天算
大汗淋漓
治感冒
贴药
三维重建
洗发
阴能
七次
留住
从没
烤鱼
客人
宠物狗
火腿肠
会裂
这时候
肤
焦类
家养
过高有
带菌者
浓流
肩痛
体炎
新增
喝下
干冷
冬春季
莲藕
这手
理性
石灰
吃酸
百分比
对乙酰氨基酚
多支
不挂
批准
三样
拼
就业
逆钟
锡
干是
驱蚊
膜状
做线
荤菜
漂流
机光
他会
莫斯利
浴池
疼去
打防
追
条影
吉大
姜蒜
我风热
问用
三乙
人大
阿托
剥皮
漏诊
假牙
即将
姨
舒丹
天下
八角
腹内
摸不到
提早
牙坏
致乱
不省人事
磺胺
齁
题目
右移
湿敷
杜蛎
尿带
咽下
癌能活
用生
硅
冻手
面部皮肤
能降
咖吗
面黄
做防
牙周
降钙素
热痛
看书
益智
斗有
恋康
吃慢
泰国
吃索
长达
用御
例子
替利
比不切
蔓越莓
這
整么
没排
鞋垫
llA
化是
四川省
腺样
评判
肠溃疡
验出
霍
惊
克淋梅
褪去
喹
上气不接下气
一有
我经
须用
神魔
牙掉
红花油
宠物
无精打采
胃隔
性肌
皮破
保暖
发声
丰富
避免出现
凉菜
市
五六岁
建康
EMAB
附子
胆酸
克斯
nnnnn
歧视
外流
测到
四环素
池里
如图所示
鳝鱼
男医生
加双侧
做何
清凉
敢喝
口漏
生雞
天说
整肠
导乐
员工
拉绿屎
打抑
llB
发咸
D#
前几次
馋
厦门
布加
弓
冶辽
坠积
服食
薰
卡泊
山东省
见于
淤胆
豆奶
倒刺
说右
腕
小坑
腹涨
脚得
阴处
联动
对应
往下坠
内舒
挂针
igm#.##
应想
多且
银屑
排痰
最为
针在
秋
髮
过厚
青汤
异证
喝治
本月
及化脑
认定
花茶
环会
下不来
疼嘛
火机
智牙
参茶
洽疗
未退
鼓个
没肿
要些
极差
算弱
转换成
舞蹈病
面前
幼女
百分之十五
假体
火焰
盖子
死刑
新生儿期
晶
凑
茅
浓肿
深部
肿包
肛漏
亚急
腰胀
带图
体会
洁净
负离子
惯性
接触传染
遏制
两癌
扁桃腺
友
有力
褪皮
前用
有菌性
小车
柠能
突起来
补脾益
见图
发症
郁症
穴
劳累过度
你院
氯化钠
妇宁
高脂
添加剂
五节
哽是
毒丸
罗星
体检中心
万花油
铁锌
眼外
救过来
透声
鱼算禽
好能
用餐
茶碱
通乳师
排通
青筋
避开
氧疗
做小月子
转移酶
防和冶疗
清淋
人授
加辅食
ERCP
原始
圈里
滴白
红萝卜
财鱼
支招
做光
块儿
完奶
胸壁
右向
甘油
甲周
仅仅
对称性
玉米粒
人血
卡片
做造楼
人该
炖排骨
指示
左氧嘛
话务员
天好
爱爱后
较长时间
闹腾
支源体
字数
丙酸
慢该
PKU
没意思
种菜
处方药
左背
G
青素
切底
胃大切
两胎
lh
过重
玉米粥
以有
有瘾
东阿
胃不疼
娄底
起烧
连接处
蛭
除湿
蛋會
真的假
烟台
年初
饭能
香港脚
泻药
呕心
第四次
出红点
贴后
我人
发蒙
结该
起得
每日
群发
旁腔隙
吃尼美
脊膜
自血
紫菜汤
十五个
中饭
清痰
些小
回不去
叶索
支援
岁长
茶有
单一
呷
白介素
LH
补气
煎熬
觉醒
用洁
时右
上床
突有
我快
龙会
薰衣草
丁醇
呀呀
尿糖
康复科
另一半
失稳
哼哼唧唧
脑梗会
会复
氯硝西
每期
酸辣
商洛
cln
长脚
沙琪玛
双测
扩增
老年斑
四磨
要花费
要犯
烧出
腌制
疼到
实话
那颗
应看
圆圈
防冶
蛇舌草
有冶疗
抗菌素
反光
稍后
娜娜
足弓
出手
の
脓头
用电
粉好
琥珀酸
拿来
果酸
高二
新陈代谢
越治越
蛤蟆
中藥
薄荷脑
手套
一部分
胶带
体弱多病
肺宁
少尿
四分之一
噻
咬到
康栓用
总用
效好
留下来
局性
水量
欣
后生
快克
后排
多算
绕颈会
年纪轻轻
并肠腔
左颈
癌要
达菲
半夏
紧急情况
增强体质
肠丸
有班块
暖气
褪黑素
唯一
虚寒
哮鸣音
断续
半后
巨核细胞
中途
多肽
乙胺
皮面
香油
皮会
内痣
打嘛
能点
常见疾病
之外
协和
蓝好
老哭
邻居家
塞牙
诺思
顸
骨坏死
珠子
得肠
手手
回音
限
回涕
周查
医不
图伦
自如
针炙
代餐
跆拳道
郝
哈哈哈
不已
水溅
对屋
半侧
做菜
干恶
吃粉
肌肝高
指肠
人多
超右
吃康
快到
弃
甘露
峡部
废
拿不住
变能
横位
精准
三十八
吃克龄
不愉
白鸽
要换
高频
x#.##
拉西
牛蛙
小针
一个劲
消块
高一
咋么样
诊得
bobo
性非
私人
打不起
单身
七片
细泡
看哈
東西
奇
嘀
绝经期
落枕
依诺沙星
证实
回吸
称为
粟粒性
蛹
逐年
相
缓会
周同
子宫腔
胆内
会想
上海华山医院
风冷
急需解决
检察
不贵
槽牙
抻
不慎
炎犯
熟透
鼻道
钙剂
眼泡
鸡尾酒
组
脚指头
孕育
用此
帕明片
齿痕
耳部
弹响
开喉
滤器
胃斗炎
加肝
长度
一发
健腰
柳州
急剧下降
舒张
下半身
前往
清问
Tct
沧州
医疗法
仔仔
蜜糖
妇检
老百姓
外囊区
市里
讯号
平血
揉搓
肝痛
形体
呋喃唑酮
外敷药
神仙
##MM
胃火
五维
发绀
区长
浮
碎屑
灭菌
有疤
leep
松解术
肩锁
承受
贴银胡
五椎
仅
补种
试产
剪切
细扁
蝶骨
自俞
年级
消灭
tppa
剪掉
鳃部
抗肝
高灵敏
自测题
五花肉
降解
左氧佛
龄
颈型
明年
腔肠
遮
太浅
正侧
外围
地方性
擦擦
肥胖型
一滴
糖化
担忧
打寒
期算
工作者
左旋
伴肺
体肥
豆芽
ssg
血精得
北京市
红色素
有小红
肝外
鼻竇炎
窦筛
试条
做降
隐婷
药保肝
个把月
红痕
办有
厅
脸疼
吃脑
痛肿
算脐
河蟹
能滴
下限
治标不治本
利于
倒致
华法
高密度
按好
两千多
滞留
冰淇淋
赛乐特
缸
触及
ASCUS
声响
f#
轴位
京万红
长疮能
微突
嫖娼
珮
不贴
甩头
已作
表层
用甲
后拴子
鼓鼓
萘
盏
目的
没痰
荠菜
菠萝蜜
动怒
血清病
胯下
马来
传输
半生不熟
裂好
急诊科
熟悉
皴
部门
腰大肌
怎幺
舍曲林片
嘿嘿
🏥
ppa
用缩
多好
硬核
心季
其内
口感
防及治
早产奶
黑脸
掏
爱起
话费
几升
胸里
孕九周
罩成
不沾肉
安徽
黄皮
用康妇
欠畅
护胃
發燒
填写
范畴
两虚
双厢
采乐
叙述
支远段
小眼
乌鲁木齐
灰区
无锡
疑为
数年
黄浓
纵
低级
扔
重视
桑拿
扶正
TEP
软床
镇心
多余
水点
起始
摩罗
丙干
桂皮
禁用
性子宫
正露
问会
遗忘
胸布
无色
用宝
个响
过院
低至
古
征是
石榴
根出
没说
心热
咖片
砂仁
粉有
钬
钻出来
高伤
克龄
做利
叮起
基弧
囊壁
会红
药医
时重
这两块
道路
长上
彻底清除
状腺性
炎看
胸内
辽宁省
完美主义
电烤
说卵
伴右
PNA
PO
毛会
水中毒
病毒疣
染艾滋
韦能治好
e##
产钳
丹参酮
髓内
原虫
姜黄
蒜头
做眼
月见草
凤爪
越起
桃仁
枯黄
气急
茉莉花
我弟
荤
胆有
呛水
指长
指针
皮包
烫染
坐立
莲
利多卡因
六斤
臭水
黄灯
mmx#.#
喝风
疤用
症好治
肝豆
底层
乳黄色
喉痹通
黑芝麻糊
稍通
竖头
用益
戴镜
吃活
鸡骨草
先期
减肥操
百分之四十
报道
多远
情问
太多会
战胜
asc
退下来
培育
舞
能闻
整么办
后光
甘
肺結
十二个
####.##
曲酸
两叶
拉丁
查找
氮质
度药
现长
杳
不能医治
安哥拉
二十三
杜
开展
双硫仑
颧弓
热藓片
妞
火检
胃酸过多
印迹
肢带
做诊
超想
凯美纳能
拆掉
疼着
没治了
只会
斑要
评级
碰上
侄儿
炎输
谷氨酰胺
结核菌素
花生衣
帮个
斯的明
药可治
链球
事业单位
要治好
取油后
治产
手面
干涉
药嘛
普洱
直肠镜
青椒
求有
细软
奶结
说查
康妇
肝钎维化
疝口
胃会
因有
不肿
杞
内径
封
扎烂
发给你
与疑
下极
减要
致盲
安庆市
红外
她们
撤退
莫米松
昏到
柔软
散列
肾下
腰肌
铁剂
转好
精对
大麦
手长
吃曲马
肠蠕动
变低
状物
报名
如向
性心理
非淋好
得切
肩背
脱掉
几月份
巴巴爸爸
药郊果
水疗
多内
来不及
t#t#
痛过
常有
安思定
吐泻
溢乳
心底
泡诊
板栗
长能
最轻
江苏省
中轴
天平
穿山甲
黄皮肤
###mg
疹断
十八
过水
鲁米
一般来说
異常
回解
家庭成员
沐
幻视
活益康
二腮弓
已办
割后
鱼蛋
得甲流
涉及
瘦身
止泻药
啥样子
颜
发证
舒乐
骨蒸
弥散
久会
待诊
乳瘤
长像
梅菌性
联合疫苗
美布汀片
能住
差点
具不
正有
清汁
良心
腰会痛
香
神经因子
座
迂回
痛要
感敏
花瓣
高耸
刘女士
要进
可控
胸右
治序
做防疗
做结
出土
管短
孕会
天津市
投保
阴滋病
眼脸
病挂
未必
房角
一拳
桥能
結核
天地
涮锅
左肩长
区有
老痛
徹底治好
打戊肝
混沌
炎琥宁
胳
算高危
佳木斯
皮能
内脂
准时
盛京
cr
不沥尿
瘰
AST
尿末
地儿
注视
做下
酒槽鼻
牙上
疱
输阿奇
正行
爬高
娃得
采集
用品
后变
净癣
秘罗
真实感
二十六
并膜
透皮
红杠
夹能
双羊
针行
公共
运城
双唑
眼珠子
有得冶
木耳
活求
二百多
生土
音
头微
必超
hcg####
长途汽车
诺贝
秘鲁
挑完
特多
三氧
四十四岁
算流
医不好
打瞌睡
吸剂
腰微
郁结
莫唑胺
老吐
固精丸
安儿宁
裸
压伤
草酸
薏仁
肝细胞
内低
能致
水饺
我原
这是验
顺尔宁
甚
几日
用夫西
平足
早破能
因吃
髓性
熊
硒片
神志
冰敷
能报
管瘘
手是
區分
内热
进不去
全用
羊布病
氧气瓶
单有
结狼肿
天气炎热
肺片
双颈
北京同仁医院
痛滴
細菌性
脓毒
石淋通
正中间
抗菌药
胖好
咽疼
怎好
问一问
男得
搞不懂
开胸后
伴反流
即
dna#.##
高级
说得视
仿佛
發性
角变
眼用
保护视力
北京地区
被判
碰伤
瘘会
骶椎
天一
读
沙子
勾
邱
刚完
能吸
有蒂
大算
骨膜炎
洞洞
疙
E###
vsbsb
癢
乐乐
缺些
出红
翻出
脚嵌
费
用内
无热
进院
泌炎灵
娘胎
复复
解放军
倒地
泡手
极少
关
胶样
不光
不知所措
吱吱
精想
淡水鱼
不净
e#
膳食
症挂
肝素钠
吸痰
刺伤
鬼压床
驾驶证
腰底
满岁
周没
周风热
靜脉
成天
砧
差距
周身
料理
有味
流动
特苦
上长瘤
胸该
牛得
小动脉
肝小
吃五子
禁口
细粒
昏昏沉沉
癍
肌肉注射
煤油
节奏
中量
吐奶会
女娃
犬
莴笋
太长
双下
很红有
问药
九十
呋喃妥因
麻疼
一惊
大肠杆菌
会笑
清官
不良后果
二两
优先
接回去
黄骨鱼
犹豫
干痛
踝骨
淋有
隔音
超重
汤治
厚朴
人中处
生鱼片
葡萄干
气顶
利君沙
越厚越
会尿痛
荨
很严
肺丸
出双侧
粒粒
整晚
生行
性咽峽炎
几秒
体育锻炼
晃头晃脑
呈现
睡硬床
男女双方
剥除
肋膜
绷紧
十来天
灯烤
气促
山梨
最能
央视
压缩比
点眼药
蹭
汤能
多源
根痛
自立
脂血
交朋友
点心
覺
变慢
花菜
璧
为肠
手中
仰头
缓有
抑制剂
洗会
谷
双足
李时珍
没味
內膜癌
腰腿
切断
疸
充足
风会
疏血通
拉完
洗好
穿着
正畸
干针
折腾
吃膏方
脐茸会
肘
勾突
有脓点
疆硬
看肝
转转
无知觉
控制力
天去
快生
青光
中后
漂唇
風疹
刀片
挂尿袋
家庭治疗
曼月乐环
按会
阴晴
跟头
右鼻有
素高
用孕
六七个
罗圈腿
可可
取钉
洗鼻
管腔
完克唑
掌心
胆肠
胃气
弟
增家
根长
急用
棘突
次会
回有
喝乳
暗
体验出
##mmx#mm
心丸
五六只
怀要
疹室
日期
氟替
竖纹
分不分
斯汀
咬过
刷查
照个
使人
化療
天先性
馏油
刚照
时疼
甲片
难度很大
scc
治痒
隕
感染率
吃怡
光泽
病态
封闭性
#x#.#
周前
某些
鼻型
干渴
咬会
秃顶
茧子
用藏
吃宵夜
帮帮
凉是
阴阜
一杯
树皮
能保
做通
生癣
颅外
姜汁
泰栓
下压
虾子
捅破
生石灰
有火
用三六妇
看多囊
十八天
不经意
漏奶
里脊肉
用尼松
石片
补气血
推介
红线
更红
性肌炎
秋冬
如球
分辩
少部分
腰骨
总流
市面上
用金
治女
西酞
并囊变
下才
腦瘤
戊肝存
息宁药
流能
青瓜
蝶
腔子
速回
悬灸
支元体
好快
看肝内
开高危
溢泪
尖尖
微整
荷叶茶
前应
下定决心
不禁
吃匹
伤感
先降
腿肚子
盆炎净
正骨
不必
会易
黏条
夫妻间
關於膽
缺甲
剥后
姜片
说好
前胃
輔
要測
服哈乐
不治行
查肝
胫后
到头
髒
斑能
深红色
腰围
需求
阴丸
吡嗪
迦
指检无
静止
游泳池
VC
缺铁会
眼液
一中
附加
三四岁
补打
跟踪
爽
缺房
对话
吃酒
小胡子
锌片
崽
有青
退麻疼
曰
立
乍
拟诊
两大
件
会高
银柴
眼胀
结扎手术
手木后
再造
内见
替唑
传家
湿漉漉
好友
手老
巨痛
凉风
有查
介于
蒜苗
泌特
疾患
d#
对飞
几瓶
睡床
血钙
突破性
睡好
一台
Hcv
抽根烟
闭角性
Q
划分
氏甲减
份
冷痛
十一月
药查
水瓶
仰卧
用美
一系列
精用
毁
尺码
飘黑
裂能
可痒
用针
后大
溏
漏有
事是
酰胺
戊肝高
胃空
透不过气
变态性
姜嘛
蜜
功率
十多次
前倾
扩張
儿童用
问个问题
扩肛
伤用
气化
肝囊
眼突
👌
能治出
一小片
豆汁
郝坤
阿糖胞苷
乳管
耳鳴
刀会
處理
大哥
十滴水
％
酒窝
总去
就动
朦朦
知名
大力
配些
酸味
挨着
算通
解暑
围
能用验
拉力
有小白
带血有
患小
测孕
铜症
更高
心肝
我肠
变重
打喷涕
暗红
主治医师
带血带
被罩
塑料
鳖甲
左主
带脐
一百五十
后测
放入
动物园
脚合
管想
拉贝
硝酸
只取
三十天
办多
毛刺
大洞
解惑
疑难杂症
做血
病去
呼噜噜
放气
啰
放盐
天流
积奶
眼泪汪汪
手后
男伴
治为
烧住
它们
肿破
体重增加
幼年
跟升
伴膜
风湿科
营养性
寻医问药
草木犀
安慰
带下病
总觉
冲击
荷叶
功血服
丙谷
人造
值低
很近
用验
陈疾
能化
岁儿
全育
夹破
左后
特爱
积水潭
幼时
俺
基因型
比别
炸
主任医师
碰住
这属
猪心
肺该
爬坡
诊出
伦状
怕黑
鄂
斯
蚓
沙门
股头
炮
漱口
压住
型成
痛快
节育
万多
感应
不应
喝味
长火
算轻
治手
保肝
淡淡的
伴小
出解
书好
几号
异
第三个
暗示
第十四天
神经线
输入
梦里
没痛
分勉
缓轻
天院
分解
体寒
腰会
框
性偏离
植入术
腥臭
夏塔
药非
联苯
腿动
机理
太薄
三公
##W
晕过去
精吃育
杯
芥
过底
琳
尾椎骨
无痒
啰嗦
泻肚子
地锦草
达芙通
暴
可根
国珍
交界处
蓝科肤宁
腺肌炎
有隐
曲美
滴水
喝上
肿快
根痛平
返酸
T#N#Mx
脑转
气颅
几滴
外阴部
沙班片
稳腰
气死
席汉
模型
修好
泡过
＋
头涨
骨下
处女座
不然
前段
数高
常见问题
胎芽后
规则
圈圈
血糖仪
泪液
治育
割伤
罐肠
畅会
玻璃球
AN
宁夏
那氏
双嘧达
血斑
治肠
美蛙
齐特片
留院
堂妹
阳性反应
啄
一疼
肺气
打阿奇
两旁
胃后
眼内
脸热
浑浑
怎们
止血钳
鹰嘴
跟弱
MRA
腰下
声门
肌肤
吃太多
衣原
肾疼
肖瘦
自闭
范了
直达
可冶
舍友
炎吃些
益康唑
瘀
热症
完宫
身体检查
头骨
vin#
加湿器
倾
沫子
新皮长
鼻赛
鲈鱼
家禽
加多囊
看清楚
润肤
乡镇
湿症
机体
感然
天旋地转
批评
去治
李秋忱
冰块
沃力
耳科医生
超图
理中丸
火茶
有毒
勃
宫瘤
壁薄
不晚
讨论
职
去医
多大需
手麻疼
人需
不觉
鹌鹑蛋
一同
毛玻璃
停长
h#
叫好
症腿痛
性脂
散列通
户外活动
候
甲骨
滤胞
丝瓜
慢加
置换术
听歌
喜辽妥
亲嘴
病里
病假条
斑状
站不住
斑疹伤寒
鬓角
早餐会
白芨
天山
发给
选择性
瘦脸
需服
哪能
委缩性
N
河南省
改變
排酸
里头
捕获
患胃
發育
聊解
伞状
针来
双则
头痒
吞
左斜
喝高泡
来讲
短时
有效率
西宁
左足
病待
隐窝性
十厘米
出完
甲亢病
裂易
病号
毕业
少能
虚岁
法子
瞢
一整天
脊椎骨
皮用
做法
特拉
炎挂
苯
后滴
补完
GCG
睡得
冷风
脚癬
催产素
这回
会肝区
药能治根
两三次
结咳
闷胀
软瘫
打肉毒
伴局
油用
卧室
打字
味精
丢失
掌骨
呼啦
远离
白癫风
趴在
会拉肚
隔間
时窦性
吃三华
分级
索非布
时轻
磷霉素
逆流
来事
变要
大观
黎
卡马西平
炸开
中日
看脑
越发
肥料
唇疱疹
一说
渣子
吃氨酚
出世
该服
首乌
打护
药为
皮康王
头油
贴膏
这家
肾素
肩周
补助
游玩
煲汤
假条
爱滋病
钾片
P
火灼感
要作
旧伤
物有
過敏性
第三年
该配
哨
自知
撑破
苁蓉
出为
察觉
洛芬
CIN#
后得切
偏宫角
适应性
排水
眼药膏
全脑
徐婷
上侧
散发
鲨鱼
炉子
ctc
T#N#
右后
乐赛
松子
观察室
收回
演讲
要塞
脊处
叶散
喷鼻
风会变
并球
心动图
玩游戏
头颈
头闷
心超卵
吐出
滞会
取胆
价值
切嘛
多前
哪一天
氰氟酸
能会
过性
不臭
有十来
不切
滑
鸭汤
骗人
恳求
加葱汁
天老
淋疤
醒脑
kg
癌全
虾仁
抗反流
上铺
来回
眼圈
骨碎
长期存在
飞久会
还行
特片
餐初
百乐
麦片粥
半办
一两天
舒片
嫌疑
种病
现己
波浪状
抗真菌
舍尼亭
品
人会生
灰复
多用
炖肉
热性
回不回
尽
径偏
胸水冶疗
开西
诊室
抗药性
吃肉会
王水
土鸡
泳池
请指示
星期三
翼状
唐世中
一顿饭
茶色
区痛
母鸡
加息
苦荞
药一停
PsA##
百分之九十

血凝
烂牙
微黄
涂擦
灯火
致死率
给治
野
唇角
多泡
什麼關
长城
无偿献血
有散
抽脓
反向
叫脑
性糖
能导
右旁
大板
发热时
如刀
束缚
压片
顿挫
般的
三秦
不理
后宜
史能治好
人士
钠尿肽
输人血
时上
蒙好
犹豫不决
R
偏大
靠养
脚裂
足血
专
胃老疼
超多
伪麻
新行
得化
稀里糊涂
拿出
穿衣服
汉堡
跳跃
碟
這些
背有
咖玛刀
经蝶
氯喹
我牙
卤鸡肉
苏打饼干
肺腑
鹿胎
十万火急
右额
嗖嗖
要贵
眼痛
西汀
LGA
好几
肩袖
食症
杜绝
不降反升
有肠鸣
好喝
憋死
郑大一
肾长
电瓶车
人腿
中渗
左腮肿
去化
葫芦岛
会输
嵴
失败率
朶
呱片
瓣样
性有
用色
朱砂
水越
预感
整只
拜复乐
被片
S##
张大
不满
乳酶
烧疼
今查
EBv#
雨
要取
棒棒糖
沐浴露
失血过多
譜
较广
育
舌骨
貧血
单耳
鱼腥
回好
初筛
有橘
防晒
咋值
晕死
还会生
脑肝
#X#.#
消能
老酒
hao
法络
耳多
烧坏
💝
体旁
困惑
耳漏
痛不欲生
检能
便频
外八
好哇
互助
区域性
较长
不割会
性大
破解
诺丽
乘九算
上传
位移
偏身
胆系
眼段
环好
绝招
桃胶
弥可保
##mm##mm
保列治
发喘
生话
糊口
吃久
口舌
冠状
完牙
烦烦
加平
低中
眼震
油溅
光化
瘟疫
打桩
药对肠
懒惰
留一
跟风
私聊
唾液酸
数天
白屑
太深
碧波
麻风病人
总打
吡美莫司
常去
安吉
因血稠
心脏科
一开
狗脑
症好
磨成
反驳
说弱
多排
收复
肺气钟
晕车
不吳
相隔
人宜
板
有尿痛
拉硬
椎间隙
浸渍
桥有
直用
舍
嬰兒
生物制剂
发是
椰子油
银血
堕胎
额外
缺钠
大米饭
住在一起
横切
很会
脑肌病
黄腻
脂肪乳
有意识
中隔
高血厌
样是
证吃
胸红
罹患
柴油
拿针
情绪稳定
crp
癌能治
吐过
用时
那长
宫素
雌性
看眼
做生
那层
四支
省级
TP
漏风
性室
里查
会后
要个
暗适应
淡黄
能检
不时
麻痹症
胃滩
病科
來
分不清楚
哈市
淡妆
丙球
天喝
支镜
往下走
供
动力源
氢溴酸
发绿
干枯
#######
一过
长多大
旋切
压板
隐私
山西
泰纳
洋芋
根述
条理
很厚
内射会
能治育
近年来
名称
消不掉
爆会
小是
射进去
病发时
山茶油
Ib#
原性
肝要
腮部
斑迹
用湿
沟长
蛋汤
多尿
我妹
再也
婚
有机磷
说继
几口
肩筋
石椒草
离婚
多量
苯扎
用防
摸药
挺胸
松素
筋痛
益赛
退部
拎
音器
空肠
宫腺
换换
甲低
化痰药
那该
窜
曲美布
离开
咯痰
效率
毒蛇
野猪
蝴蝶
总有一天
祛痣
根会
浩
华
单拐
得多囊
颈髓
两万多
衰渴
阴超会
用青大
抓痕
多难
种药
襄对脑
准确度
记些
那天
正确认识
迹
躁动
一线
十几
磁力
柱状
铺子
说脑
蛇毒
何区別
放雪来
孩童
几斤
痔要
白桦
宠物店
潘
腰凉
卫生间
玩雪
陈皮
管要
心浮气躁
样动
无法自拔
内霰粒
易尿症
大青叶
複
替尼
液化气
毒水
情況
求小
咯噔
浓液
阿娇
崩漏
弄平
手给
诚心
脑长
镇
侧翻
淤胆性
根断
动弹
双扑
水后
低频
浓缩
烟会
越莓
求个
开口处
打喷提
直线
辣得
汀片
完电切
岁月
西甲
壁澎出
血竭
温暖
大溪地
斤重
银肖病
k#
准则
琵琶
lll
脑有
腰子
孟多酯
能汗
多源性
划开
洗鸡肠会
###bpm
中腹
面粉
珊瑚
柳氮磺
气闭
火罐
优其
拨牙
连云港
办随
盲袋
调强
妇洁
国药
能冶疗
手握
孕要
乃至
接下
平之
鱼子
高脂肪
我照
期得
充水
下丘脑
心弱
飘荡
日照
棉条
无法忍受
吃东
中头
裂伴
旁路
邮寄
拍打
汗液
小刀
三叉
续发
提重
😂
能擦些
瘤经
接肠
不值
袜
迷信
五谷
底治好
停产
人愈
缺憾
苔藓
硬节
聚合
复健
力不从心
捡
泪膜
七周岁
壁有
索条
保到
方位
热疮
调过来
徳
拆完
常服
油多
莲蓬
吃个
太极拳
七根
相似之处
怕怕
盛行
直系亲属
针灸科
刘勇
换者
过年
马路
疤会
补养
有全
充盈
六十天
加肠
回痒
还照
海拔
他索
恩度
多克
天都
買
处理意见
老姨
暖和
得骨
甲醇
烦人
通知
血该
匹配
研究生
灵能
妇炎康
藕
低风
二十八
索拉非尼
症对
f
噴剂
挂骨
治能治
下胎
必要性
十六周岁
会降
说不清楚
眼水好
肝损
gam
干苦
这红点
验过
定期检查
趴下
辛能
热人
igg#.###
软胶
求中
#mmX#mm
烦死人
沾液
前部
有脓流
美甲
胜会
碍
绣球花
复数
右骼
针药
度不退
最上
会传
趾甲
能拉
能转
小用
慧
周日
慢不慢
粪石
级伴
银丹
家常饼
杀星
脖子酸
源
煮粥
外界
右鞘
坏习惯
乱说话
曾大
鳗鱼
能冶得
出現
供者
苗药
大大
树枝
落疤
洗脑
匹
备孕应
半生半熟
减重
白求恩
病感
原地
姑奶
打洞
皮皮
糜爛性
三月份
奶吃
美拉唑
能放药
第五年
听得懂
症候群
养肝
想长
公立医院
清涕
香椿
瘤体
胸段
迪
灶性
平凡
舒宁
已好
内能
膽囊
骶骼
界里
尺骨
求后
聂
小量
为类
及量
蔓状
头昏眼花
会头
彻底解决
替尼片
手掌心
爆炸
瘊用
专长
黄点
汽油
替康
吡
双麦通
走过
伊力
甲壳素
乳后
貝有
球有
必有
弱势
特定
肿么样
调术行
胡椒粉
长相
三宝
伴粪石
腰脊
態
抢救无效
重是
抽泣
大脑皮层
讲究
散不开
暧气
滴进
不对劲
克山病
绝育
破会
粘住
粘条
员
这眼
夜盲
随治随
简直
出小
不变
后错
长辈
文美
袍子
腰骶涨
黏性
胃瘫
血肠
菌能
能治胃
差用
破卵针
叶舌
宮頸
中風
利培酮会
达吉
教练
现不流
对膜性
还出
外国
抗拒
太大
不好过
酒才
长流水
河鲜
单能
打欣吉尔针
因先
变黄
二十六岁
百忙之中
能装
破入
朝
法能
真得会
咖口
安定片
体力劳动
钠片
无疗效
长假
我妈脑
多能治好
迟药
看腰
刚体
烧不退
按住
可哟
一款
推烧
伸懒腰
辣酱
基础
腦動脈
很响
溜冰
结是
鲨烯
后防
晚有
失去知觉
椎骨
骨架
不大能
整骨
癌伴
刺穿
吃雪连果
右下方
有膜性
搜
晕片
站街女
怎莫办
多得
血查
铍
流利
歪歪
爱生气
主治医生
吃不饱
嗡嗡叫
实力
骨疼
.........
老中医
越坏
少越
出腺性
该放
性及
不点
那菲
桑树
背段
做造
示脑
年會
枇杷膏
出摸
第三胎
芬布芬
康复中心
喝口水
IGE####
补贴
吊带
三胎
后鼓
题
不长个
蒙蒙
直观
半粒
热干面
右下角
中颅
手麻脚
阳型
场所
想起
伤有
夏
油管
围绕
领
说说话
配药
周宫缩
放置
谵妄
肋条
门长
超都
凝化
满嘴
不太大
T#aN#Mx
不红不肿
弥补
科能治
恶臭味
总热得
四五
书本
螺蛳
面色苍白
一体
HpV##
腰腿痛
辦法
高速
吃消
眼霜
胃底体
抽过
悬雍垂
吃饭问题
天吃
喝清
药买
金嗓子
玩耍
##mg
所在地
併
做才行
抚摸
量完
鼻黏膜
过胃
干不了
高需
喝热
支撑
吲哚
炒熟
尿石症
儿能
顿
勺
增强版
挠痒
炎两人
凑下
赵大夫
視網
媳妇儿
比特
大骨节病
前景
prp
胸水算
交接
用途
太尔
冶脑
墙上
肺来
液涂剂
下会生
反射亢进
过能
起脚
未感染
飞过
湘西
叶茶
速冻
Fspr
达力
好治些
之久
卤肉
磷化
打清
驼奶
甲狀腺
几楼
小弯
应作
肤对脑
局势
嗨
没配
挂诊
是良
两万
食盐
喝安宝素
赶觉
功能分析
写字
红有
窄小
胃轻
我报
对长
长多大才
亲属
妇康
椰树
那泡
掂
白萝卜
打脊
眉头
多食
好取
准妈妈
炎后
可全
吃玛
张化血
颈外
九正
冻肿
早中晚
确经
后痛
消眩止
也就是说
喉返
很粗
微石症
同意书
不配
跐
绿豆粥
助孕
杀鸡
尔
脑梗栓
还原型
磕碰
纸上
咕胺
水泻
时快
卧
奇脑
氏菌
护具
分有
吃善存
不热
隔夜
症治
水电
没起
外地
胆源
吃纳豆
导丝
六针
罩
戳伤
钡
做院
等候
涂用
子有
独活
肉丝
耍
自主运动
加巴
麻章
冶不治
喝溪
马凡
早会
一加
腹坠胀
回缩
水泥
小嚷
嘴眼
上臂
九龙
数是
受阻
脾大有
喷血
改进
艾迪
灶及
树叶
君乐宝
毛细管
窗户
附壁
能力差
周零
雾状
处有个
年末
山竹
乐环
快线
药治眼
花纹
屈角
臉
獾
清咽
套会
弯曲处
外泄
床单
聚维酮
胸痹
##w
任然会
插进去
查大
整形医院
菜刀
脑前
大舅子
益髓
住意
好轉
使朗
脑充血
祛掉
樣頻
指引
娇正
晨跑
丁胺
剌
毛细孔
晚间
胆区
肠容片
HIB
韦好
冲动
初治
针过
残痕
H
有软
分格
直型
肺心
越久越
才治得
igg##.##
钱能
气性
第一项
偏轻
方有
厶
尿会
红褐色
假肢
脉络丛
哪一位
这脸
污染
军
特別
脐窝
喝旺仔
吃金
入眠
线体
兵检能
埋伏
贴能
若叶
布满
#N#M#lllb
光敏
闷热
总痛
我市
七分
热清
水流
龙鹿
期到
刚犯
全肺
喉嚨
鹿心
面红
脑梗能
长疤
喃
猪獾
吃风
及手
治脐
遗传疾病
萌测
勃锐
倒转
怎冶
旅途
阻性
镇咳药
皮痒
拉氧
饶
率低
累着
麻椒
泡椒
流么
生孕
常喝
幾歲
怕鬼
粉一克
打麻将
这高风
肾能
这三项
地下
超行
求急
钻连
碘伏能
始
桌子
姚
小病
护肤霜
包后
曾生
大败
曲涨
上发
痴呆症
各处
独
游乐场
鸡蛋清
太高会
胃管拔
出胃
磺醛
一不小心
急性病
面癱
呼啦圈
樟脑
三博
伊曲康
抽疼
脐下
白雪
白肉
家公得
成甲减
一吹
越多越好
na
尿尿有
哈哈哈哈
塑身
黄茶
硬包
良品
热水澡
人断
还应
尿夜
阿帕
头麻
陶氏腔
彻夜
爆裂
不圆
哪点
白粥
外沿
看成
内标
餐厅
芦丁片
這樣
对人
這種
车前子
点穴
排下来
丽珠
少吃点
甩脂机
會導致
挣开
上段
中旬
sm
吸烟史
情感性
几秒钟
尤文
少腹
树脂
媽媽
白內障
会犯
打头
会右房
妇效
州
记住
运动型
帐痛
长寿
胭炎
前患
堆积
脓状
拔毒
寰
噬
抽抖
而成
针针
宫瘤宁
石化
菜油
玫琳凯
算快
brrett
排卵日
生性
染性
消炎片
腰直
猪腰
推测
牛尾汤
粘性
帮下
服点
润滑油
拓
镇雄
沙宗片
下肿
殖
跌
脑药
溃炎
叫腔隙
带胃
中重
坚定
酥油茶
针对性
咨询性
手藓
不低
爬楼
屁股痛
治吃点
伏擦会
..........
值比
上年
莫特
冷得
薯类
戴美
没下床
可话
GCB
好求
食用油
用百
CEA
zl
痖
la
要长
显露
硬物
奶一涨
苦难
鞍
踏陷
牙壁
胸廓
医科大学
再起
红血
触电
塑形
天没上
爱必
皮下注射
辣椒油
鱗状
我宝
彩色
疼拉不出
会麻
小弯侧
类实性
隐藏
错过
喝开
水行
乘乘
断片
接下去
全腹
心脏外科
吃琪宁
備孕
科学依据
内缘
椮
针没见
有头
出毛病
开花
肾石痛
乱滴
不连
能加
健全人
彩光
需挂
能治小
治周
包小
vclxl
退行
卤菜
扒皮
常发
晕乎乎
请王
专心
绿脓杆菌
片塞
曙光
伴纳囊
聊城市
表柔
没医
涨肚
肾为
盐汽水
谷胱甘肽
肺里会
不如
扶摸
大葱
孩纸
第二张
外治
相能
半是
现如今
用保
极易
幼犬
跟结
女患者
作完
半麻
mds
粉碎
阜外医院
下得
半透明
收小怕
构音
变用
通塞能
湿庞
灵散
大增
旁型
神经中枢
潜
凝集
心速
高血糟
二到
盐澡
想买个
红豆杉
说活
三餐
精锁
要少
包守
年内
发展趋势
可救
十二支
补能
过频
求药
邹
乳块
斑长
全该
完阻
用海
北京华
十九
同住
蛀
莱阳
微型
病變
捣乱
晚基
脑组织
做切
单脐
加量
六七岁
‍
龟类
治请
败学症
鼻饲
洛阳
阴蚤
查才
一樣
超好
预报
要医
难退
该是
有费
饮食疗法
張用
碧
刨宫
娩出
酚酞
老拉奶
头里
鞭
匀称
要会
郃
漏出
录取
生吃
说明书
清润
禅意
扣会
臀膏
郑
药停
纯中药
薄有
麻手
二丁
拿合检
寶宝
背头
奋乃静
水杯
兵
有数
五十多天
大肝
完气
并腺
子能
锦
内生
宝打
能花
洛克
好愁
翻转
刘大夫
蓼
眼是
起白
督灸
肝长
癌病
麻醉剂
合疗
复乐
佐匹
单靠
我想查
鹦鹉
以来
子油
康妇炎
囊腫
远期
裂斑
这味
有针
算烧
目标性
摘除术
高长
索
分癌
啊院
脸得
见笑
八九年
大疱
聚桂醇
肝气
金属
角性化
开奶
方安
出长
我口
挖出
翳
煮饭
防碍
一两
寄生
吸取
湿痒
木糖醇
郑安堂
上周末
康复会
锥形
顶骨
血成
张图
就可以看
失忆症
核糖核酸
不大算
保不住
营养素
看护
努力
宝有
电光
加弱
空军
肾源
血钠
有肉块
哈喇
正上方
舌后
嘎
出人命
张医
CTC
胃泡
五月份
绝扎
兴奋剂
吹易
低化分
安胎
那能
临终
小小
想替
输清
悠神
脖会
循环型
刚会
多囊样
特指
过有
透过
换季
####.#
结开
误诊率
脚后
脸有
脐部
热胀
肘子
伤会
吃克
药经
哪侧
研片
史有
两块
何杰金
放聊
犟用
两袋
泡沫痰
有的是
经峦
低能
堕胎药
脚垫
小石头
梁
扭得
膝腱
母
得脑
喝鹅汤
路程
烫头
雄黄
葡聚糖
牙槽骨
上行
相差
用治嘛
囊变
通俗
十大
算胖
依旧
白球
妇因
旺
三条
何时能
琥珀
被试
阳上亢
胸罩
烧灼感
泸州
灌脓
身痒
消痛
白藜芦醇
似得
想得到
炎疼
U
射精管
丙氨酸
导尿
怎知
心性
失代常期
喝红
自免
边痛
医看
洗碗
生能
菇类
断开
全摘
过麻腮风
体弱
贴完
会上
基体
后成
烟头烫
之缘
炎宁
麻会
寒
吊起来
输液管
防范措施
有鹅会
罡
漫长
襄肿
霍胆
不愈会
凸眼
紊
牙垢
至脑
没病
脾肺
應用
炔诺酮
好多好多
类药
肺科
看多
八九天
半打
天亮
多厚
连翘
手扣
凉皮
放大
太凉
`
间叶
经鼻碟
仰止
一抓
莫沙
体形
没换
白是
肉皮
亲为
小瘤
定小
小女生
氯气
撤底
会抖
凝似
枯萎
不冶疗
已后
X#
陈立立
质能
油有
微血管
速速
性取向
桥角区
体湿会
小豆
不放
吃安惠
冰棍
二十七
送到
扩管
拉米夫定
高兴
十来
星期六
完善
肺子
疼起
丸巢
心理素质
性早
用亮
吃桃
找治
颗粒感
海棉
罗氏
流过
不爱上
幺
会不痒
有片
能开
含义
比利
比起
肝曲癌
胬肉
赶紧
初症
骻
含氟
提不起
眼光
极端
克数
吃敏
脑莫
小弟弟
有出
剜
喘得
蓝色
右下支
腹坠痛
摔断了
好肠漏
室间
几盒
同饮
膏涂
时肠
轻链
問子
藜
烦燥
脑颅
用安维
四价
柏金森
厘
针尖
欠园
水蜜桃
刚有
会大
心血管科
生物电
带鱼
袁挂
症断
还给
谈恋爱
药厂
蔡
寒凉
左肾
锅
颤眼
雾化器
新同
不醒
更糟
先破
正阳县
足够
利舒康
强壮
igg##
会退
有下
帕明
稳感
尿中
续
吃易
科别
长不胖
点五能
调皮
电离子
沿
限制性
忽快忽慢
想像
完美
冷水澡
生不如死
有股
原有
时头
前女友
外突
头下型
确疹
比如说
解脱
斑秃
臂部
肾肝
完尿
广州市
刚出去
凉面
市区
用美克
呋辛
放醋
ph
小月子
宫禁
脑沟
测睡
配要
准确率
九十岁
创
中藥能
肠积气
树杈
痛起
总共
镇定
喷到
即使
冰霜
底裤
菜会
恶梦
回吸涕
取卵
先点
红膜
药和用
心境
消散
斑片
草本
妥好
激
总的来说
脑昏
呼衰
往肉
走向
带排
不及
加替
刮掉
怪病
梦多
包药
毫
右下侧
头条
做缩
消栓
三两
剃头
出脚
片制
广基
背背佳
萨摩耶
洗牙得
变能治
痛后
根嘛
用作
简述
兵役
暑热
纷乐
皮层
硬疹
噬血
先腺性
布诺芬
多口
发皱
患在
皮康
测过
制菌
复后
既有
哪几
两节
陆续
NKT
高处
公交车
跟上
六安市
歪嘴
啶
内新
蛙位
世上
多粒
腿走路
周都
中花
习
那侧
問用
多后
三万多
突会
时冷时热
软巢
膏能
八旬
做牙套
变有
先试
请能
得慢
胆木
这时
爱塞平
麻黄碱
正要
善
高钠血症
相克
保类
六处
球后
奶块
科呀
长不治
声声
周排
来临
白脉
莴苣
越想
紫殿
撞车
探视
姑妈
咳会
聚
胎有
化学发光
歺
蒋
you
pku
爱力
中到
低置性
两颊
搞对象
皮外
截趾
那门
芒销
栓杳有
床垫
用涂
栀消
防疫站
十么
朋友家
硬状
球型
有怀
缝样
伴痒
正壮
减去
过要
予防
外擦
视弱
西安市
优可适
尽力
sj
下头
肾喜
周出
关痿
小小年纪
导制
度半
没入
同一天
有雾视
痒且
状形
壁蓬出
套扎术
肝岛
我输
晕痛
驾校
乔
成立
赖床
zhi
健胃
动感单车
杂物
甲勾炎
期下
美能
压排
阿奇霉
星型
吃碱
吃强
洗鼻器
后处理
会要
多性
检右出
一本
不服
T#NIM#
检查费
不符
面横裂
用美宝
上星期
受精卵
黑朦
吡非尼酮
漱口液
ASORFCRP
张丽娟
一点红
炭疽
毕想
##xy
有视膜
结局
质地
梭型
发泄
有戊肝
唯达宁
架子
肺野见
市面
介素
散发性
肛温
囊腺
要戒
大大小小
咬合
神情恍惚
伴上
比卡鲁胺
脂好
霍山
碰掉
锥体外系
病大
眼仁
鼓膜炎
欺
双层
角栓
打泡
酒泡
胸不涨
肌对
龙凤胎
没降
同病
太困
熬成
vll
动该
过腺样
你治好
甲氨苷是
层皮
干涸
猫爪草
皱眉
同感
肺应
一半多
个体差异
粒状
玄驹治弱
登记
大姑
笨
丝线
植体
o.##
七活
一闻
正嘛
重糜
颈后
人一累
我炎
脑死亡
三对
破掉
总淌
复层
停博
伴双
藤熬
肿水
接通
用不上
率高会
洗济
配餐
巯丙
饱和度
X##
TIA
一部
查见
涕风热
根痒
蝉蛹
过针
来过
拉扯
確診
头盔
雅培
用塞
多强
重离子
肠有
会来
血官
减血
后飞
转流
黄桃
胸凹
甜椒
生脉
青能治
癥
只涂
状吃
色彩
瞬时
整快
左闭
遺傳
风湿症
缺辛
施捷
处张
胆炎
羊粪
NON
质量检查
光前
一方面
外移
渗出物
何药
出医后
双阳
脚起
有伤
抗力
加要
脑小
制作
喝玛
返校
天无
百艾
教师职业
乐王
奥泰灵
瞅
补钠
一饿
血行
这观
拉伸
男男口
鼻类
硼沙
压下去
脉动
发僵
亮氨酸
感性
警示
续命之
lad
BpH
入骨
眼轴
完毒
手胀
患病率
Hlv
肉毒
裂快
蘩
抗链
加二
深静
打到
压积
停顿
卡西
阴经
轻微伤
😛
资格证
千万
更难
照着
副神经
只输
头大是
提出
后会来
锉片
为害
鼻毛
聒约
黄旦
毛毛
多能
保脑药
本病
pj
咬后
米菲
球茵脓
葫芦
肌腺症
砖块
发奶
rb
交
咳坏
半衰期
谷氨酸钠
蜂巢
不锯脚
变肿
#d
賁门癌
意嘛
泌淋清
音重
动静
成得
转低
陈昌
肝脂
深入
补达秀
猛烈
长距离
不为
土豆泥
要百想膏
蛋类
蒸房
抗菌材料
灶腔隙
腺肝
炎咋治
有亚甲炎
宁心宝
太爱
升到
莫片
吃橙果
女子
患泪
吃股
改怎麼
打克林
太苦
伸缩
量体温
滨
cm#.#
一夜情
卤米松
玛卡
T#T#
叶片
球瘤
凉拌
䃼
吃不得
乳症
帕洛西
豫防
氢氟酸
上周三
卤
判段
挣长会
用油
有劲
停會
情状
几有
性假瘤
创可贴
二手
痛麻胀
利伐沙班
难以承受
着手
后会成
远近
哎呀
光斑
总不爱
有来
慢是
潴
可及
地松
药脸
房纤
用爱宁达
土豆粉
一夜间
消唑
屏气
怀凝
铅表
荷兰
哈欠
轮流
会血
有制
留访
用力吸气
偏实性
得进
较重
植骨术
老红
六合
封开
苦涩
口福
骁悉
麦芽糖
竖条
哪一科
性史会
起疹
黑胡椒
用克痒
病原体
巿
生理机制
姥娘
要断
脑乏
长裤
Burkitt
特重
神经过敏
藤片
胸严
氨气
右疼
加水
套结
嘴麻
赖安
半切
妥当
可致
成药
打冷镇
尿尿痛
优缺点
∀
尿病
长刺
小梁
消渴
芬达
疾病症状
醋精
ECG
相关检查
近处
伴量
太冷
闭着
屈膝
无针
内炎性
长途
药冶
芬乐
血管病
为癌
梳
白有
已行
训练方法
补心
擦身
停滞
楼下
证膜性
后卫
键子
出牙
关灯
昔布
诺舒易
掏粪
見
没动静
宰
四片
算胎
突部囊
关节病
腰酸背疼
小叔叔
扩心
垂下来
木泡
顿梨
狰狞
功血后
跟胎
辣条
两夜
滥用
罗卜
碎裂
普及
额窦
打结
安乐
饮茶
分身
二边
右上方
整没
用卡泊
石桥
面包皮
飞行员
北京积水潭医院
糖精
滴滴
zh
上移
七十四岁
十字绣
大米
伴半
庖
喂药
想先
最佳时期
面肌
铺
藥快
老卜
嫩
内实性
一截
椰青
大小不一
行性
宫底
性脂溢性
气液
透
性行
可然
出产
阴雨天
热情
畸精
分布
顺德
吃蝶
糟
特放
肝素
莪
手完
气有
很乏
村里
吃兰迪行
克星
平散
陕窄
空鼻症
树花
不太想
还冰
孕三稀
痔有
更重
吐酒
用佳茵
比卡
胎里
我易
凉快
时不痛
打水
伴发脑
痩
捐卵
紫纹
做全
脾厚
剖好
看挂
老板
結核性
茶能
功血用
益汁
脑硬塞
不垫
深红
谈
病杂治
情绪化
甲丙戊肝
误差
止脱
菌状
叶多
取不清
做晚
表象
未预
陪
填
走形
肛泰栓
八不活
颞部
时肩
化纤
接治
吓一跳
辽妥
筋脉
表现形式
舌吻
精神创伤
能全
反流伴
病吃点
变声
正能
因数
发言
急淋
舍曲林会
证是
军医大
达芙文
没日没夜
虾油
跌落
发油
片血
红药水
柳胺
导流
骆驼
彻夜未眠
股癬
昼夜节律
干贝
不长算
瘦肉汤
截趾后
经皮
辨认
差出
反生
洗发露
趾骨
排泄物
石术
控制中心
呋辛脂
鱼头
罐肠后
奶涨
有法洛
小母
缩肛
更白
凉气
蹄子
震动
晕晕沉沉
大鱼际
想怀
血氨高到
此种
或药
头会痛
大慨
硫化
脾软
伴发
需管
多下
泡脚用
放療
害羞
再有
包天
阳虚阴
支愿体
下注
影及
颗会
第四第五
月加
药贴
能回
人中
很弱
发泡
陇南
肺磨
打腿
上唇线
颈背
QQ
假设
连花清
特性
会测
囊会
翘皮
腋温
三家
鱼骨
人民院
用夫
养有活
横批
产物
伏涂
患得患失
瑞松行
填平
晃
羽绒被
唾四已
卡散片
喝人奶
绿萝花
仔
####ml
撞头
片好
显现
水声
丽迪莎
感受
小常识
散开
这甲丙戊肝
过肝
吹箫
芍药
很饱
我以
bbb
赛若金
皮掉
济公
我类
用麻
戊肝要
显怀
大妈
好奇
血生
改海
转氨霉
药贵
有经
诊患
钻牛角
安贞医院
雞胸
越梅
一连
下腺性
十四
洗牙会
完完全全
肩甲冷
天晴依
舒血宁
绒毛状
漏肠
##mmx##mm
烤鸭
视网
儿女
愈发
cvvvbnbnhjjjm
双重
起痒
夹掉
夏姑草
粘痰
单疱
水产
血府
性趣
坏东西
避孕措施
音是
为腺样
涂艾洛松
带瘤
医了
左房
归来
克耐糖
期末
胸一
手帕
都发青
保肝护
肩肘
电刀
打孔
狀腺炎
做小燕飞
屏风
发庠
二十二
末节
会会
吼
形象
几坨
片装
地奥
没出
搭
又快又好
同寝室
建立
肉多
隐型
下沉
来电
实施
衰老
四度
性价比
脸是
手摇
准经量
迮
单色
武警
径长
袪
最加
刚通
被窝
抗血栓
只起
图文
丙烷
##c
对腔隙
并珠
干石
易善复
缺锌
减降
畅疑
姜糖水
招告
不定期
凡士林
低排
砷中毒
评
性性
关结痛
九制
二十多岁
隐亭会
多行
类克
预苗防
每时每刻
有小主
采足
治越
会多快
不抹
板腺炎
常年累月
腹产快
好丑
輸
皱壁
测血压
没来由
阿瞳
好成
海蛎子
闵
抵触
脱髓
磷酸钠
不饿
代付
膨隆
周肝
电扇
孔造
舌系带
浅部
比星
厭
大姆指
梨汁
寄
嘴发
解決
肌底
里昂
发动
会狂
会治
癌坯
痘疹
青睫
往往
前降
队
右下致
柏
小白块
功血诊
注药
老病号
晕晕
亿珂
#kg
峡部裂
包绕
fsh##
光看
下野
到时候
回输
大体
药疗
只得
夹色
有化
去皮
有雪
二对
开头
脾内
挖耳勺
健下
礼物
封闭式
吃弥可
眼晴飞
煎鱼
颚裂
奇美
药剂师
还晨勃
风沙
出后
参龄集
接节性
BUrkitt
种花
不有
硫辛酸
但确
红外线灯
先备
烤翅会
激了
丁肝
歪塌
出小血点
值会
沒劲
伴腹
又范
得癌
右踝
肾窦富
因外
屙
多系
多功能性
统性
alt###
天未
啤
话题
内皮
发率
贝塔
无子
削掉
氦
爆性
藤缠
胎癣
已程
外源性
颞下额
活过来
治完
会串
液基
换儿
来治
电凝
常戴
胰酶
所示
难以忍受
喜来
假期
風寒
精体
药迷
上肉慢
对类
阿心
秘密
药皂
稳妥
血印
泡肿
比较清楚
LDH
彻底消除
先送
过久
瞬间
抽电
状及
薄膜
挂水加
血小低
喉喘鸣会
吉兰
吃泛
生水
怔
修回
眼贴
腹下侧
出油会
六院
吃角
好不容易
双向性
嘲笑
五大
ROP
多人
钱能冶
人为
清新
超痒
吃雅翔
林旦
无氧
co
力士
三百多
黑米
啼哭
IVB
上池
红到
之星
cD
优甲乐会
水是
短期内
些许
伙食
脚环处
菌俐会
干支
第十一天
肿会
隐翅
咽该
人血氧
咋治好
跟肠
外痣
左旋多巴
放假
基台
解剖
仲景
福格森
操作
能算
美满
现肝区
地奥司
图下
用硝夫
带子
摩托
回填
肉汤
肿瘤性
喂食
病兆
壹级
有知
重要性
时羊
因何
爱长
身材
脑心通
正合适
能学
作呕
顺是
疼脚
或胎
中算
外套
总掉
足内
伴成
卤蛋
兩年
老范
求药尼福达
烟炎
枸地
喝贞氏
摇摆
贝伐
现治
很浓
人长
未胃
药流会
周入
鼻渊
身心
全血
胸通
紫红色
我仔
通血先
患侧
SD
什什药
点话
土办法
双下眼
顶用
厚能
入组
精氨酸
候咙
精死
有位
温疹
喝纯奶
起热
阴炎
双声带
害冷
烧热
引生
草汁
衡水
擦破
不预
非常容易
养活
抵制
甜糯
针回奶
发酵
带动
褪掉
引响
原型
老醒
黄痘
行为障碍
车里
有點
安顺
合不上
必尿
带菌
患腺样
过甲泼
快點
虫卵
多维
云南省
科能
隐处
条杠
外展
肠清茶
老会
偏稀
有多强
肝爽
催经
拖出
例
少是
久座
彺
葱蒜
走后
发神经
有神
暴增
一痛
盖化
花蒂
经堂
鸡皮疙瘩
点痛
点血
多药
太细
xxxx
症和子
尿线
偏高要
用线
强行
三四点
独到见解
海
喝雪碧
宝疗
数次
低亚
吃巴戟
黄苄
杠泰
掉线
小嘎达
周天
流质
半分钟
壁内
金胆片
用妙
吡坦
紧是
献过
昏昏欲睡
完水有
自助
用奥曲
自汗
宫肠
风是
切缝
BC
跨过
药业
淤斑
顶端
麻鸡
会脚
无兴趣
上出
外生性
身患
对户
很白
腔性
说怕
肤宁
三分
强效
问点
父
小瓶
雪天
敷料
录用
合欢皮
堂
爱液
张奶
闭气
吐不出
间隔时间
摘下
出乙行
必敬
石耳
椎突
痛情
小疮
体热
水水
SOS
颞顶
儿院
能吃兰
可取
崩
汕头
阻力
收拾
膏好
酒店
補品
周热
净片
吃安律
诺宾
后放环
真是假
纳差
用玉泽
舅妈
干冰
鼻渊片
住校
但脑
左右侧
托百氏
小有
性经验
姿态
一步步
玉林
吃码
减高
说服
落地
松液
多塞平片
瓜果
养鸡场
有肉长
fe
贴成
LgG
二疗
灵敏度
危组
求知
水包
人吃点
两人过
就查
烧麦
黑素
黛
低脚肿
新年好
便捷
糊
阿宝
粘合
卤过
结件
哪科治
孑宫
手求
拒
脚酸
秀发
我己
醉
留意
管长
要素
鄂裂会
碘伏用
随机
盱眙
对多囊
莓
咳呕
厌世
极性
二线
有外
何區別
襄能
变轻
开麻方
角质层
猫爪
舒霖
我发
虚有
服痛
桶状
大蒜油
吃顿
迈通
耳针
培
瘊的
红药
应查
和椎间
痰音
蔗糖
肝胀
腌菜
缺伴
性橫纹
脚成
Nt
取钉后
看管
挑除
变大变
书上
通片
新装修
二母
擦赛
有抗
未婚夫
钠输
裂该
炎热
长期以来
指甲剪
压有
做多色
效果图
脐炎用
美辛
前痒
并症
吴军
水嘛
泰道
迟早
河北省
姜糖
先验
得话
交易
如同
豆沙包
天会胎
圆柱形
喷金
这一说
受冷
完全缓解
粉能治
脆
胸水型
屈螺
频凡
后病
连片
要动
低腰裤
扁头
擦屁股
基因芯片
头孢哌酮
镇痛药
人后
降细
交差
美时玉
待久
痔好治
平素
加脓性
提议
网肺
来时
伴间
窝沟
金维他
辛能治好
胃乐
TSH##.#
株
及鳞化
单只
杨美
血池
桂附
快犯
wood
双睛
终合症
好且
伪膜
活性炭
肌干
再障
心堵
破馈
疝术
雪连果
双膦
盘绕
龙葵
HBsAg
哪段
猴
再取
FAB
缩泉
银离子
冷藏
天凉
咳咳
赛治
水喷鼻
新伤
他林
吃安络
想了个
云香
养肺
冰梨汤
缩脖子
皂苷有
皂苷钠
排净
林钠
两断
沙门氏菌
哌唑片
大量排
小米
通利
症带
工度
亮
關於腳
银尔洁
网络
桃酥
腰腹
三加
宁嗽
喝替
试药
現己
端销
几毫米
压缩饼干
坚硬
绝对值
油大些
调配
可达龙
精嘛
平长
下脂溢
居然
症能治
治脑
用分
自评表
儿科医院
三高会
青海
會不會
纽崔莱
误区
晕得
压差
克痢痧
放射科
茶树
点该
不干皮
早转
亚铁
孕五周
联
线刚
压下来
影后
海群生
补佳乐会
呼吸肌
消费
威尔逊
吃芹
治方
凉血
发暗
火针
用肃
百分之八十
动就会
橙
茂名
变冷
分枝杆菌
艾水
硫必利片
糟透了
抚乳期
梅氏
回会
摘出
苦闷
吃肠
羌活
痔清栓会
晕喘
睡木
进饭
周十
发神经病
养生堂
好感
木僵
厚薄
管它
却测
通知书
分岔
炭火
出支
copd
耐力
歪向
碱片
用新癀
水灌
偏小会
容颜
芽
白癣
ne
上气
五倍子
去屑
美沙芬
胆碱钠
抽下
发懵
血亲
三十五
CAB
未化
愿因
女婆
鹌鹑
↗
冰糖水
脾大胃
气胀
百分之三十
粪门
肉圆
洗月子
病死率
急喘
早破影
肾排
人手
前阴
打虫药
斑脱
弥
脸大
长是
铁杆
区囊实
岱
有作
一瘸一拐
忌奶
好少
鼻后
样骨
起水
肝大是
回老家
Cin#
签
肠液
我戊肝
原发型
病喝
前脑
保胆取
整能
茯维
症治得
两降
协调性
結果
舒康
抽绪
高盐
哭恼
步长
临床医学
缓能
过敏症
宫廷
病狀
雨下
前长
妇乐片
开放式
IghTcr
脱困
茶会
延长时间
饱嗝
冒出来
膏丸
少吃多餐
无梦
加反
C###
验兵
临床试验
痛风病
对眼
抢
ya
用奥
鸡油
咖黄敏
上述
同心圆
长该
羊肉串
后作
不戒
苈
灶状
厌恶
有虫
多孔
菌性
聚糖
总苷是
美女
一疗
活在
涨往
吃结
金戒指
加静
检有
胆舒
我射
薄唇
灰白色
尿不畅
解决问题
病及
脚木
thank
中二病
偏窄
房射冠区
大点
土霉素
相向
婚姻
眼晴红
冷光
夜奶
退会
益肾
五点
烟嘛
借
仔黄
套扎
克洛片
好累
照到
药浴
流要
依赖型
宽大
吲达
用林旦
菱角
肿长
脾大是
IIe
菌会
NMDA
钱治好
发时
藥能
会治肝
天性
病需
报警信号
极致
小肚
日晒
美沙
木梳
巴豆
苯醌
种植体
药脚
右颈
收口
发到
空腔
聊过
挨刀
包痒
懷疑
线雕
泛福舒
堂弟
移行
小檗
开窗
黄奶
动咋治
嗡嗡作响
芙
广西
psA
崩裂
快满
药吃久
警惕
用护
彩能
方向
大排
会排
能溶
打瑞白
万爽力
鳞片状
戍肝
索拉唑
背涨
蝶鞍
肛旁
瑞松后
眼力
扁脑体
一笑
肝内强
难多梦
分伴
呈现出
麟屑型
佝僂病
处治
合川
保存
看上去
热伤
组胺
打湿
理应
洪都
眩
叶性
会病
颞下
破脓
红鼻子
多白
老喘
脑该
果珍
达芬奇
尼可刹米
現在孕
KFC
举痛
重建
丸行
药肚
致病菌
陆
裤头
坡
疼头
没过
比较稳定
超龄儿童
重重的
窦性停搏
肝丸会
再就是
加视
说点
一個
相爱
事前
做造口
升上去
消去
支原體
腺病毒
血钙高
按脚
油发
成拳
甲流病
近十年
两指
十四年
乳是
长长
服部
肩能
关联性
坚有
硇砂
炔雌醇
血淋淋
补上
卡西平
白片
CTN#
成癌
眩光
时侯
虚肿
大鼾
呼冷呼
照常
小女儿
肝豆片
出轨
异响
丁三醇
PSA#.##
说肿
水银中毒
五水
高钙血症
拖出来
开切
荮
炎挂科
儿会
高雄
伤处
寒性
想知
蜜月
专业人士
边口
地走动
黄精
芬
实验室
调好节
朱沙星
洛美沙星
小肉团
好辣
戴久
通用
吃片
麻沉
喝白
再治
穿会
美芙宁
GC
怕水
图看
一觉
及子
烈日
抽姻
绿豆稀饭
接电话
克洛对
六十二岁
假肥
风一
类能
怎让
檫
龟裂
sle
免体
快破
术式
胶状
杂整
肿性
即刻
雅漾
胃常
会针
吃兰索
营业
起红诊
新月
岁肠
管癌
参一
两三分钟
釉
今年初
问约
远眺
森林
做直
预知
课室
刺中
MRS
懷上
致困
维肤
豪米
偏大有
散落
说实话
叉
得口
移肠
艾地
胃低
香肠
戴牙套
慢吃
美容师
紧身
验孕棒
液是
家父
璇
拜新同
几把
测纸
后尿口
症有治好
学前
爱得
目葶
过布病
阴颈
褐红色
左额
弓骨
胃壁
濕疹
侵润型
自好
诺扬
十曲
处前
束身
甲古胺
蒿子
食疗方
黄骅
精不
唇边
腳氣病
温阳
慈庵
一个胎
但怀
舒敏
關於雙側
有假
igA
套套
转安酶
周期短
万京红膏
不同点
抠掉
一人位
人际关系
袋鼠
医科
腺泡
增健
弄点
液氨
傷導致
椭圆形
痛風
病外
敏
太近
瘊吗
阴球
黄头
猪脚
航空
完水
联关
小痣
时查
创灼膏
自醒
岬炎
舒张压
看兔
眼眉
熊猫眼
邓蛋
凉飕飕
周唐氏
间距
浸泡
拨
白切
包性
凸疤
贴骨
降血
能改
省钱
fghii
乏
真照
随后
CD
像腺样
胃脘
相通
哭哭
胃严
惊叫
转接
举
常人
视听
苍耳子
裤裆
右腕
癌肿
凯克
两条线
脑桥
精吃点
掉落
文章
武夷路
瘟
头能
会见
脚黑
疫情
麻煩
麟性
六五
石快
下饭
上腔
症脚
及肠化
白包
疲劳感
性该
打打
发些
杯盘
放着不管
两码事
冰袋
襄性度
旺盛
豆流
沙丁胺
北京安贞医院
rh
双肩
能不能够
不大是
ICL
阵
佩带
块速
退下
药拉
类风湿性
多严
杀灭
乙类
有线
卡其
胆码
白癫疯
右漆
LCL
茶能治
忧虑
重湿性
黄氏
用西
卵灵脂
起有
头眩
要记
L##
高过
小剂量
药卖
阳委
如题
ppd
查甲功
生活史
高好
零两月
白水
吃百蕊
药能治疼
毛状白斑
觉着
走行
生儿育女
根儿
會有
舒坦
强脊炎
便水
高龄产妇
说胎
不实
被治好
羊鱼
忘不掉
脚腿手
效应
胸嘛
除后
安恭
测准
渍疡性
一缺
哄
腹围
短段
沾染
误
这一
蛤蚧
不多能
蓬出
多宝
说血热
消极
蛇脂
救急
有会
了腸
冷球白
malb
雨得
笨笨
日夜
邸
辨别出来
却定
粗隆
会升
天氣
节育手术
敷贴
减热
微少
县里
鸭肠
睡托玛琳
退位
天卵
焊工
成都市
睡意
喊叫
五更
看下腺样
偏激
还分
能胎
可的松
唾液腺
实变
米索
氣病
那酸
查得
田
子疼
毛用
走能
mu
缩会
胰尾区
主型
多该
右冠壮
窦炎伴
用调
周一
请个
番茄酱
母瘤
圣病
对奶
痒长
火烧火燎
仪能
咽上
没气
四十多岁
那儿
沉沉的
普妥
莫明其妙
附上
免测
上治
尿屏
平胸
蔬菜汁
从此
汗腺
少白头
三十六岁
伤痕
长痣
皮里
瑞巴派
少见
注音
牙拔
表浅型
肉肿
六百多
hpv#
一块儿
亏
三伏天
多导
捡查
核是
PPT
何首乌
黄尿
滴济
闭上眼
三令
左右眼
云絮影
怎半
出多囊
目眩
孩为
膨突
盐巴
酸盐
完腺样
高糖
会脱
一片空白
前房
大吃
用聚
细微
金乌
面对面
毒血
鞋会
并长
浓团
吃立
几层
纵深
电子线
最号
这件
祥顺
苦有
朝阳医院
阜阳
药越
一闪
多样
环素片
裸脸
上周日
超负荷
早博是
蒸脸
清热解毒
定点
戊肝得
F#F#
有粒
小女
腺垂体
巴雷
很轻
潜能
扩了
请要
癌化
结胸症
奶像
药科
肥肠
我现
逆
块块
被迫
阴径
蒸气
吃凯
叛逆
云体
躺卧
眼百
贺
lag
蹬
膏有
穿掘性
自閉
果断
快时
儿孩
天未见
巧
内側
手麻应
超微
载脂蛋白
格式化
宜阳
霜剂
腰腹部
国欣金
菅凤增
二十九
葛根
天不拉
番禺
过孕
氦氖
最易
能信
老发
越多
强不强
及麟化
胃不痛
公立
大盐
尿蹦症
户外工作
肉苁蓉
这样的话
猪瘦肉
棒奶
下马
打钉
内伤
胶水
健体
基地
吸到
起伏
上牙
酞洛
百分之五
午时茶
隐身
求腺样
蜘蛛网
多半
浦公英
皮检
前男友
小兒
韦格纳
中葯
高血酯
有条
股及
头凉
胡是
患脑
液多
点到
水奶
涂唇
磺酸钠
必达
保密
长小肉
喷门癌
李明泽
伴张
多发病
锻练
疗好
制治
用莫匹
hcvrna
出腺样
巴洛
疗治
解药
凉凉的
爪子
皂洗
溃结
开好
短腿
母爱
in
打胃
阴转阳
RNA
暖巢
热热
帕胺片
周肺
脑力劳动
红绿
##XXXX
侧长
越好
恐病
八两
我該
会腺样
名片
长乐
非奇
烧烫伤
测会
防话
舒心
捶
好困
递增
侧柏叶
or
格列卫
私立
我外
牌益
血崩
颧
局灶节
起好
半做
司丁
电仪
窍
乐脉
漏管
看四
麋烂
桂洲
前三天
双辛
医姐
天需
西瓜汁
消减
市场
菱形
先滴
地板
基线
lVd
怎都
圣洁
恒牙
失代尝期
生植
之疼
該用
饮对
天让
我起
机构
那家治
病厉
豆印
油能
天拉黑
dic
外鼓
汉族
哪间
能输通
nu
超未见
疊
脚老
总痒
优甲乐能
乱用
症應
胸部手术
阿米巴病
金木双
槐角
完年
对朗
具體
结多大
胸翘炎
皮诺欣
条线
看才
痰种
添
验查
西沙
妇
尼克
挑掉
连洗
刘翠
弯处
病原菌
肿肿
百分之二十
绝食
给治好
泰能
脚是
皮上
湿乎乎
不盖
━
右房
康唑会
萘敏维行
亠
科技
越爽
下海
知能
长不起
有别
来自
止胃
不高会
远光
阴血
药迟
每顿饭
紫颠
ANKA
疏
近視
刮除
Fh
塞莎布
踝
回忆
库尔勒市
不洗
黄泡
人瘦
问脑
咬了一口
电脑病
坐卧不安
二代
放射治疗
打下
饱该
左卡尼汀
东莨菪碱
新霉素
氨酸
注册
森田疗法
碳酸镁
庭能治
泰安
边瘫
刀子
有压
带下
突下
痛症
人死
花生酱
替诺福
激活
法尔
管肌性
眼发会
周奶量
腸套
变应
早胸
等离子
大阴
见长
菲尔
软斑
吃瑶柱
加功
畅伴
不用说
滕州市
众生
预检
吃宫
高些
接扎
去口
服安理
浙医二院
osb
混小
裂痛
入食
F#
四合
何医
该禁
药到病除
柠檬茶
用康王
访冶
乙氧苯
照肺
周论
表嫂
→
≥
伤肾
造影术
那裡
蒿
宜忌
万州
病犯
右角
三十三
缺鈣
咽峽炎
指腹
治痛
瑞克
艾坦治
玉叶
發現
重用
往前
东北
四妙
代代相传
申报
长瘤
护肤
马牙
该查
白云山
做颅
动脑
巾
药茶
锥
病种
嘌啉
小白杏
完吊水
法莫替丁
用施
很油
KTV
喝果
利咽
胃康灵
检吗
问看
应去
孔头
肤润
前侧
轻柔
一至
洗衣服
什幺药
约物
深层
性窦性
耳明
结长
阴超单
肝移
安稳
十斤
腹主
角痛
瘦下去
萝卜汤
打个
大龙虾
讓
脱甲
背面
奶前
用酒
电烧
要发
月长
减是
目前为止
吃涝
素法
停血
这起
变该
有卵
用拔
熊猫
rg#
复水
窄
HP###
cA
坠感
算长
脐尿管
吃洋暑
已过
能碎
精管
乏困
头向
既然
mtx
矫正术
炎有治
太阳镜
宿小
调节性
受够了
搽些
有屑
吃防
参雄
胯部
两人
走捷径
小丸子
常州
曲改
胖嘛
公共卫生
东西长
能入
PETCT
拉萨
擦维丁
大肝内
欢乐谷
嘎气
八颗
夹腿会
低氯
发量
爪后
乙丙
天子
用花油
肾区
跟不上
鬼臼毒素
缺牙
吉林市
雷贝
异亮氨酸
我得龙
的确
脉象
吃洋
吃甲泼
上海市
爱宝疗
有患
哪一
怡
炎会癌
孕十
懂吗
右股
安卡性
染完
单亲
它治
疝变
贝尔
派克
怀接
好过
喝去
奶会肠
病看
手里
复檢需
多巴
磨眼
各精
复套
浙江省
人来
趋向
增效
睁开眼睛
金春
路径
一大块
流得
发图
患癌
雄性
少数
始基
生下
左克
一湾
首饰
体操
下用
颈静脉
打不开
腐膜
仅仅只是
完诊
和继发
连拉带
小姑娘
为森
倒地不起
反覆
满意
方颅
芜湖
龙能治好
含漱
效果显著
大盖
算鞘
患旧
图路
最慢
舒普深
重吸收
天欣泰
紫杉醇
余天
乎
胃区
培未
压制住
妇检有
前表性
对半
舒根泰
黄敏
颌面
孕棒测
阳具
胆环管
刚清
伴双侧
最难
防和治
一上午
锦州
去测
退儿
须疮
管漏
害眼
冷球蛋白
痤丸
产会
小房
相传
仃
裂肿
固体
查获
过怕
几十个
看行
仲留
加减
阴痛
应响
班点
没到
频
留后
凉性
食欲不佳
😖
娴
翻出来
滴液
满口
翻上去
破洞
HSV#
孟旦
收压
发雾
腰涨
力性
坐等
枕能
玉丹荣
炎泪
胃及
王丸行
泄肝丸
牙用
有益于
当下
何适
彩照
新西兰
腺樣體
旋涡
颠倒
天王
時候
一醒
脐炎长
吃喉
那块
消疤
远节
急迫
赫赛
少枝
化痰止咳
睡少
股藓久
拒奶
贴片
通乳通
期会
砍
疤药
多谱
征服
半能
症喝
吞没
伴瘤化
用舒敏
阴穴
蛤蜊
神洁能
天喜
几段
氨曲南
胃缩性
白粉
选取
打单
性反应
当年
飞来飞去
联磺片
细是
玩意
應服
psa###
有妙少
泡海
谢姣
上牙槽
满足
嫉妒
波西
长平
粪肠球
出现异常
耳隆
丙稀酸
PH值
真伪
性肌病
沃丽汀
隔袋
軟疣
肺下
手骨
丁能
红核
新乡
酸沉
带能治好
试吃
能冶愈
滳
乐儿
练瑜珈
偏头
一节
牵正
规划
敝
剛
对胎
原主
治下
出白
粪菌
伴毛
蛔虫药
种痒
红处
百分之一百
规则性
手查
手黄
委全
椒
吞食
乙行
病危
拔甲才
移
溢性
排完
恋爱婚姻
优卓尔
应变
粉妍片
轻量
血肉
糠
涌起
早波
几出
肝里
切肠
干部
瞳会
造成危害
感吃
秀丽
呋喃
同龄
药草
从轻
立新
鸭心
流会
疼期
忒
前会查
存水
多卵
露脑
第十一
一喝奶
性鼻
用白
鼻泪
脱失
扩張性
裸眼
吃北芪
可饮
来到
喝金乐
老花眼镜
河
苖
咬得
不队
四型
急进
李向前
后长个
皮宝霜
坦
绿痰
管磨端
点绍子
刚测
应从
利落
怎莫治
修人
奇异果
朋患脑
宗
HxNx
提取物
濮阳
利伐
感覺
生产方式
猪苓
##m
长生
癌症前期
月整
有胧
环取
bv
病涂
做超
灶用
用棒
斑蝥
昆山
我脐炎
累是
伏能
胸镜
皱
一平
橋本甲
东
波浪
生怕
撤掉
活不长
要食
面怕
芬有
孙道
有布病
往里面
帮能行
脚盘
服务
腰护要
电风扇
硧
索洛索
沟槽
理会
千度
有木
种牙
林片
银片
犯该
胸常痛
肝掌
忘不了
完光
远段
发呆
中上
馅儿
洗后
挑出
长水
菂
胰头区
梦想
泡温
多枚
发寒
一倍
低样
多形
心到
孕一深
脂质
后会胎
蚁
留个
会过
阜外
应打
吃普
囊装
特洛
急呀
颠茄
黑是
吐词
果蔬
破流
鸦旦子
寇
坦索罗辛
拍嗝
喉健
升压
能癌
泡沫状
前测
颈前
康乐
没断
细疾
探查
孩儿
RPR#
腮瘤
决明子
丙丁
吊水后
恶心感
额突
花针
铁元
吱吱响
销售
青梅
天没退
岂
油桃
尿淀
界定
小飞燕
乳結平
对气
没要
非专业
缺锌会
结核杆菌
家门口
之間
左八
得长
肚肠
侧复
解磷
感觉得到
瘦点
导服
用滴
新乐市
痛宁
姜枣
冬游
益渭砂
黑条
医术
科么
ml
不染
爱治
弯儿
长厚
做快
数字
香烟
幼童
all
剃刀
极似
烤瓷
裸音
危儿
恍恍惚惚
糖原
心窦性
艾炎
胸压
右丘
打达
癌阴超
舒必利
溜溜
吃代文
鲍温样
十几趟
服七厘散
打丹红
囊瘤
第三阶段
膨
眼涩
曲靖
引向
你点
能撑
乍治
这两项
弊
红金消
问下严
河鱼
酸莱类
口嘛
二伤
票
性膝
魔吉夫
零九个
吃迪巧
能足
不许
伴颈腺
脚肿且
北京天坛医院
见红能
长指
摩
药时
葱油饼
用祥顺
分阶段
奥肯
脂源性
台州
阴带
平癜灵能
柴鱼
层所见
玉泉
临忠前
凯凯
宮頸癌
先吃点
看近
#ml
超级抗原
刚开
洁节
尊
转阳
睡系性
郁郁
左睡
普瑞酮
楔骨
脑中
党
蓝宝石
以便
类人
勿扰
饭粒
碾压
部腹
大兴
右側
抹黑
绿豆芽
川
猜能
提气
岁末
有生
粗隆间
打致
喘鸣
vb#
通极
嵌甲性
足求
工人
尖段
天吃点
吃痹祺
舒缓
性毛
性腔际
处后
胰管
抬不起
管内
耳机
房游
互相
吹成
喷点
五号
排针
半盒
偶会
玻料
頭疼
艾司
常痛
我剑突
周张
什抹药
净石灵
创宁
剩余
胰尾大
胎龄
芝麻油
抹抹
淋母
处酸
肛方
无劲
通痹
惠民
数码
inr
g#pd
us
保手
单腔心
微热
胸挺
蚌埠
澳佳宝
事药
器具
癌长
角能
找点
汉斯
经验丰富
尼西
左腔隙
脚钉
腓侧
手酸胀
#mmx#mm
侨本
次该
浑身上下
怎治好
吃油
打美平
瓜籽
右份腔隙
素治
破碎
纵核
图解
麻卡
畸精症
左枕后
贴足
老尿尿
脑益
喝杂
返院
乐园
失态
xing
于勇
从来不
查清
滴托百士
阻能治好
肿放
漆
康麦斯
博来霉素
阅读
坎顿
毛克
YIJpi
少于
诊问
猛会
快来
脑溢虫
混身
纤
伴腺
有皮
去照
益心
麻完
几多
chishenme
涌
好清
说长
血线
洛丁新
脚会酸
集水
卵元孔
气冷
有消
发挥作用
高厚
亮点
不针
上页
吃佳乐定
肝胆胰
马胞
就是说
蚬壳
优甲乐后
素能
庸医
三十年
手要
血籽
华素
华联
提不上
甲囊灵
老漫肢
儿素
是髓性
对慢
出双
部份
道口
伤该
早衰现象
必妥
脚骨
把手
氟尿嘧啶
起小红
氯少
丁文周
针草能
要全
右四
素可
男病
沉渣
肚上
打耳眼
β
片利
食多音
经有
车前草
氧要
带得压
大月
诺佛
保得住
指甲刀
肌萎缩
主题
吃臣
型会
CRP
闌尾炎
引致
部能
春夏
树
白扁豆
繁琐
烧痒
节节
会溃
后收
面筋
良多
阿昔伟洛
更成
几童
很久没
韩式
####cm
出内
自控力
英行
服用量
脓放
面都
不尿痛
闷喘
健力宝
血循环
嘴会
黄道
生小
起一
孩子气
定志丸
康能
项能
紫肿
受体
露白
防再
胆缩
洋酒
爱犯
考前
虚热
胶丸
揭掉
根能
天末次
会晚
五十多
hi
不太有
单桂敏
病治
可保胆
转科
蛇利草
天时
比比
NSAID
单及
画
想尿尿怕
点好
会什
性烟峡炎
yi
钳平
TcT
免
全停
海虾
男同性恋
次后
偏偏
涕血
吃朗致
甘蓝
葵宁
还拉血
搞清楚
气少排
藤席
马齿
药上
横径
鹰眼
并尿漏
伤肺
慢前
臭有
补体
黄丹
会灼心
排肠毒
昆明市
洽
三顿
抓烂
tctp
牛心
奔波
同食会
解不出
佳儿
枫斗
知疗
黄金搭档
首
帽子
左氧复
参汤
全过程
治以
恰
上测
肛脱露
棕
镰后
嘚
哪去
煮菜
要造
薄会
伴斑
发稀发
堡
康唑片
港
结病
变短
吃尼美舒
加钟
反跳期
面糊糊
菲薄
突然性
独特
污
作好
hRV
肿眼肿
水脚
冼
受虐狂
野花
Hsv
运动过度
多尿会
做囗咽癌
蓝消
米黄色
潮
同硬
立克
顺钟
神针
衰败
栓会
血彩
握手
症朱
须查
内分
普通纸
喝防
披肩
捎
走时
汤剂
杨其伟
衰落
擦些
眼边
多周
淡变
瑟
新华
于脑
光有
吃好饭
说隐
男风
托动会
多囊加
泄
内生性
详聊
几道
能夜
下侧
肾切
配硬形
批号
四十五天
手址
安眠
前途
石鹏
带勒着
二头肌
有癌
xp##.#
耐结
再天
红米素
膏前
压根
四十年
右尺
蘋鸟
吃斗
价钱
歌
明怀
及脚
冷腿
快得
体旁腔隙
胃里会
碗长
想扣
背筋
润
好药治
看裁
刅
出痘
心中
现孕
靠手
月酐
拓骨
突疼
全靠
绳子
什肺
吇
肌和梨状
核算
临床经验
喝菲纳雄胺
人员
大不哭
传染科
脚因
影双
一高
有印
偏薄
焦症
天使
难性
还生
反正
银尔舒
看灯
隔完
昨天上午
链接
滕药
过生
扩养
比星会
里念
不伤
性欲强
刚拔
砂锅
芫荽
困觉
烧肉
超短波
呋喃西林
会影
囊带
龈
stt
能达
O.#
青大
寒天
高氧
病想
沃丽
菌血症
流浸片
末稍
来曲唑
包一
低高
脚轻
转眼
片怕
桑黄
处起
根紧
缝合处
卡过
长实
服拜
灯盏
阶性
太子参
针种
责怪
伴肠生
粽
穈
后纸
疼擦
物是
肥肿
优秀
>
滕能
片比
药伤
juc
氏症
蛇床子
希米
生急疹
五官
茶叶蛋
有话
磨刀
放枝架
度升
声嘶
同吃会
尤用
左氧氟星沙
缴痛
海洋
湿肺
忽闪
期已
大者
甘诺宝力
臧
地址
綜合症
溃破后
计
扁细
同齡
性瘤
饸
坠物
屈光度
变左下
能流开
蜂蛹
瑞安市
牛油
打亮
偏高会
血豆腐
停要
nf#
我甲减
睡着觉
西想
限制型
砂
合用
经痛
十三根
能注
穿山龙
胖想
发烧时
过奶
碰疼
这用
四到
发下
停诊
长久性
热退疹
海豚音
開紅紅
换掉
如初
医源性
甜品
紫珠
硬邦邦的
用得着
余沥
困是
铋
代皮
下长个
没拉
在校
止泄颗
太勤
很忙
腎虛
肉馅
喝西梅
张肉
能定
伴麟状
弯腿
是样
该涂
咯咯
时不太
开发区
口行
哈有
如怀
人名医院
低属
调味品
想太多
感知
小产
鸡叫
营养元素
急躁
翻滚
不确定性
下蛋
透气
普艾斯
自主神经
Oct
胄
喝补
子长
腱质性
心隔
六七天
晒查
谢谢你们
能吃蚓
纹美
说明会
磨破
安灵
小红块
特殊性
窦房结
指间
超测
残端
液输
小颗
不缺
球面镜
低化
hpv######
客户
哈密瓜
难肿
环用
恐懼
封闭疗法
血壁瘤
奥诗蒂妮
反是
真空
前奏
针一
苏黄
淋病菌
完牙后
咸痰
这道题
樣
患跖疣
项刚查
腰背痛
两面
太轻
手边
拆开
脂维
要冶疗
提前准备
维参
液下
广济
欧淇贝康
八十
豆沙月饼
矿散
有症
起博
眼长
打麻腮风
有物
食气
百尤欣
冲到
蒙牛
亲爱
炎嘛
不拉
搞定
王不和能
拍摄
平均寿命
脑损
树枝状
天血
尺侧
工厂
小动作
那条
肺伴
瑞坦
拨弄
HpV
芥菜
讨速
参蛇
固醇
斑痣
博力
中危
六片
缺锌铁
酸酸
干酪
脱洛
左部
年老
远红外线
性鳞状
象皮
挂水会
滴注
私护
症用些
足下
阿洛
黄班
脓涕
要分
感音性
虾米
黄绿
周定
吃鹅血
尽可能
剪到
按下
没割
缝长
停停看
LOA
窝里
十是
漏检
靡烂
越多越
走神
一想
引成
用玉
慢严
逸疫能
加肩
bm
吃玉
手腕子
一趟
淌汗
坐立不安
Dvt
康安
侧脸
中靡
宗合症
lgg###.#
我弱
收集
恶便成
窦炎额
资深
WVB
闲着
淋必治
调敷
土元
黄热酒
苍白球
闹供
扩展性
中区性
皮外瘤
骨粉
达克
抬重
样本
#qh
主见
寶寶細菌
焖
干热
辣菜
教
以经动
T#N#M#G#
断掌
重先
保肢
錢
公安
先照
酒泉市
一拱
四五十岁
步入
齿状
乳状
脑仁疼
有凡险
吃伐
胸窝
神经末梢
NP
该拿点
抖会
IGg
事谊
老小
葱花
无殊
tbs
有睑
贵州省
特护
长得慢
CT.##
更强
直招
弽
耶
加多宝
疝伴
喝铁元
昨治
敷蒜
做慢
奶得
鲨克
骚庠
后血钾
乳菱
治去
青草
十么样
断掉
交出
肚挤
mm#.#
液用
长期性
仇
一触即发
脚一
黄豆粒
超差
碧欠
上瘾
骨该
B#B#
格华止
神机
潦草
葱姜
牛仔裤
為
吃海鮮
苏醒过来
我囗臭
分几总
能吃息
查甲流
瘪
尖足
癌该
考酚
老不疼
寒有
十一点
安全措施
HP#
须花
中身
影子
esd
沥青
条物
通肠
有血池
Hcg#####
中日友好医院
未见明
進行
超敏反应
症加
一品
吸石术
针反
症和弱
帽
爱父
脉波
夹管
沟有
蔬通
很凉
波及
衍生
肺关
打什针
加典
簸
湛江
太儿
查尿有
推注
戴子扬
基质
排么
精病
丧命
有侧
明火
六位
撤药
微癌
經會
害死
套餐
石方
重拳
提不高
叽叽
直立
奥单平
De
郑氏
稀稀
来源于
IgG##.#
射进
直性
奶给
脸生
全职
蓝痣
能个
列举
丙瑞林
喝冰
流多
尿滴
胃泰
没缝
自慰器
五回
罗盖全
耐德
还治
静若
吸收率
快去
复旦
六样
掉牙
髓样
套破
红片
炎鼻
肉变
小些
新车
他用
制人
腌制品
游
打的好
趴皮
周餐
残膜
会进
兩边
四十七
婆姐家
未闲
项是
店里
宫炎
挖针
口酸
安国
马英龙
蹲脑
乳酸杆菌
三生
帮别人
过敏史
v#t
脚冻
华莱士
总反
每早
七厘散
里侧
憋着
数百
变长
天男宝
海藻
mv
完右
Barrett
心大
上涌
乳蛾
药如
流產
线会
鲶鱼
泄血
玻酸美托
花掉
涂涂
咳嗽病
周要
变蛋
牙龈增生
会通
肉用
虚脱
压回去
吸沙丁胺
变疼
药调
锐
复膜
总拉肚
倆
征兵
好几回
溢水
吃苦
发张
矾
输暖管
癌放
进厂
吃峰
诊状
乙性
瘤术
补卢能
属性
大微
用治氧机
出泡
羊癫疯
咱冶
手会肿
非委缩
花眼
参连
不随
m#eo
公婆
手压
深褐色
美唑
提物
何卫害
太瘦会
图应
牙一疼
生么
呻吟
黄岛
定皮要
胃慌
全科
睏
鸡头
可次
正前方
寒热
下药
输些
前沿
kcd#
振荡
豪米用
莨菪
多虑
四节
会酸胀
阿德福
国内外
衡量
附肠
尿湿
意志
溺
HE#
混血
爱儿加
刺络
AB#
脏器
射会
多深
湾
有误
处擦
纤细
川百
填错
布丁
核扩散
灶伴
导联
竇性
红颜色
躲
双贤
一出
想太多会
PD#
爸事
来后
加林
棉棒
生抽
切牙
胃漏
员过
骨间
卵细胞
火炉子
净能
后吃些
根探痛
图有
性后
清火
嗑
双虚
积气加
听过
肌酶
替格瑞洛
国际
体乏
会胃
药得
吃大补
小葫娃
后断
治巾
rna
几顿
形態
火眼
暴晒
背脊
hpvDNA
单帮
莓菌
厌学
不吹全
抹护
巴中
八味
左慈丸
性疲劳
咖来
蝉鸣
门前
不散
贝贝
口风
😥
消的慢
廦
平术
dbs
PT
期中
周四
比奈芬
晚一到
传播方式
网上医院
入脸
抓狂
包埋
有验
吃琴
红彤彤
红白
对治
头朝下
桦树
血融算
一千
赛普
摸到
幷
天未醒
球会
淋性
洗牙咽
醒酒
忘性
四十度
替孝拉宁
灌洗
咳用
右宫角
药靠
软该
拉沫
时哇成
部下
海螺
喝易
葡菌
醇片
见红后
踢毽子
窝窝
卖鸡
零月
筛准
会导制
L#L#
红脓奶
汤臣
后疑
副睾
有红肉
黄灿
PCI
后右房
震震
左卡尼丁
肺门处
怎眼
扁豆
磨疼
舅舅家
有疮面
二十五年
入侵
tg
唬
验单
针先
剛起
出个
时护
肺心症
#A#
风波
返
吃钙维
輕微
过不去
保首
稀如水
肛超
波拉
加啡
后吐咽
喝球兰
绥棱
偏小是
腓后
只出
药先
簿
饮水机
六十几岁
甲基化
憋尿會
及肠
吃拉贝
性毒疹
球下
连包
别来
那定片
AB
药预
周才
用小珍
血氧
癌刚
预定
米沙坦
上台
性骨
体温表
毒是
血会流
该嚓
导入期
玩水
妥会
晕迷
zmzl
白豆
冒痘
圹
吃错药
长多高
用包
流快
疮会
灵酊
NaN
胃样
好几家
左氧氟好
留针
五根
躯干
期严
厚壁
探及
衰
你治
排管
血磷高
邻家
红黄色
科帮
措失
配低
泮立
清凉油
隨發燒
胃窟
钾过
药可冶
天腹
好胀
萌
还治得
凸凸
用维胺
水上
粗香
张玑晴神
爱饿
病检后
嘴吐
卡是
膑
需耍
钱前
家务活
版
时时
胸水为
唷
乳线
迈之灵片
哪盒
会太会
伴低
冰王肤
癌大
包头
E##
背对
保制
先后
大腦
我姥得
㖡
病难
新会
精确
鸡婆
回头
评上
谈多
内上
忕
引诱
太厚
有漫性
不来量
然发
做锥切
性命
K
有血会
用脏
發張
有小块
喝德运
对育
药才治根
发过
回纹型
怎以
第一份
艾洛松
去北
吃书会
盐会
厉
乌龙茶
按次
发吐
胎泡
心蛋
igg###
金振
贯通
乙壮
陪点
不高生
三五天
恢愎后
新家
双宫
障该
性样
斯奇康
强碱
粘稠度
肺及
梗咽
#O#
偏轴
不大要
老困
胃好
磋
肺会
戒断
吃护
活菲草
怀得
低该
親腦
时分
能患
处多
问到
腭咽闭合
姨姨得
脑神
交流会
刺猴
离着
手痛会
化费
水秀会
完头
我试
攻克
活胎
特疼
临床用
退休职工
防备
敷着
pdd
无损伤
唾液酸酶
宫寒女
成能
装假
局澡性
致残
破法
暗色
赶快
変
妙药
化胧性
邢台
身孕
功能主治
挨揍
滋补
有多厚
床要
手冷
心窦炎
良
可需
次孕
洞会
吃护彤
做皮
妇幼医院
馄饨面
立普刀
门旁
我资
蓝族洁康
简便
八十六
骨痂
全麦
指多大
排异
阿普唑仑
药消
怂
糖醋排骨
离家出走
腊黄
按痛
炎点
那敏片
万恶
吃虎力
热毒
男同志
肿节风
襄阳
食量
功能区
左膑
颠痫
报考
凹凸感
概括
我吸
重隔
凉水澡
特快
接出
扶理
li
付爱宝
期多
拳峰
杭州市
固化剂
碰猫会
不医会
坏话
根诒
变强
零岁
转针
角皮症
转正
独参汤
西洋
成水状
脸皮
喝板
冬菇
精能治
医才
支杂
哪期
RMB
对照表
胃散
提眉
医开
虚火
小人
补维
COPD
惠有
泼酒
耳尖
分假
甜甜的
金璞
雪糖
咖啡因
作疼
fish
挂靠
韦要
膝部
張会
左股
看晚
藥療程
粉底液
耳炎
炎阴超
倾泻
塮
后新长
焦急
吃别
起水豆
红案
阴雨
爆痘
肚皮舞
臍
萨其马
amh
痛已
后外
牙松断
奶能
姜粉
占武
多半年
漂浮物
额面
服肠润
蝼蛄
旁长个
过泮水
血源
舒肝
可一
难安
奶酪
弹
喜普妙
钛合金
禾
打咯
放多高
太好
唇癌
罗锅
加有肠
斜肩
坠入
变宽
片降
脸盲
背带
皇冠
影片
阿尔法
材质
口眼
全裸
心理学
资费
炸鸡腿
粽和肉
烧纸
实物
思连康
双解
定喘片
好苦
磁控
痛經
平消片
周刚
avp
pet
抗反
养颜片
中信
回疹
孕激素
晨轻
烧火
㽖
酒量
肺结
支近
果条
流病
老拉
李晓光
优郁症
早破伴
难得
救护
叶小肺
硝酸甘油
焑
吃弥可宝
磨烂
肝药
飞症
药胃
镶
插线
融栓
优乐甲
某个
盆浴
挨打
十颗
后坐
癌现
尿多会
坚消片
马尔尼菲青
SSG
女宝甲流
患类
H##
格雷多
急疹期
有会动
肺氣腫
高中低
型弱
虾导
腰到
草鱼
当事
铜川市
玉米面
开发性
小粉
治沂疗
我涂
项背
羽绒服
烂积
素有
斯密
存有
和护
只留
步态
何实
挺痒
泸州市
阴经癌
傻傻的
無高血壓
上曼
白花蛇
患人
停搏
需多
一弯腿
整牙
病冲
加心
平常人
三六妇
艾蒿
水代
昏昏
俞娟
下人会
能治牙
肺多索
带药生
罗沙
衍宗
就生
尸体
烧煤
打骨
血后
长径
胸科
爱活
土司面包
腿威
会代
若得
脚内
血清蛋白
代孕
六千多
活率
宫角略
八小时
药利
吸血虫
开使
往回
安分
该生
对饮
还拉冻
比林
zhengz
亳州
hc#
门声
试下
它长
规
大臂
再度
核感
师排
肿脚肿
用迪维霜
出大汗
助眠
化性
擦音
肥胖者
狂想
近似
抗艾要
涂脸
吃兰释
舟
大能治好
正真
求赐
檢項
劳烦
曲克芦
打屁股
神奇
忍住
炮仗
参芪
美去
整形科
定悸
赛瑞
伸舌
许多年
吃滴
网站
发错
养家
动红
蛋皮
整段
土话
老往
终末期
小盆友
横断
黑龙江
隔澡
病抗
好几颗
fanh
苯巴比妥
结扎术
囊内
腳裂
五百多
述
糠尿病
肺模
某
臀上
末段
柱
银宵病
软硬
出红子子
鹿肉
性胸
已换病
颠痢
冷汉
再输
福建省
湿罗音
有事没事
泰利必
发涩
割开
寸
韩国
手纸
化肝
超影能
咳一
下周
肠绒毛
顶胃
很会溢奶
周患
射线
氯铵
二便
油菜花
甜玉米
解毒丸
拖动
海门
自然风
气不脐能
办毒
累犯
死鸡
太虚
烧有
周吃
干干
说期
烧菜
後還
浓饱
肩颈筋
后滴度
患热
搂
旺仔
没多大
倒闭
脸峡
唤醒
租房
缺碘会
查下
通管
皮肉
关能
聊一聊
有意
八九岁
托举
短路
管时
应点
七里
HiV
多指
急救法
耵
预防性
瑞松痒
摸过
阿卑斯林
小茴香
闷塞感
显点
帮给
咳束
屁
电磁波
倒吸
北京宣武医院
iii
反不动
浸入
氯苯
肺见
TPPA
浓硫酸
钳甲
翅
我想测
阿士匹林
腊月
塞查
狀
支和慢
妇全
消遥
皮夹
沾酒
坐小月子
拍头
软件
颇
过样
尽块
腰才
爽肤水
长软
三十二岁
髌下
管断
IMG#
音响
下视
打三氧针
酒会
酵母
三只
和躁
便少
米星
撞倒
转奶
冲能
nse
菌类
难吃
肱
HU
天胃
伴麟化
什叫
难拔
九华
天起
涂碘伏
笋
双红提
处出
生活用品
灯笼
牙不疼
打尿
千里光
飲食
熟地
言重
预发
沙井
居中
十二月
手述
孕症
陷入
黏糊
癌有何
服可达龙
报告书
rvigg
牦牛
超来
化除
拖安
#x##mm
汇仁
左距
比重
垂足
吃惠菲宁
叶煮
扇动
会时
无尽
一脚
图字
未封
左肩袖
十九个
不美
擦长
冬游后
亚基
胸小
爱爱会
热心
浓泡
这得
用泄血
人人
好久不见
器械
不闹
张个
去验
伊可新会
羊血
卤鸭
真实性
圈会
血脓
看珍
青块
磷高
波生坦
下肝内
能灸
凯妮
会小会
溶洞
hPv
药可止
应选
血不多
事顼
治污
以症
指缝
营养价值
口裂
#ag#
皴裂
错服
LCT
生物学
拿手
胗
不动步
患缛疮
打滚
看脐炎
指指
黄那敏
吃辣会
张嘴说话
内衣裤
免疫抑制
我结
感么
佑
脱拐
鼻渊痛
似痛
股会
今年年初
第三张
右图
回收
桉柠
发菜
遗憾
胃康
嘌
磨莫匹
误工费
一万
kpa
环丙
补亏气
腰段
出玩
黄白色
喝托
掌侧
张器
索影
完好
线形
年紀
赶上
社么
两协疼
做地
对娃
在乎
猜想
折线
丰台
肌体
HCG####
平躺着
球炎会
危会
吸烟者
住院医生
肝曲
关吊水
湿是
阿司
好手
也许
周痒
破例
裸花
总吐
三针
深置
正患
静坐
适形
烟头
比智高
宁吃后
甚者
快成
运动感
左鼻
及早
吃洛索
通没通
保了
红泡
看诊
Gigo#
光喝
心胀
喉結
胸带
欠均
服降
折断
功臣
能手
过百
卡波
很多很多
半多
酸会
怎养
空囊外
有子
金丝
刺血拔
肤宝
改吃点
盆炎
达到最佳
加点
波菜
红毛丹
眼环前
满嘴都是
繁多
不掉
葵扇
二十多
据
湿犹是
长肿
水有
按通
掉入
庙里
盛
胃造
紧箍感会
做开
阴劲
性保健品
药痛
肺能治
肤舒
老多
教受
原倍
制品
腎痛
初产
热水管
扯住
天站
元气
起降
最痒
木对
用舒安
急剧
有敦
吃莓
疼觉
病伤
根治性
看女
指症
截癱
受壓
软绵绵
奥沙利

菌水
显现出来
核型
天空
二個
x.##
吃天
后忌些
zhuy
二性
对兵
食食查
有主
药亮
我接
维生素缺
脚太臭
后解
刮伤
院流
梨状
通顺
一下下
经久
老出
男口
淋状
初得
洗不掉
北亭
样儿
口诀
加肝内
屌
血脂康
肛癌
谁知
时去
洗鼻后
学位
辛夷
治预
射不出
沉迷于
外途
窝底
断层
档案
栓好
管口
豆腐干
#S
腹空
浓血
小白花
性情
漾奶
药类
多约
偏厚
晕菜
屑
红霉
见水
涨个
化使
曲菌
森茶
不開
外像
烧碱
银耳汤
打了个
还裂
第六根
有响
肉丸
后放
脚酸有
做骶管
当得
牙源性
先拍
支气
生痢头
手印
因找
鲍曼
最最
氨卡
胆襄炎
要试
较差
雅士利
在手
唊
巧囊会
因片
药包
三嗪
尿尿发
一大早
穿太多
微笑
囊状
能味
干草
内握
疼会来
窝觉
顺势
一万左右
后皮
竖横
高人
甲紫
尿尿拉血
就活
能近
贝复
牵到
闷想
二十一天
从右往
肛窦
思考问题
喝急支
拇
火星子
线条
刚哥
能克服
隐影
伴钙
吹到
利停
灵栓
适今
抗心粼脂
幽室
挂过
磁石
碰不痒
辛伐他汀
无趣
刚周
黑红
江边
气门
肋疼
云粥
测体温
管好
锡林浩特
中年男子
水剂
马刀
勉强
有危
气冲
IIa
結
不手
遗漏
变平
好晚
##CM
伏行
砸伤
海水
反流束
巢之安
apv##
稀是
缺点
用五妙
但囊壁
延安
開始長
性瘾
一跤
肺底
##mmX#mm
减毒灭
性腸炎
汤要
神效
溃口
发现异常
天帮
W
酣
内管
rpr
上天
实
闹人
体循环
彻彻底底
合子
吃服
正枕后
次行
抗休克
胶股
常识
药会伤
双清
苯二氮卓
血和尿能
枣花
不會成
咳粒
能用些
超表
心耳
外股
自珍
cuo
十五号
血多
用卡波姆
次应
这弱
h##
年尿大
多去
黏是
看医
病退
连续性
妇女儿童
时刻
上生
看起
焦距
二十四五岁
出屋
释清
总股
探察
红算
反气
冶能治好
吃兰索拉挫
郭宸宾
胶布
回盲
轻易
此时
清液
作爱
迫害
給
嫩皮
打百破
為子
百分之八
立普
小粒
草能
加衡
怎一腺样
易发
儿保
游乐园
会累
排线
尿色
过肠
挂钩
后冶愈
服水
呛着
有腔隙
张斑
失速
样病
雾里
早些
服头
手震
盆骨痛
天鸡
盐津
康肤
拉到子
手碗
丁酸
艺状
劣质
弥漫型
壁上
一早
已基
实体
山核桃树
过甲抗
冒泡泡
吃待
卉
说头
递
脑下垂体
快乐
药胸
广安门
极低
双面
張嘴
发达
吃欣
心烧
发条
个科
事会
结灶
治给治
痪
anti
布片
吞气症
完电
刚怀
留置
再次发生
浅印
摘坏
常腿痛
城泡
粉剂
模模糊糊
意義
乌市
无关
逗长
忍着
沙利度
长春市
发完
逗逗
厨师
溶肠片
鸡排
无肌性
气源
说主
韦他
拉肚产气
余况
一场
补血针
奇形
常鹏
应服些
板票
胎死腹中
非罗齐
口述
用土
脫垂
流浓是
农和能
有得治好
周算
箭头
問醫生
导物感
曼秀雷敦
倒霉
问能
腺状
益阳
胶炖
乌洛托品
半规管
可口可乐
后退
杀鱼
特痛
王敏忠
后会会
安全感
疥虫
第三条
出侧
专看
性炎伴
湖热
孕产妇
线衣
膏后
看甲功
岛叶
保列治要
脸前
蹲厕所
多生牙要
肝吸虫
杈
手麻到
复星
天血项
考品
上节育环
出疱
伊尔
癖康
片治得
伤身
这部分
打疏
对位
半颗
刚看
不妥
欧凸
黄焖
盆不称
观
有毒气体
门内
想割
慢病
高分
上消
脱台
珍妍
皮拉
外排
要明
母片
疫区
拉得
位片
地诺
无穷
偏侧
阳会
强阳会
部进
卑
这疤
踢翻
血厚
湿内
籽粉
营养师
特非
左氧氟杀
会难
二三次
气算
心区
夏草
斯皮仁诺
性刺激
知足
阵子
瘊是
醒侧
对声
做爱做
迷烂型
喙
毀容
试水
脸瘫
缺和室
能为持
加甲
朝下
补到
庖疹
第三种
用抗
举出
暮重
人脚
就胀
即食
ROA
支氣
伤愈
之三
职有
s##
刚回来
硬皮
丈
宮癌
依替
离远
抬平
司法鉴定
我面
药好治
痰刻
能确
低流
芝士
十公分
大减
胰汤
感深
选惠氏
梨儿
心膜
跳跳
哈乐要
症拍
会觉
辣椒酱
中合
懵懵
植物蛋白
后劲
败皿
声透差
斜眼
有產
石柱
欧脉
心火
威逼
患奶
坚质
柄
柏树
药可医
查为
mect
不紧
先涨
没泡
麻脚
药摸
模样
降脂药
蒎
低点
两截
后能服
气息
教指
癌气
未下
科目
重启
吃菌
消化吸收
甲減
结黄痂
捣碎
嘟嘴
双绿
悬液
苋菜
黄沫沫
鼻加
鼓泡
行腿
支要
隋
西淋
吃坤泰
手术台
能倍
软镜
过关
种高危
高扎
越积越
图像
出站
取食
工序
布勒
恋父
清蒸鱼
一咳
发鸣
CD##
终于
能治功
开气
大补
坦净
文中
赶趟
地形图
斑点状
剪头发
脂片
TCH
N#n#
拌肠
胞类
疙疙瘩瘩
植油
德脐
郁热
取得
压疮
打斯奇康
他伟
阴阴
人事
农后
敖
疯狂
涨麻
吃克林
卓青
考率
起來
喉下
带摩泡
找下
脑磁图
达后
甲酸
AM
没流
梗治嘛
充饥
劣骨
能不痒
脚步
腹超
逍遥
算风热
霉烂
欧吐
并膜部
我流
下脑
没音
domain
心会
门特能
前犯
角型
大烟
直角
详情
进不了
火苗
用温
后肠鸣
吃炎
红热
乙形
生物制药
ASC
扑
出头
效价
左膝胫侧
散利痛
伴实变
突部
分叶核
LEEP
易感性
喯
ssss
商
安微
不对称性
对抗
时头会
小手
癌女
黑骨藤
脚好
痕
脸好
性皮
手轻
有白块
军检时
內消
几步
可知
诺如
肚能
内拿舒
發作
期低
会得脑
喝土
∞
韦酯
紫根草
病中
利与弊
电火花
比较突出
TPA
疑浅
助骨
加茛
金线
ib#
禁声
阿尔发
開放性
閉經
女会
T#a
过花
冈上
基本常识
叮片加
好顺
密密麻麻
胆子
用三金片
一年级
有发
奥斯
刚来
总出
典酮
捞
好晕
普济
很久以前
周因
尖长
已到
碇
肾略
吃块
椅子
喝马卡
东想
终
到哪去
药致
谱系
赛可瑞会
嘤
消毒液
天重
催奶
氢
利普
鸡能
退肿
待产
肺血
卡莫
张肠镜
激化
終身服
籽油
鸣
五年级
小有點
聚氨酯
stavf
吃华法林
会晕
抓握
拉沫拉
柴银
天反
留黄
上告
网瘾
一坨
买家
肾造
腫瘤
先动
头型
六百
冷天
栓用
铅含量
外痒
姨表
#mm#X#mm
吓住
比目鱼
蒙城
亚砷酸
性桨
逗印
小牛
手举
宁好
共同性
prl###
p#
排双
香兰素
吹头
上浮
乌药
喷鼻剂
胸腺肽
酸涩
捷
突么
治带
波利特
胆切
疗状
第三根
採用
徐州市
巨块
用蜂密
实热
拉拉
奥严平
癌早
杂么办
收好
为膜性
凸是
麦菜
五十七
查觉
粘接
急时
后涂
鞭膏
咳黄
等待时间
须知
小跑
特能
RR
十九岁
二军
可怜
冰片
万艾克
特急
没代
双拐
飘浮
k
木薯
有强
颈心
宝丽
西米露
拉网
法氏
宝马
用倍
患测
撕心裂肺
肝胃
灵行
利假
即墨
希纳
男慢
治咳嗽
完纤
埃
吻会
结了婚
肠叠套
东营
士官
蛔虫
疼点
厂病
四十二
黄脓状
资质
管膜
昨做
珍爱
过轻
DPM
nbsp
国药准字
腕尺
黑曲霉
火泡
打风
苦水
溶能治慢
侧枝
水笋
耳疼
蚕半
毒死
舒柠
椰汁
芯片
十四万
爹爹
退疹
心理健康
抠破
抽查
用妍儿
水喝
噪子
疏风
病经鹿
发疹子
淋巴液
三氧自血
阴肿
要测
量子检测
浅色
当成
廯
刮治
酒糟
間盤
长起
听闻
解了
痉上
心内膜
症右
玻混
会用
碰破
缩进
##w#d
变现
药放好
任性
会落
还易
司匹林肠
腦腫瘤
管旁
竇炎
滑胎
会能
血气
分用
医学界
九州
词
问鞘
用氢醌
葵花子
半支莲
花草
周胎头
樱桃红
静态
维甲酸
音有
胆嚷
获取
巴雷氏
带回家
昏沉沉
绸
跟生
治防
用七草
感能
一宫角
#b#
一点儿
有右
玉米糊
桃吃
显微镜
弥凝
完照影
有小圆洞
不内
帖子
快生了
精对弱
脑卢
钱会
发法
結扎
拷贝数
却是
期有治
会拉不出
喝亲
偷
无忧
黄肤乐
羽毛
透支
千微线
消容
新养
石牙
视神
壮况
玩上
尽全力
就测
为病
脸凉
束后
鉴别方法
没上
色菌性
化学物质
一丝丝
弹开
石灰石
年半前

珠芽
黄脓色
包该
恶型
算病
右位
四百多
雙側
平昌县
水仙
低弱
壮态
第几个
什儿
疼苦
尺子
失缺
男鞘
假阳
雨婷能
牙松
天开
弹丸
孕宝
可泰舒有
肾骨片
感兴趣
痛老
还来
有磨
男女比例
即慢
负面影响
嵌顿性
达倍
头昏目眩
菪
空军医院
仪征
时隐
残缺
统一
何以
文字
咳牙
六盘水市
风石
条体
公厕
七珍丹
鸡毛
地沟油
黄粘有
偷停
贴治
反比
却说
分母
三位
幾天
宝刚
七斤
肿迈
打水光针
德众
情趣
清温
凭脑
冲水
顺峰
姓
博动
年糕
冐
汉方
养狗会
六颗
绍兴
溠
郑大五
心供
会损
那家能
细茵
会口
白血
稍厚
脖肿
常犯
委屈
氯倍
偏曲成
变型
暖手
脂肠
刚转
会能生
周可
潜状期
差评
症见
##x#.#
咳到
干月
摸维
阴骚
大使
兰
PE#
自喻
大黑
人身
漏口
洗才
亮丙瑞林
机动车
肌壁间
开调
控释
鹅口
毛绒
克亏
肝子
腦病
兰根
节疼
喹诺酮
穴处
哼
激素类
豆油
参饮
变笨
慢支气
∽
三十二
白边
想顺
谁能给
空白
脾肾
体格检查
做查
通夜
心痹
要孩
揉捏
地西
乳交
脐肠
闺蜜
薄取
早闭
吊会
衹
超照
问哈喝
燙
无症
癫娴
手眼
松龄
杂粮
多样性
红丝
三四十
小硬豆
小鸭子
放线菌
多油
Ipv
###cm.##
痒前
血滤
便时
鸡得
总苷
眼俭
律窦
喝海
猜测
睡不深
扣扣
ICD
有祝
打得防
往胸
排大
＝
真均
点半想
线中
沭
肺天
触碰有
热炕
拍奶
骚味
救援队
烙印
带行
氧好
提睾
理赔
喝大
校医院
复建
周全
斗眼
林巴
倍林达
不拉下
杜仲
嗔
胡说八道
发怒
覆膜
腿肚
一后
收紧
行军
长着
耳堵
这阵子
你会治
甲素片
摔头
这月
罗西
或者说
治疗剂
后胆
局嘛
西黄丸
雷公
炒肉
眼晴痛
飘动
早量
看图会
喝出
志贺氏
金针
非法
残废
已达
色台
我觉
得弱
样胃
下功
n#n#
血通能
纤体
亚级性
眉心
瘀方
樟脑丸
接上
威害
六点
氮平片
面能
食痿
用胺
发要
起皱
润肤霜
水煮
手热脚
男会
转圈
精药
現在
人病发
矩阵
长多大要
第一餐
保护性
偷偷
烦闷
烦劳
绷
肾粉
祛瘀
陈年
抽几
打压
后红
沟出
线索
百部
味儿
带尿袋
有血点
麸皮
神经细胞
粘过
伱
环酸片
仰郁症
赶
治深
菌片
第十七
癌治得
盒子
从出
往后仰
甫
希维力
得输
正面
卡培
白且
难题
韩姣
坐轮椅
腹瀉
酒有
闪
这话
小心眼
跨中后
什麼样
变深
两口
二者
休重
徐长卿
法乐
小月
铁西
烧膛
左流
叮片
先长
鳞性
细有
难救
足球比赛
二姨
骨伽
尿贫
草能治
黏痰
药长
法律
比内
吃微
算硬
人性
中医师
用思
赃物
反响
昏眩
回乳
触碰生
头疼脑热
偏早
拥抱
保建品
多叶
看得懂
宁乡
移线炎
回娘家
色黄
致疗
吃富
欠清
完脐
嗅沟
聂合性
调药
炎打
下会痛
共饮
吞痰
泥砂
鼻管
性液
太阳光
嘟
用宁泌泰
紧想
如今
星期四
ABL#
胫前
疗效显著
听听
呼哧呼哧
粮尿病
因為
有食
已造
暗处
陰
浓黄
黄辣丁
丁香花
希刻
重吃
放花
清链
稀少
考昔片
兴隆
频谱仪
右方
埃美丁
紫苏叶
信阳市
伴灶性
极高危
icU
白后
植牙护牙
脉血康
隔瘤
打以
忽好
奶味
朗格
时尚
红菇
la#
心形
霜会
什心药
平静
缝疼
严宁
脸手
画圈
一串
川沙
祘
靠着
手术室
竹
吾
要痛
孕应
切不切
区小片
次宫
云克
癌有术
没成
抽子
调忘
监定
求会
cin#hpv
过子
卤米
很癢
牙印
还加
左下角
结孕
疙瘩汤
完说
应聘
问涂
野牛
洗有
病来
分层
百货
PH
侧卧位
缩阴
火堆
青黛
mr
直揣
喝启赋
垂直
紧靠
快俩
奶迹
周半鞘
剧痒
签别
谷物
红红火火
活菌
个药
痊得
捋
能症
对清
發風疹
调料
艾力
打管
转账
变能治好
拗片
胆通
通淋片
时解
專家
眼子
患骨
烧出来
线片
临床实验
含铅量
水对
随州
多条
##g
要換
用赫赛
老发沉
替斯
痛时
视力表
瘊在
DR
癌冻
系未
完做
下该
性黄
神經炎
五肽
清瘟
节肠
分严
出说
沒事
鹿血
有受
崩解
西同静
较窄
秘诀
针才
蚝油
做护脑
两生
蒙诺
水产品
蜂蜡
###ml
天窦性
会由金
手及
吃皂角
宫镜
并囊性
全切术
鳕
旳
二十七天
比灵要
人炫晕
多加
追奶
帮到
很火
波窦性
铆钉
权健能
用达
溜达
交感
用信
两百多
丹红
咳簌
晚不晚
越久会
牙石
海星
金感
翻开
我割
我些
岁算
喝花
糜爛會
恶
他敏
双边
做血常
趁短人
下爱得
体考
缐
万力
慢心
肾后
节育器
罂粟碱
最准
可开
完吊液
般过
休
脚肿架
两要
扩容
黏度
瞎掉
疼感
加压素
巯
胸阀
香烛
右会
内金溶
越来
允许
多大时
麻针
表現
#g
颚骨
美素
吸好
杆
压老
乐克儿
体偏
游青
乛
鹰牌
照起
自足
列腺
好外
防制
请创
bu
小馒头
医方
有阻
部型
上冈肌
古汉
批林
现想备
解冻
贴暖脐膏
下管
开完
反疼
通过率
不解
银汞合金
弟兄
人口
司杜芬
牙髓息肉
心慌慌
没完
异形
染病
拉冷沫沫
胚泡
无意
消糜
爱困
药肓
极其
会酸
股出
位疼
事因
截
升力
多大脐
不同之处
练出
更常
治好病
这牙
还算弱
能破
脂球
就治好
钟情
继而
爱动
时快时慢
完血应
黄涕
罪魁祸首
压头
完血后
速是
饱和
施芙洛
割下去
不办
底于
通心络
淡绿色
溃羊
咳断
胃言
素过
痉咳
有二宝
朵朵
归事
大白
联笨
阿斯匹林
好西
浓水
四五次
兔兔
与治
產後抑鬱症
立安是
一睡
早死
乞
根是
缓助
术区
摩擦音
后怕
自诊
奶少
爱滋病患
二十日
情节
比病
晦气
浓里
后气往
地酸纳
平平的
下颚骨
极强
肤乐霜
杀虫剂
可治慢
气脐
改速
刚退
无光泽
米虫
一慌
氣
二锅头
做细针
能用维
博乐
阴推
牛肉汤
科屋
吃用
好排
吃辅
愛鑽
女患
暖宝
在治能
能融
背侧
加肤
体息
股疼
选购
出反
后敢
犟
包色
维生
造影剂
打甲
胸卧
痛醒
现成
烦渴
晴
吃元
分手
康丸
健对
龙骨
喷丁有
行大
备用
根本原因
口红
砖头
利用
这痣
点施
成度
油煎
塞来
段奶
某处
星对
必思
侯镜
钾量
关能症
广瘤
下齿
糖稀
能引
打逆嗝
懝
越高
治疗率
酲
滴眼
小夜灯
甲沟
石缺
化合物
牛栏
大为
肝酐
阴暗
cnt
治肿瘤
记性差
可下床
英文名
牙贵
双飞
爆米花
压断
hafp
浸
抖抖
瓷牙
恒温
鱼生
hid
囊实
体能
V#V#
开了个
长海
容师
能吃维
缺铁贫
会颈
陈香
该死
出月
软肓
点倍
完蛋
诊壮
骨肽
陈氏
完想
小家伙
咳不太
有方
镇惊
羙
吃杏苏
韦吃
想测
王天祥
有少
建不
周阴
大拇哥
铧
期为
癔
低型
萘芬片
鸡旁
###u
硅酮
肌醇
思敏
内疗
亚蒂
mra
喝蛇
室心
風險
怀到
混液
立得
鬼针草
英达
减痛
后烧
咳臊
狭炎
震后
Ca###
忽大忽小
胸比右
买个护
毁坏
电磁
预留
发芽
处鞘
血样
累级
亏血
NSE
小黑
CDK#
合成
谁家
口腔医院
宝丸
出透
哌唑
合群
个肠
车子
吃息
破处
李惠利
深吸气
脾湿
热嘛
省肿
一吃点
分做
偏寒
喝冷
昆泰
Lop
烧熟
固位
問膽囊
厨娘
网吧
腐竹
成熟度
体部
压胸
佐痒
洋洋
为孕
天血好
小脓豆
一模一样
可定
法能治好
九芝堂
克隆病
透骨草
凤尾草
脚虚
日积月累
LGL
掐
卡上
蛮痒
白兰地
乳个
生皮
宫暖
难干
慈善会
喝赖
细辛
困得
印和痘
切较
脸小
右大臂
雙子
络合
性骚扰
胆香
长烦
cart
里米长
一哭会
五有
五十二岁
后突
病期
胸腰
性经历
感恩
量表
小软块
易口
冬笋
吸不上
提提
六小时
有肉团
侧鞘
隐停
会尿不出
空心菜
眼帘
全托
胸长
期能治
内伴
脸麻头
会烧
用氯雷
辞掉
公益
衰减
性状
包沙布
经尿管
括约肌
半节
血播
晚点
冬瓜汤
觉额
多胎
便细
会汉
溴索
头孢西丁
ghhhnnbnn
问世
黏冲
法国
记口
八子
心脏病发
凯好
活命
盒装
知乎
总称
鼻净粉
可威
土豆片
一片片
半宝
疑有
复连
水面
瘘口
个儿
涂地
天能查
壓體
清星
晚起
性型
HLA
平均值
臭豆腐
永川
捂到
得面
钢圈
能区
序
吃白
安心
癌一
我甲
左上臂
黄种人
好制
跟随
睁眼
两排
恨
扩长型
脱氧
糖前
炎喝
幅乳疼
泌炎
结片
脚环
糖元
lvshi
弱酸性
委宿性
鳊鱼
国防生
虚焦
怎排
授
极草能
hcg#.#
有膏方
热菲
说用
哪句
与非
逆时针
六根
較
巨疼
二姐
天底下
結核病
两测
宝妈生
尤文式
轮椅
脚坏
缩回
感觉不好
在阳
筛孔
口像
成菜
陀螺
中孕
皱起
外省
蜃
不大肿
带刺
膨升间
圆空
水液
秦皇岛
碰为
乌头
哈医大一院
性压抑
双颈顶
越用
药塞好
排期
为甲减
体溫
绯闻
身亡
姨腺炎
净手
帐气
用伏立
小片
提子
EV##
冷静下来
偶麻
高低压
下阴
埋久
吃桶
头和手
施
义
欠通
癌易
划
美迪
讣
周会胎
开复
能治死
薏辛
乳安贴
海滩
it
携手
清微
完泪
与否
血宝爸
度少
分得清
用金锁
陕西省
按例
治广疗
颔
绑住
偏曲下
CINI#
体病
老一辈
不摸药
奶裂
多年不见
红筋
妊
smile
看用
有足
瑞因
不匀
一降
宜早
輸卵
没犯
怕生
一杠
脂意
肠节
IIIC
后血值
连接不断
福尔
过零晨
pci
疼咽口
干起
耸
后龙
安达
初级阶段
黄病
洗美
文拉法辛
宁治不治
瘊么
好切
玩手
会哑
胡哲
不太会
从口
纳囊用
县县
孑官
忍受
打开
藥膏
吃知
活嘛
体大者
五加
吉三
并肩
接力
口生
探通后
天验
消人炎
偶然性
轻糜
想询
美使
讲师
肺慢
干扰
奶到
根请
齐齐哈尔
药换
Lee#
上痛
时胃
屎尿
阿嗪
臀肌筋
Pas
栓能治好
数控车床
请辨症
艾司唑仑片
炤
会阵
第十五天
特殊照顾
炎质瘤
后治
从根本上
为渐
旷善
疼带
索性
乔起
喷万托林
癌不治会
类伴
地摊
不作
擦不掉
翠家
法新
肿消
脚冷
👍
多宝鱼
打气
摔水里
周可生
正片
那痒
汤济
怀在
救嘛
袜能
重福度
赠卵
脑撞柱
培美
泡片
六体
松有
偏曲娇
根手
青黑
中晚
不和会
比顺
放任不管
开三指
克莫斯
乌贼骨
息湿
拒食
用户
接歪
动脈
幾時
母丸
孕史
口爆
高糖治
产检低
有莎好
惊风
血亏
天打
十片
小皮赘
尖半
典必殊
睡下来
渴是
不冻手
这刚
出筋
胸小该
意志力
多多少少
威海
瞳仁
多眼
入伍
耳内痒
推算
水性
反應
能用制
早斯
娃哈哈
贝舒宁
公众
近节
咸鱼
大疱性
远能
苗药癣
神疲
意为
玩好
应气
挑开
打益
大双
贝亲
吃荣
育防育
电弧
扇
官网
疑阵
患脑癌
###kg
麻有
原声位
药能化
老飞
奶都
口腔诊所
光是
阿苯
会肥
清能
一无
烈腺炎
人血会
远点
目旋
喝能治
服理
一付
赌挺
奥消
桥该
散癖
流口
能正
药打
打乒乓球
好肥
吃泌特
发过来
HGG
有钎维化
花子
隆下
AFP#.##
半男
完房
孟治好
马国红
左隔
仪对
拦住
批柏水
相识
天在
颈源性
最看
伤辣疼
能烧
四块
平時
病能治根
高促
打印
poems
一棵
示肺
周产检
屁针
烘烤
强龙针
章
见红有
塞可平
能生个
爸心
問神
阿娇浆
冷手
皮宝灵
头粉
年类
先扎
CA
托尔
防患
澈底
卖敏行
五灵片
性六
吕俊兰
防脱
随身携带
不段
明治
跟眼
深线
角撞
针缝
根么
功血应
供卵
菜苔
长胃
光疑术
喷辅
正兆有
碰头
侵润
睡久
肺转
有脓要
利菌沙
阴超查
片和功
古蚀
轮滑
猪杂
介脲
派瑞
只治
贴面
言
索片
吸散
幅度
有紧
药泛
##ps
住院部
双醋
做隐
hch
同食
左舌
羟氯奎
范时
吃花
足藓
腺上
胃氣
好能活
出卵
緩
挤脚
明普慧视
夾层
吃氟康
查解
处发
次烧
外踝
厌油
应禁
清帝
要栓
天光
完怕
斑用
干发
挂心
痛還
第二条
峁
孕检有
图谱
闺美
天胸胀
泰嘉
讲下
以往
受风得
辜丸
左下长
出胎
用米
黄会
配置
肝针
产能
克霉挫
急死人
火大
阿佛
西洛韦
会面
窥
小毛病
夹疼
拓疣
旁散
兰州市
目和非
精多
排外
梦中
刮薄会
培酮片
磁牙
TT#
對方
大慢
保护期
天昏地转
身材矮小
囊样
多大用
三干片
bbbbbhk
必殊
号行
地龙片
乙酸
宣判
下腔性
占多大
长脂溢
资
差配
索拉非
胆中
韦行
得类
会晨
#gG
爱宝
轻中重
食堂
先清
扫雪
并失
很显
隐膏
鼻里
处老痒
爱看
异动
邻面
四叠体
过易瑞沙
拳击
莉
汇脓
候痛
Ah
吃克洛己
紊亂
加近
稍窄
蜜环菌
控来
咽痒
新城
朝阳市
体软
胃缩型
脑梗要
锁
消食
偶感
吃吃饭
患无
周看
氯地
再三
過度
拉色菌
还拉肚
伊舒能
如打
黑白
曼迪
最多停
或许
病历本
伴皮化
喝凉
长密
治骨
尿口
用森
能献
蓝氏
太坑
征生
转风热
水贱
晚安
老男年
巧克力糖
斑能治
乳头肌
柴葫吗
妹子
三十多天
切管
很贵
直到
突瘦
转成面
网瘪
骨能
igm#
近距离
喝图
置入
跨专业
帕林能
针口
丿
下起
洗牙能
迷走神经
直窦远
看乱
中央尖
脚缝
鲮状
鼻颌缝
内透声
消安散治
图案
全反
半鞘
长睑
剖复产
后线
交织
病腿
用头
炎留
相互作用
单吃瑞巴派
中奖
衰歇
三脑
疗伤
###dpm
总之
］
考虑一下
带起
高电
令
打电
肚腩
咽候
区逸搏
喝英红
拖长
斤算重
打玩
福高炎
手都会
罗伦隐
肉牙类
康膏
色情
诃
費用
血滴
完滴
助眠片
突基
连小学
检出限
洁
轰隆声
总苦
痄腮
嘎瘩
眼都肿
qtc###
每頓
##x#
发挺
肛乳
情绪性
邵阳
粤
荘
肚凉
蛆子
辩
发虚
速过
LGg
怀着
四枝
互斥
湿团
丁硼
#.####
孕对
散端会
地塞美松
杠菌
小浓点
斯皮仁诺能
大汉
怀凝得
出纳
症疑
条红肉
白印
监察
常年性
不红不痒
喂茵
查液
三万九千
左锁
伤寒论
IgG#.##
小紅點
咳净
耳聾
##IU
池区
kras
宝行
艾瑞昔
回传
该药
扣志
想射
好觉
汗露
挤眉
儿朵
做激
冬夏
使验
有店
公认
多病
蜂窝状
阴正勤
东南亚
瀑布
说治
杀感
高热量
胃大弯
微针
冰箱
攻击性
困困
催
症值
神像
一肠
没隔
清澈
报个
激进
疼输
瑞尔
做汗
起白泡
淚囊炎
先给
磨姑
薇诺娜
肉味
天伦
槟郎易
更治
眼晴根
价隔
治好治
窦炎加
平和
输铁
长些
配个
用济肤堂
穿长
多索
时脸
半部
水煮鱼
紧邻
缩宫
问非
消炎痛
后脱
遺症
尹
直不疼
剥膜
安环后
Juc
作通液
随心
掉魂
沃丽仃
下出
缔结
中红圈
累胃
也样
鲜奶
流浓要
翻过来
类食品
两轮
发颤
小圆点
已至
接诊
第二节
吃卡
狼瘡
美孚
指胃
口长
认可
入脑
豪囊
變成
义齿
出颈
消极情绪
单羊
膝下
面热
叶肝内
有天
听不懂
数额
除手
半圈
求泪
细该
牙科诊所
低泵血
称之为
浑
中山医科大学
头蒙是
消钟
右腹长
往出
缺痒
越大
带些
肌瘫
内战
犯痒
地面
李小平
高强度
又拉肚
危不
密致
虎地
现拉不出
五月花
辣会
会吏
裆
日来
护婴
密
蜘蛛
处少
胸髓
青蟹
不昊
兵检
长湿
喝茵枝
下代
胃大
盐酸环丙沙星
熬汤
胸拍
胎粉
哈海来
异闻
夏天无
堵胀
通次
炎該
科对
乳靡
尿微
调能
不肥
北风吹
商环
射血精
完痧
剪伤
胡乱
枯矾
做睑
好意思
会眼
癞蛤蟆
tui
血前
抬不太起
史长
除夕
减病
明现
流精
洼坑
骻骨
什了
维都
上胀
远门
经脉
司力捷
男同事
开指
白玩
完子
人不象
吃维思
拜糖平
我长个
根菜
纵格
发花
灵敏
癌肝
奶堵
分泌液
助视器
流走
长老
起红痘
轻时
检无精症
纸会
喝痹通
园硬
焦油
朱芮仪
林应
没钱医
回导
语言不清
加入
返流加
只痒
癃清
碱面
分险
枳术
痘子
上磨
那起
线用
不懂事
突破
冷空
郁金
血会胎
热速
炎手
卢卡
有麟
骇冷
此时此刻
鼻豆炎
吃佳蓉片
金芥
瓶子
哑有
戒些
性大嘛
该进
致力于
结有
比术
纠不
如样体
佩乐能
堆
用康敏元
桌面
苹果酒
行动不便
背脊骨
培菲康行
班里
慢炎
前膜
干黑
病毒传播
蓖麻
哽
驱寒
净饿
没少
包虫
需氧性
苜蓿
宣
缘来
过人
拉沫沫
玄驱
症输
物流
快散
医師
吃算
颞页
要钱
印是
睡帮
老戒
丙酮酸
发液
恐狂
麟形
或传
用火疗
整了
烟筒
过剩
了结
郑多燕
眼不治会
患窦
雾眉
问类
军团菌
可意
零米
崔经药
猛酸甲
放射疗法
换肤
体大是
牙会痛
右能
呐式
一个个
回国
化学性
大雾
町
配对
低化癌
摄入量
用美多
发放
回弯
太累会
打促
红眼
药泥
喷漆
无隐斜
关掉
四白穴
纳什
张张
手杆
变系癌
几块钱
大二
左肝囊性
太原市
栓药
脚沉
这片
透明膜
指成
促醒
监床
骨上
吃溪
现金
治帮
腳癬
要装
枕小
白兰
肺鳞状
吸不出
窝沉
間
很辣
单绒
必乳素
胚会
表面现象
彩虹
算晚
劳嘛
酒类
弓足
出孕周
流变
炖汤
邹晓毅
疯狗
老梗
亲戚家
高未
缺乏性
开一指
灌输
一转
锥体束
什什
银杏果
对立
神病发
肝瘤
质谱
暗示着
桥病
不割行
养才
缺損
动动
脸晒
想捞
淡红色
杠肠科
长癣
腓部
动一动
一活
石清方
那味
沒有量
眼盖
白蚀
急坏
样能
但针
线缝
苗皂
色盲症
真厚
总胀
灵通
女性内衣
劝解
毛尖茶
喝一杯
官方
常喘
炎毒
药康
吃泌
cdk
拥有
询医
癌看
等会
hcg##.##
MenA
能法
会引
癀
取好
否则
总爱犯
蕩
华山参
晨尿测
磕伤
剛剛驗
脚筋
记不清
针叫
做治
云
环要
治风热
查布病
加散
奔跑
解毒药
蜡黄
扭伤脚
意可贴
优质
椰果
叶强
酸纳
起居生活
过名
心宝
酸过多
天幕
三贤
水仲
列安
潍坊
媒介
n#
春秋季
佯
淡疤
LgM#.##
老上
糖葫芦
注院
情红
旁起
吃药时
锉夫
返黑
变大后
伸不伸
直吹
小伙子
次拔
糖平
朝代
腰痹通
小黄鱼
肠梗堵
武昌
震石
销唑
v#v#
癣菌灵
疼查
眼昏
吃饭时间
珠贝
三分钟
腹气
孕测准
下浮
脱得
鹅掌
贝特
无脑
脤
ke
迟有
牙经
粗乱会
稍低
森福罗
变话
来原
阿塞松
烟丝
黄囊
左厕
茶能护
服务者
一正
纹路
陈凤贵
洋参
头缝
指起
翻备
需早
型阳型
能治癌
打丙球
肠转
预期
鞍上区
肿标
分拆
吃肠舒
想瘦
大坑
举摆痛
炭疽热
局灶杯
准妈
回旋
养是
用帕坦洛
轰轰
滴蟲病
白花油
lh##
Ⅰ
通泪
貼壁
完花
伴班块
一停
送子
样体
值太低
前牙
新治
超疼
夏桑菊
nmdar
妙法
胸肋
左大右
范红流
了样
口足病
李强
用小萌娃
死不认错
精无精症
样甲
考芬
栓要
嵌到
钉会
而胎
觉能
好彡
危言耸听
可林
个体
九大
小个
巴林
带贝贝佳
用雅漾
双影
寶麗婷
提日
腰盘间
带表
啤洒
挑烂
不挺奶
扩完
风大
皮舒克
#igg
滴理
虎口
求疑
破膜
腸炎食
由视
淡茶
鼻干
坏肉
瓣加
阜阳市
冲掉
Qing
手教
胎劲
坐呀
三万
拨动
十七年
嵌钝
缘炎
轮替
能整
证型
补法
倾嗝
喉片
刮腹
脑垂
闭上眼睛
自带
cmx#cm
膏布
学长
横贯
地尔
栖霞市
浓密
半男宝
张家口
排不净
孕能测
重庆大学
卫星
长藓
驴肾
]
大长
眼镜店
精脉
时太痒
有血用
吸药
巢会
不幸
掌拓
过用
好见
指球炎
加糖
人接
整颗
回校
间歇期
纽尔
問皮膚
帮里
出腹
会癌
并通
纳史
孩长
左內
更长
眼炎
咨询电话
华康
手起
跑步机
偏曲算
端腹
破后
样斑
脸能
液对
后肠
利多
放出
功血达英
摔坏
弱視
亲密关系
满血
搞通
塞入
想下
无不
不急
水打
根热
应立即
满是
阔
伊夫
值高到
绿叶
鱼珠
能敢
有關
改观
缓及
珍段
桥式
生坦
盛夏
智慧
肝欠
用哌拉
蛇胆
病炤处
瑞士
心焖
风心
羊胎素
摘后
酵母菌
不查
太深会
留点
点测
忍冬藤
医嘛
肝油
scc#.#
症小亮
挂什科
天阿奇
疼经
该途
问问看
囊块
溶性
送点
买卖
分一到
非淋会
得用
瞟
海飞丝
鹿泉
花花
探到
喝护彤
去不去
算低
hav
近亲
翻足会
一遇
txt
收术
伤性
于长
鱼会
TPHA#
婴泰
用莎
檢
眼飞
种种原因
幽暗
夫
球基
nn
框要验
难搞
宗和证
度后
高近
集爱能
忎
孕妈咪
该方
总抖
完功
头颈部
河车
单相
性症
现实生活
得流
用妇
下换
MNDA
喝苗岭
踪合症
步子
内火
疏肝解郁
SLE
后塞着
温热
陈有
叚
一指
区别情况
地龙治
药唑
甲癬
会生虫
胖瘦
足球运动
海昆
治脚癬
因甲减
痕养
高大
造囗未
语
蘘治
一半脸
科做
成方
有烂
气压
夹部
胆石病
嫂
两行
牙体
及远段
用曼月乐
根呀
艾拉
盆壁膜性
阵法
从小到大
陈艾
小茧
梨水
复通
设置
或支
非紫型
強迫
愿
百夫康
查要
灵方皮
莫昔芬
箱
形态学
出声
第几
测餐
结蒂
车间
拍肠镜
半血
绝不能
DMT
脚弯
十月份
帕栓
前放
吃手
宮手術
可认
心下
波略
iv
点为
牙黄
起拢
抽缩
郎有
干坏事
非尼
奶奶家
低钠
碣
会招
菟丝子
引尤
真有假
最常得
需做些
舒血宁能
好开
淋浴
会淌
油泡
咬手
林行
胸中
血痕
da
阿尔玛
药理学
灵治
庶壮
想吐想
不化
妇人
癫
用氯氮
发噎
能吃克
化糖药
留观
半查
生么样
行业
已带
净水器
分散
痛心
非点
吊灯
隔断
管置
不动牙
热食
哑发
鲳鱼
另一则
脱屑性
喝护
气郁
看天
天不等
周脸
应配
补晒药
试笔
后尿尿会
荆州
很纹
毒量
野洋涛
优惠
霍乱弧菌
腊八节
吃千禾
海鳗
核桃仁
炎起
还白
博芝菌
备孕受
夹除
终未期
擦抹
钻肉
出高
agus
精五子
粒大
红哑
打缩
红曲米
尿炎
琉挫
外壁
七千
束腰
完水光
缺矢
mh
同步
隐形眼睛
第二部
对布病
药好娜
管城
hba
回弯时
稀便
腰肿
康们
智
疑心
辣酒
渝
咖敏片
会弹响
捣烂
月经血
宁酊能
段略
很淡
枕有
缺开
不太通
活菌片
用氟芬
偏曲头
喷昔洛伟治
钱冶疗
部裂
腊
柔软性
特力
老玉米
尿流率
虎耳草
灵便
火爆
科特
甲母
封药
含羞草
左叶囊
露达
司匹林能
打喷堤
恋袜
细条
UU
加抹
脑复康
吡卡胺
薄荷糖
结婚证
毛才
定水
堵用
顶后
还久能
锯
分必物
姐夫
帕药
卤鸡
索菲
症顷
勞損
汤有
后取
浊音
冷凝
蟯虫病
如仔
化不全
治医
两米
神么会
好行
能治如
饥瘤
⊥
缺有
刺面
边沿
斑快
下巴颏
化斑
积
罗旋菌
苦参素
能泡
C##
有红泡
宮颈
白日
衍宗好
流白快
吃舍
甲床
症嘛
糯米酒
活苗
霜能
完股
lgE
相见
魚腥
连累
内疼
一幅
肽聚糖
抗进
线变
整出
很撑
人成
ct#nmoIIa
人参酒
冻虫
头较
慢点
堵上
花状
费心
线下
为弱
润肺
剥血会
病弟
风风光光
显泪
廣州
配制
飞该
不冶会
引体线
清开
问孕
脑梗小
三姨
熏鱼
易瑞沙药
出低
遇事
罗干
一个十五岁
风怕
仅以
吃路雷
施慧达
疗胃
紫殿性
敷用
拔气
人炎
亀
平好
纪常
鼓不起
真能治
手月
二分之一
诊挂
寶寶生
道德
砵
头俩
替勃龙片
隙缝
健敏
结团
排放
流尿
不气
告之是
可珍断
七介
总量
症里
过拔
治膝
咳之不净感
wpw
人太
很红该
新买
秦成
需戒
停下
竭虑
代失
嘴馋
膽石
人挠
未尽
白令
头下
过片
凹窝
太粗
灶该
这小
脓瘘
不推迟
鲟鱼
壁及
小变
护发
牛癣
后口
有血痘
真孕
软流
已杳明
COQ##
临明
参麦
哪会
人奶
鳞狀
奥扎
该驰
停发
用特比
灰灭
舌胎
膏能行
先测
重指
变味
吹口哨
领导
完安
切后
磨得
姆
天能治
艾血
筋豆
现附
状新
初中生
已点
多梦用
后多囊
乙醇
复返
胃能
做引
写错
炎反
嘴和手
下回
icl
剩上
后路
好补
搭档
起汗
香干
第四回
做取
耷拉
口谈
癌属
要配
LBPSYSTEM
金珠
咋搞
口能
被疑
恢复原状
变弯线
肠内
订好
使得
半熟
拔起
易喷净
固淳
精卖
乳化
丙性
役
不太痛
一减
对比度
大头菜
起疮
完胸
护手霜
右椎
木香
草绿色
服视
粉降
好耍
喉骨
消药
绿叶菜
右有
安多
白草
湿有
张开
数粒
脑血瘤
上扎
达喜行
皮有治皮
下榻
恩瑞特
用泰索帝
斤足
抽畜
后蛋
大麼
类有
苏对
回话
放平
眼变
变干
阿力
药治乳创
老冒
合能
吐气
用化
螺钉
之缘行
阵挛
医漫性
七十一岁
由少
双孤有何
测酶联
因得
菱
舒尼片
四味
张家
兩
TBigra
三阳
地尔酚
问飞
硬脊
嘲
发骚
不死
合骨会
开来
息宁
打痰
缩感
另一方
变越
肩柚
高苯
穷思
丩
来事能
阳瘘
泰迪得
部小
吃丹媚
吃暑
走肉球
赛药
泡后
症习
癌双侧
增减
孝感
海淀区
发粉
针好点
乐观
用抑
栓能
打检是
后脸
內侧
受装
原发灶
外院
吐红
像种
办请
行列
治热
乌梅
吃度
苯海拉明
阴片
还拉烂
qu
姿燕婷
半死
游疼
白戴
会自
藏方癣
高钾
量够
房网
以防
石磨
操能
用炉
思雅
技巧
利克止
丑
用高
血说
塑料瓶
会得肠
鐘
拋腹
病腺
濕
太饿
环性
下威
仙灵
喝大骨
脐橙
最差
率怪
厕灵
腳泡
紧紧
wg
痛站
鸣气
渐
反流能
宁吃
核用
精看
灵丹
瘦小
父系
光复
偏弱
娃卵
区前
产检时
飘逸
雪碧
秀
喝益
高猛酸
吃润众
发灰
调回来
怀下个
对虾
靜脉炎
Bc
痕处
质变
突及
横膈
莱姆
打盐水
腦萎
中端
色情电影
好喃
求住
天人
采乐能
Bo
喷涕
初级
二瓣化
这腿
眼供
含曲林能
##b
球痒
马卡多
加能
冶彡
右孔
挫骨裂
吃莫砂
那胃
刨子
盲吃
我肚
血质
那疼
荒
慎用
钾性
象征
挟窄
治脂溢性
眼斜
液沙
两三
细沙
奥能
洗发液
丘性
报纸
内渗
置于
大巴
周能活
花会
人易
接尿
百分之六十
生骨
先进性
外缘
很正
用曼迪
姜艾
菌鼠
螺旋形
活动度
脚窝
已见
扑灵
耳孔
坐飛機
爸爸妈妈
双颊
求祥解
糖分
难射出
手麻要
减该
关源
鼻下
桂肉
痛觉
🍎
一头
下支
舌管
CTU
指检说
大腸
齿拔
喷计
三变
核有
开全
天因
蓝灯
必物会
修店
簧片
魏
精给
成虫
戴起来
囬
削
缝过
抓砂
肠膜
西式
当半
頭壞
爱一
脑闷
尿尿时
橋
气舒
人乳
有阔
痛且
行醒
虽要
火胜会
口淡
碧超
无限
颈骨
强笑
油酸
症医得
微细
额部
必塞性
转头
戴大框
定喘丸
拖地
远动
没太大
较多要
停有
孤僻
肿过
胎芽会
烤过
时好
复合性
副流感
全威治
侨本氏
推上去
眼烂
洗烂
午睡
蚂蚱
有留
只开
周亚
药外
撕
对卵
###cm###
金纳多
浦银散
会像生
未出
三镜
戴同
菌素
寒麻
太伤
预示
流转
右肝痛
丁类
人嘛
能爱爱
牙岁
要定
遍
曝露
链连
經性
吐饭
刑
滤过
光带
龙泰风
上脸
特需
脑梗脑
肛安
做雾
早破后
大斜
比不上
及风热
涂克霉错
起泡沫
捂秋冻
有小肉
通瘀
震顫
或成
药滴
用红升丹
护工
长条
乃
内尚
hcg#.##
盯
胰漏
胎头入
怀了孕
咳过
癫性
没测
痈
晨尿黄
革兰试
放着
淤滞
rads#
头急
军校
后扣
点飞
提定
较稀
总往
来袭
眼會
鱼丝
酒瘾
没水
治腺
木通
吃固
伤手
前起
炎做
旱冰
侧部
特比好
多越
刺身
怎么着
超能照
一个半
传男不传
金色
涂会
冻得
半长
钙奶
安栓
优思弗
精好治
闭角
变及
药制
电能
领取
换假
脸心
受风会
算麻
锯断
低促
葛粉
软组
机子
疏果
长太多
很密
碎片
不太正
##xxx
血绸
#L
亡
缓应
吊丙
消痰
多项
Pd#
壹号
及囊
昕
转太酶
ww
叶子
面肌炎
高会胎
一并
外扩
起居
不填
阿齐
胎盆
体恒健
偏离
活疗
最多活
肠乐
脚和手
严害
HCHD
嗽
导治
日体
诊以
总值
级现
小柳
想拉
气吃点
吞噬
发烂
药特
涨大
又验
苍是
药置
伏帖
氟桂利嗪
耍酒疯
癣肤
唯能
越短
针水有
畸变
湿证
液行
痒肿
爬起来
攘
jianchs
色嘛
破嘛
两晚
超上
几间
流出物
入眼
黏链
拜访
小床
咱个
IIIA
治国
复勾股
别个
足趾
今个
lgA#
奘
稀水
萘敏维
叫床
退酸
大近
超现示
可大泡
冰时
义眼
普南
咽症
男宝能
胸胀
铅毒会
脓疮
费时
电动牙刷
蜜蜂窝
捶打
二瓣
黄痂
眼尾
塑性
提前结束
想拔
支周炎
生物能
软弱无力
骺
隆闭
geftiat
阿长个
瘢痛
暧
脑丸
看脚
术手
拍脑
mmmm
钠治
做作业
起癣
問飛
弓虫
打发
掏空
小肿
胡臭
胸显
继及
癌症肿瘤
预苗能
可硬
有溢脂
卵园
涎
不灵
做布病
起眼
吃太辣
安佳
舍瑞深
GPR
黄化
根有
不力
求诊
腼腆
眼动
眼底下
丹加
反转
起干皮
傷擦
建小卡
眼衣
散能行
阿华田
内眼角
星好
普萘
食錯
〇
想点
脾胀
弄开
规模
眼瞳
三鞭
神片
重量
并囊壁
半片
中级
喷雾瓶
呋辛片
鸭叫
红素
两千
US
脸发
多痛
#mm##
med
勃而
炎康
大脑神经
酸枣
替麦
三岔
凝视
照兰光会
爱护
手晒伤
打血毒
我尿里
缓该
胆怯
周该
能断
骁溪
男无精症
一浅会
软油
弟媳
乔头
鼻湿
病和布
癌未见
好想哭
经线
过手
美卡波姆
全开
棒棒
尋常
地黄
难补
三年级
巨噬细胞
挺烦
天不哭
虫蛀
吃青
天然气
一哈好
刮诊
用试
首发
一百三十斤
########
病理科
蒺藜
编
医住
强心
停育史
餐椅
烧聋
尿激酶
擦剂
麻腮砜
四米
辉灰脂
鼠标
有恐
农甘
达力芬
使胎
额内
闩
刚板
丁酯
桥服
变大痒
属瘤
眼水会
速算
性增
退群
满背
内含
大拇脚
加肥
陷
胃脚
用痒
条索
查高
彼会
微软
浓血状
高挂
咋天
诺卡菌
對寶寶有
未长
假药
打游戏
丰鼻
痕痒
预防药
房前
更涨
制呀
脚腕子
淌出
另类
╳
涨水
剃掉
跟解
用平肤
四四
食材
忽视
时卵
大冒险
尿流细
尼妥
变可
吃松
疼不痒
塞术
开角性
腰五胝
财证
斑声
澄
味蕾
玄武
蘸
逛街
迷睡
枣能
有脱
度米芬
排脓
升上来
刚挂
饿感
胃水胀
临
老母鸡
最多报
开除
公交
半未孕
欠佳
右腹会
d##
医症
透視
手嘛
年防
爱吐
会拉黑
上柱
复光
肯尼亚
依次
值大
脂防肝
返酸水
状阳果
久冶
银针
自驾游
灰甲
还伴
马鞭草
盘型
我想变
脆皮
甲变
废力
他哥
点装
清茶
完再
有连液
萎宿性
超薄
茧
五十几
没腿
只亲
材料费
固执
有右心
红圈
红成
戊干
小阵
说白了
电动
爱脸
口会
逆光
肩宽
伴嚷
伴多
除虫菊
四神丸
朝内
天要
横着
hgc
不转
没扎
特征性
成本
富清
肉白
喝酸
长肉息
瘤动
湿透
炎病发
盖饭
栝
不大有
怎仫办
两情相悦
电子厂
悄
没验
水杨酸
胃火大
单核
用红敏素
结婚的人
连续流
层内
用珍
iT
榴蓮
再燃
兰尾炎
恶吐
中出
中秋节
舒活
西柚
沈州
平喘
吃莫沙
簌口
能塞
利通同
小宝贝
G#SO
瞧脉
电烙铁
初根
好受
中山市
最贵
##tct
wtfj
快块
此方治
皮裤
休假
内行
阳伟
信心
熊泡
阿戈
列如
过劳死
pp
团体
浅浅的
金樱子
疼是
皮肤癣
喝鸡
梳头发
白肺
孕干
多功能
圆区
美年
康宁
枣核
下甲下
但血精
弗
额骨
泪小管
射干
窦瘘
完病
捏合
三十九
偏硬
粘腻
鹗
喷丁
温肾
清脓
异常情况
线射刀
盖州市
气多且
经得
注意安全
西兰花
两是
因硬
这药管
旁是
盲刮术
脑内严
稍短
黄松
幾
硫丹
近一
总爱泛
经来
奎宁
直腰
胰肿
濡
補血
哈喇子
打麻牙
增殖性
血证
懷
能用育
援引
润肠
服阿骨法
小山羊
不治热
耳药水
以婚
大切
会溢液
斑多
呼出
完药询
炎加
利片
结蹄
Igg
后足
红痰
变大胃
发几张
胜红
障脖起
肠部
外打
修车
松懈
学压
###umol
萌芽
吸进
蛛网
清菜
撞后
完手術
咽下去
内件
介囗吗
林好
沏
产治
朱孔
要流
分第
纳襄
页
胆红
nuo
微胖
腔梗脑
介定
戕
漏不出
关乐
😮
朝上
磷酸酶
營養
为结
做照
能吃治
吃益母
口不疼
热会
项高危
身闷
药塞后
少符
内前
周无乳
清谈
于是
液好
舌肌
###Ct
面试
心脾
穿衣
调亡
爱瞎想
成二形
转安
阳打
全御
好闷
反常
指标值
拨掉
百癣
多囊症
光电
备胎
办麻卡
爱宁达
周才够
精性
雷丁
柳州市
防暑
血干
越快
下牙槽
太强
想吐女
会绝
付款
下腿会
肉赘
备皮
哩
半流
繁殖
分一
癃清片
射太快
危症
非脓性
被覆
炸串
郑州市
有膽
敷囊
马上治
院能治
多种类型
###KG
法医
这边儿
隔子
吃宁
agi
宫血宁后
三岁时
剧
我莓菌
用马油
胃账
照要
留出
灰褐色
鸡精
有替
多肠
任然
见面
乖乖
下毕
有虚影
现面
用不起
杠一深
能脉
抗凝需
白饭
手料
贴长
尚志
散光镜
lp
膏用
除颤
打高糖
退到
测值
孔裂性
吃桂附
雄胺
罗音
餐巾纸
棕榈
从未有过
松挂
多尿期
保得
更是
漏洞
聊骚会
卵管
石榴皮
贝利
水印
噴物劑
拨罐
摔得
新泰
用刀
尿尿尿
吐点
减症
一瞬间
什末
写右
孕掉
捂热
铁锅
孝
水术
抽起来
由此
著名
这验
记率
耙齿
嘴张
肿不疼
老乡
胸应
发严
变暗
撞成
斜型
hvp##
倒影
消溶
尖见
地草
胃休
这学
混奶会
跑不了
样治
治解
来曲唑片
右道
没说的
路通
傻笑
后屈
乳母
人病
不太像
謝谢
流鼻
防脱发
增后
要话
搬运工
软醇
伊瑞
想喘大
平滑
见到
岳阳市
八爪
血源性
hig
解决不了
优思
堵到
浮动
保利
很甜
至宝
响起
水波纹
极快
姑丈
很沉
gia
公会
胃境
料酒
腰康
为社
皮伤炎
麻黄汤
参龄
一前
联邦
次要
后会否
yu
太原省
jisnjia
车厘子
它制
完海
测不出
红星
消水
痔比
暗沉
舒克
多元
跟常食
公共场所
憜
血本
外因
肺静脉
扁条
耳油
往肉里
熟米
窦速
胸不开
温开水
月儿
谓
做行
咋制
戊抗
前前后后
桑叶
用皮检
良瘤
翠
看尿钾
白芷
墨
半戴
十小时
横沟
用通
膝干
污是
杨路
君生
出尿
内地
攒肚
用人
区腔性
节是
还光
内异
全逾后
破能
红小
预针
##h
硬壳
表达能力
水在
ijm
用多塞平
小暖
能挠
上市
暴裂
冶胃
胸操
可心
查少
胸导联
堵得
病现
亮炳瑞林
miao
有光感
十好
咯能
没因
参松
骨不连
喜堂
体癬
诋毁
封牙会
看深
严跟室
生脓
叩诊
并局
完菌
热疼
败血病
图拼
血窦要
硝磋
消瘤
化瘀
过现
问子
萄
利托君片
厨房
肝藥
颈间
看一哈
伤损
红癣
和睦家
化肿
一贴
吃安非
打舒宁
老鼠屎
双目失明
苗方草
木工
一元
懒
读用
🚾
囊用
胀大
上半
活血化淤
板块
口忌
阁伴
动身
线百
凑字
退奶
题体
自闲
就养
胃泰散
卤淋饭
胃轻瘫
鹿心粉
颗粒物
吃昊
被准
約
百世
可嗽
李新泽治
氟米松
左输
阴吹
练过
心会痛
㪚
三回
周犯
拨管
同一时间
套环
垓
体楂
预热
取内
天风热
腹好
一液
人际
糖酐
血验
狗屎
不软
或肠
一致性
溃瘍
起红嘎
瓜片
勒死
砖伏
有恋童
[
感站
极要
一院治
如喉
七日
能吃索
考察
同天
办完
内射
冷穿
考上
迟点
脱衣服
普安
款
癌好
稍密
库民福康
变别
塞黄
治德好
该要
甲边
Hcg##.##
算多囊
湿毒洁
涂祥顺
嘴往
平都
有筋
鼻渊丸
蹲墙
月经过多
洗衣机
钯
常显
花絮
病擦
开银芩
多血酸
身体素质
治错
能预
麻腮
固执己见
冰毒
万分之
滚
柴桂
发灼
周头位
池旁
何因
症比
区低
白线
粗纤维
强会
老顽固
远方
为角
蒙有
没挤
嗉
布病治好
片药
黑玛
涛
坠下
胸到
盘腔炎
预备
有士方
泷性
节瘫
鄂弓
涨肿
石景山区
白得
医疗卡
除疤
咬掉
包囊
dle
辣子鸡
银鱼
吃定
abc
伪麻美芬
倒数
连着
胆原
肿好
可变
小白泡
康乃馨
集对
蝶形
健忘症
对风
保健茶
虎力
氨苄西林
一代
稠状
幫
脚像
经都
那怕
一輩子
阴球练
晚琪
嘴烂
清胃
洁钵
宝贝儿
力排
做卵
几付
杨洋
治口臭
还胀
凯妮订
强心针
药不疼
补骨脂
前功
高才
Ug
油墨
无有
街区
晶睛
新家会
生效
五毛钱
离心
有止
伏期
这代
脚胀
红疼
促拍
塞内
常做
不來
念株
电位
能治疑
频普仪
AIV
男多大
曲尼司
排不完
加是
总仰
病耻感
他俩
有大叶
能慢
说骨
非尼有
韦吃重
飞燕式
共震
细查
宫保鸡
他妈的
幅
人会换
顽
敏行
计算机专业
肿毒
原色
防针
疑患
两至
八角枫
长量
科收
中寒
一升
半拉
化隆
药转
窦炎性
可狠
藤黄
里腺样
龜頭
证件
足球
所见
炎双侧
灵魂
不爱动
感官
派力奥
吮
哪条
连锁反应
胆汁酸
安博诺
清里
周齿
雄鸡
药炎
榆次
口腔卫生
麻将
血压计
紧贴
施图伦
排血好
肉肉
烧药
食胃
水来
下炎性
孕童
打前
得大叶
陈风香
药请
轮廓
因热
成后
半宝会
挺高
有奶
沟壑
夫辛
无梦滑
用瓶片
脑有瘤
A##.#
咸肉
派源
有膜
排胎
女女
淹
吃七珍丹
长有何
病足
铁铵
鼻长
不灵敏
坐月手
本方
塞栓
应酬
胎监
熟后
民营
遗了
低致性
剖后
弓形
能初
阴续
用卡贝舒
二十五岁
畸突
铜维
既快
调补
注重
第四阶段
刚胎
日宝
陆龙
成角
农药味
湿冷
观长
腹嗝
垂挂
变嘛
斤斤计较
硬膜外
刻有
已切
尤为
依美
圆卵
消么
新婚
女宝能
急要
想继
铁血
稀释
现脚肿
融石
會大是
夹膜
枕大
象荣
会尿少
右腿骨
会正
无名
舌黄
咕噜噜
眉豆
遮眼
症长
血散性
有吸
前略
运行
晚欺
CTUMRI
半量
条索影
伴纳氏
根不
喝掉
喷头
女功
全瘫
压倒
剪发
费事
及牙
脸成
个椎位
格雷
公园
干货
做吞噎
为眼
金眼膏
延续下去
输尿
吸鼻后
告别
如用
咆
零四个
七十多
大半个
Galen
利
科类
利通
放药会
一嵌顿
漯河
阴阳水
哑铃
上机
一个九岁
##hu
伴痛
改动
护唇膏
剧节
店能
痒红点
冰柏液
成效
頸椎病
肌里
動過
事坂
高说
舌手
癖好
详询
忙会
永药
美纳
植骨后
需去
内有个
极速
用侧
喷铺
抱到
恍
治用些
脑震盪用
小快
西宁市
米会
顿性
配到
时肺
艾司唑仑
相当
吃丹珍
湿膏
不怕
附一
能蒸
服侍
闭型
风尘
连贯
下病
通而畅
眼晴视
不會痛
血常
模仿
瘊儿
影想
地西酸
低产
谪度
檢查
用达肤
普遍现象
石性
致双
重者
黑会
纸板
一桶
指明
沙粒
账
澡堂
弓起
p##
别得
肚涨
后噜
尿尿多
柚
泌尿器
瑞格
發黃
药起
加德纳
群好
音大
沈
狭小
启付
包变
呈长
侓
宿便
起色
移入
伤要
泊甘
现涂
已查
通气管
个线
烈酒
乔麦
绿绿的
口线
囟
一二
大儿子
遇风
肉太多
破用
白矾
帽粉
夹色会
这点
胆惠
区闷
午觉
私护疑
外直
周反
崽者
这腿算
买缩
力佳
震痛
请来
天冷有
罗纳
宫针
梗阳能
低糖
得眼
肩颈能
巴结
右邊
己括
芙蓉
不累
粮食
负担
擂
减得
普坦片
交错
证状会
右小复长
万菲乐会
浓性治
夹出
长吃
共鸣
血影
伯伯
妄行证
蜜袋
抗痨
从而
完金
矫形
转甲减
辽后
LgE
糖膏
通关
嘉兴
推开
脉炎
频频
特红
荥阳市
肺炎球菌
加肺
GBS
吃曲美
没响
桥表
网球肘
转脑癌
喝会
老拉血
口一
瘀积
消栓肠
寶寶怎麼
桥形
约等于
吃成
小线线
氧气管
疼涨
剥要
昔康
中来
石衫碱
嫁给
不善
拐杖
想破
为佳
脑腔
扩张器
单毒
面型
推翻
春
省二院
后助间
躺倒
肿成
痢头
搐出
用孚琪治
肾石童
问由
期做
枕骨
其实
长得少
带要
离合
偏小能
宜昌
碍不碍
猫癣
重生
开具
碰着
一两周
抽脂术
血向
存及
轻和重
血氨高
飞蛇蛋
遮虫
乡村
肌留
疑血用
育之缘
男贺宇
电打
三脂
吃柏龄
游乐
tep
动抑
气能
脓点
灰性
泛发
出租车
瘦弱不堪
更昏
联系方式
得布
哑着
主演
太难
跳速
用特
腰侧
具体步骤
浑乱
软肝片
长哒
长衣
預激
达英加
龜頭炎
好时
高微
好麼
浮沙
微缩
异装癖
垂直性
坦啶
张雨宁
三夜
肝肌
这久
钾粉
喝调
流黄涕
自勉
前半夜
印度
放在
康复网
有尿感
环吡酮胺
溶剂
胆泥
左眠
甘脂
及餐
地坛
喝生
平阳
山会
保護
阴宝
血里
金茵
显得
平复
還會
麟癌
用宜
罗欣好
会湿
黄黄
炎和多囊
妓女
幕上
偏曲刚
谷粒
外带
邦达
药内
冠心
扎线
前药
农忙
帝王
结决
一抹
咬出
眼酸
唾
会喘坏
外显子
病毒血症
这不像
类产品
有降
##bpm
院能
房积
透光
军姿
冻脚
#o##
血尝
骨瓣
整掉
过西
有前
给些
几副
手诊
一打
药急
黑痕
sTAs
双孔
ai
科在
昨年
药肝
Xxoo
爆胀
颞前
狀癌
我吃治
富路施
温
结腸炎
三围
一套
白变红
加肛
我足
鼻毒炎
西湖
能染头
织
面甜
鲁
林会
完制
八号
周心
PD
brca
阿求
TT
专安酶
样痛
藤胶
蓖麻油
干澡性
曲折
身體
仍感
甲流药
腳氣
血高
姓名
pral
背景
泪点
双重人格
余空肉
隔奶
黄纳敏
早治
忐忑不安
能吃胞
吗啉
注油
版本
看不大
没到验
挤过
洞用
冻干粉
完号
swisse
耳上
数直
HT
黄有
頸
大忙人
流个
环说
姑好
伸舌头
㎜
白药
天停
纸测
软弱
没射
水治风
凌乱
NG
不能根除
间会
流下去
周流
家务
肌麻痹
眼鏡
三瓶
胃会痛
甲孕酮
准么
微循环
电车
铁行
云乐
照完
孰山
芸
结晶状
美多
多才
头撞
确症
散瞳药
安上
治除
髓质
不积奶
高照
曾心
提到
拳
小记
腹胀满
脓鼻多
赶黄草
印用
排解
吨
心活素
次胎
羚贝
会得眼
胆反流
喝养
要交
菲帛
司帕
一级预防
点局
下肠镜
肉食
因车
平菇
伊康
奥特
肿账
减毒会
肝复水
病好点
极有
美的
烤箱
肉包
什是
周走
诊好
蜈公
林嘛
复股
B#.#
做血疗
啷
火桶
泊污酯
烯酮
优博
可减轻
胃仙
孔会
洛神
昆牌
萧鞘
除术
露齿
益肤宁
过慢
没洗
顺其自然
查能
阻滯
截止
胶体
eo
玉溪
变样
这会儿
辨清
...........
热型
麟化
未掉
小事
八成
已烂
腮肉会
肉球用
板腺口
套扎后
便物
胃菌
儿脾醒
发愣
丁玲
K#
铺满
嘎子
做产检
自理能力
新年快乐
鼓着
乔本式
高新
小白瓶
軾
科研
yag
做往
渲染
太频
补回
青蒿
一年到头
分热
算数
乔治
兩次
史克
盘腔
肩衲
棉球
妹
有囊液
必亮
猫步
好玛
a#.#
性药
宫炎康
QT
黄班病
型镜
有套
自私
快变
好扣
乘法
嗜好
筛要
瘊会
纤微
明显改善
緐
PTSD
八十一岁
蒙会
千柏
c###
拟似
长嘛
用开
好智
姜水梨水
丁安
术术
输克林
三四
立消
有校
喝东鹏
汗脚
暴起
打先锋
起像
手挠
丽科杰
肩耸
碑脏
血里会
说通
原由
毛果
牙本质
胶对
膽囊炎
散点图
镜面
煮沸
多房
切刀
必須
当场
疮疹
桅
频射会
上栓
上牙套
炎寒性
拷
酸牛奶
三系
天替
亚心
孕九周胎
心录
一两分钟
区张
享延顿
过牙
有沫
##kg###cm
一断
出无精症
补剂
较多应
复肝
锒
痛苦不堪
吃独
主诉
吃罗蓉
马多
前来
湿嗒
偶时
查准
退复始
起石
凡大叶
巨痒
坚挺
累积到
停过
服肿
外洗
喂光
总忘事
啊呀
青能
晶珠
镇级
无障碍
算肝
汗机
精来
尿查
取栓
完双羊
方可
单么
腺病
那一
光氧
漏液
细胞分裂
总便
热压
度供
能变
naxieq
内角
氧擦
对证
精神衰弱
触碰疼
内眦赘
雾点
好红痛
饱克
crp##
抽鼻子
再備
既视
消食片
心音
用酮康
指出
茶润珠
ssri
九十天
培元
韦乳行
龙玛
哺
皮胆测
介吗
喜疗
软疚
白泥
下星期
亨延顿
西可韦
有夜
高浓度
男颈
墙
嘔吐
北大
老睡
瞪
苦胆
前负荷
率多大
打丙
手巾
春冬
位结
养目镜
天圣
用费
gG
幼体
爬子
血都验
右足
癌炎
核妇
亲头
肝大肝
OTC
终丝
SEA
斑菌
密麻
hcv
千
问下解
自复
组会
海风
百眼
加输
很喘得
不犯
天出
赞比亚
发啦
脫
复善护
电伏
全退
孕棒会
什魔病
溃痛
先见
织炎性
安徽省
赖氨酸
支起
无语
开一
好拔
非均质
放曼月乐
蚧
安在
恼火
懷孕要
手豆肿
后常
松用
DDS
眼爱爱
计划生育
治加
时不加
呼慢
颈项
拆膏
安络血
硬不疼
颌部
醋白
DAN
胆绞疼
打卡
高酸尿
进藏
kpi
总给
熟人
缓用
照亮
冲动型
熊旦
双歧杆
出肝内
劳务
哈米
绒促
看物
全乳
##u
燎
温箱
恉
意外事故
莱芜
并胞
天拔
改过来
问号
眼要
球腺
紧疼
脑硬下
横胃
上望
一孩
看解
眼栓
流黑血
比尔
每星期
美尼
根峡
岁断
复松片
可棉
cd#
阵痒
一个通
颗肉
比产前
乱搞
症伴
rw
巴掌
后拉绿
济
会导直
能用炎
后癌
无时无刻
揣气
星群
有肠化
动术
胃片
曲线
连发
拐棒
苗岭
组筛
有微
外径
天呀
多骨
比足
所答
一齐
菜籽油
上下床
核能
蛋花汤
尼丸
做盆疗
幼师
总拉
手贴
总高
犹
豚鼠
奇亚籽
眼晴里
嗅敏亭
法好
我算
舌腹
长肉粒
潜伏性
三板
时后
水肺
不照影
鳞妆
心塞
怎能治
遗留下来
通過
右膀
药哈
型解
海蛇
阿普唑
到手
我疑
睡否
生蒜
半泪
蘚
前夫
大胆
癱过
失气
力康霜
确定性
霍胆片
门炎
问下胎
状治好
膏拔
乾眼症
影疼
二万
道理
处赘
仁青芒
肝伴
宿醉
录雷
这聊
北医三院
旽
牛角尖
川楝子
药能治颈
加三
迸发
失音
已尽
举例说明
勺炎
去势
耳隆会
边缓
内检是
罐肠用
歪头
流净
冒风
肩后
绕劲
长嘴
三颗针
下解
无精有
有肿
自翻
症动
业
回正
气流
刚上
腹下
兑
替莫挫
每天花
官方网站
打疫
看病贵
节制
腹型
泰尔
涂上
东动
用托佰士
涂克霉挫
耳胀
要诊
清晰可见
触之硬
鸡脚
沂山
涂敷
及要
希要
上化
少上
老痰
忽悠
##xymar
纳和纱纳
试孕纸
黄坦
点痒
宫腹
并囊
躲床
亿儿
左尺
肝会痛
瘦到
下排
免疫病
周拿
木木的
my
户胃
#e
必治来
花开
写得
高中学生
喉上
特校
得疑
西地
肠攻
夹形
泼尼脸
面疹
血红
安脑
矬林
会入
自卑感
伴隐
南到
盲区
好用些
切排
刚过
烧鸡
带毒
医在
毒草
冷品
月断
发质
印到
鼻渊丸治
好方
我挠
胸能治
治句体
中躯
犯赠
凯纷
药防
肾于
休检说
趐
半热
噻米
会白
定向
全坏
并脑
喂饭
逛商场
大卫
有牙齦
胸变
呋辛好
疑症
没叫
XXY
回纳
有骨头
猪尾
mp
德病
时才
性前
速答
证做
手机游戏
gm
先锋霉素
因光
转型
型求
問腦震
长寿面
时口
还会出
宗和症
触碰会
及柏金逊
落入
乐克有
逐步
二分
肺气通
元要
寿
不牙
压过
后拉
BNP
症兆
下半年
赐教
㫜
宝鸡
左氨酶
alk
肺活量
低着头
饭会
个数
##mmX#
易感
下结论
症汗
创好
火山
后者
鸣能
请告
李圣亮
钾浴
一丝
远散
阴包
腺囊
甲癌
減退
舒液
胃方
地平
舒肝宁
我配
针同
硬斑病
三十四岁
精都
試纸
化便
帽是
某好
左海
割个
忽略
扰乱
两款
想约
发咸是
无精少
离死
生命期
XT
战栗
上能长
脑塞
黄行
印有
严冬
wen
坠床
插哇胶
喝浊石
吃哈药
完下
没破
外卖
水灵
一五
ngal
高底
第五日
症验
会停
看得清
皆
发辣
事要
咖能
耳背
完骨
腱
射入
好几层
靠水
精虚血弱
人形
喷涂
保注
天稽胎
会因
云香碱
请见
咳瑟
出鞘
好割
短而细
磕出
粉治
#t#
叽肝过
胃底炎
阿琪
加轻
完是
浓包
俞合
想换种
吃泰诺
是子
茋
缠身
中小
负压
粒能
梦见
牙银
加堵
治料
我药
如冶疗
衰盛
老含
洗服
从肠镜
呼叫
号头
FS
週了
非赘
过多能
一刑
指纹
吃丽珠维
gao
天种
陡峭
斗鸡
改扇
扭痧
补一补
退要
送检
眼晴长
才查
石附
症变
调蛋
李惠凯
急帮
冷烧
骤低
热涨
做心
精吃玛
流术
清火宝
浅到
乳么
呲
由流產
吓片
自控
咖粉
长疥肿
活多厂
双链
老娘
稽溜
女兵
迈步
要注
方肝血
用高酸
借掉
磷酰
炎筛
路该
点算
##KG
罗列
小隐
偏短
分大
要备
中效
拉唑行
##cmX#cm
有治过
酸酸乳
盘龙
公母
挂出
痒立平
面偏
自流
黄里
完造楼
罐头
培酮会
早安
洗行
胁间
牙子
性双
串色
暖寒
百想膏
鼻流
倒奶
脑络通
当患
订订
马兜铃
易补
吃宁泌泰
酸片
ds##
吃尼福达
连裤袜
华浓该
pi
汤管
辛有
吡柔
再欣
冶法
肾不疼
清虫
证名
徦
蛀空
开解
夜咳
山羊
很漂亮
黑糯米
一疤
肝弹
黑乎乎
金奥康
大环内酯
次算
桃汁
会亚哨
定级
玻璃纤维
长胎
胖脸
打糖
洗掉
症哈
血氧低
scl##
怕人
顺好
线光片
酒能
交待
完腺性
如人
振昌
坐近
不聚
盲该
多斤
染到
貧有
發燙
构纪
乍得
左氧费
低场
治后
驻斑
半块
胰脏炎
用配
白鲜皮
要套
手肿用
停验
咳要
已治好
胎囊会
记吃
性事
韦眼用
自酿
癌转
鞍状
药尼
抛出来
天冷下
张出
生牙要
脊骨
拔甲根
绿泡
脑梗需
一碰疼
胸与助
脚动
通脑
#mm##mm
翻来翻去
药够
千会
网购
内障
珍视
红痘
真烦
右胛上
度用
躁
用吉
该点
雀巢
成风
总爱困
昏可算
龙心
骨质酥松
减有何
ocean
吃麻
麦咪康
深夜
兑水
开吃
后钠
针嘛
老爱忘事
过节
公共厕所
印红
甘素
斑该
用暖宫
易忘事
曲咪新
四类
自吸
玛替
有纯
溃破要
后得
feibu
显脉片
药退
碰触
改喝
窝长
天值
擦手纸
伴球炎
判
美丽
mx
餐饮行业
多厘米
冒血
留在
鸡鸭鱼肉
体系
穿针
病入
制话
四院
冰僵
营养配餐
纵横
胃豆焱
双瓜
出丑
胃发
二拇指
鼻耳
假腔
鼓骨
软枣
过猛
腺要
化能
失失
管下
必定
止晕
凉席
一新
强迫式
寻
精神异常
搜去
担惊受怕
手想
彼得
净化
臭得
汤嘛
皮后
胃得安片
出物
广卅
炎膜
胃托
肤芩
应忌用
期手
胼胝
混烛
老走
多成块
带防
丁片治
乳清
露施
毛虫
皮病性
阿西
能邦
血诊
导融
羊脑
日本料理
患甲
挂点
最张
旅遊
胴降
一整夜
利康
养呢
肛口边
上室
左肩锁
#x#CM
給油
脚滴
调动
类别
糜后
长肉球
以累
普罗
降要
大半夜
油擦
宫旁
强化训练
病请
挫口
初中期
几点钟
闭上
五十五岁
六节
粗后
呼碱
吃窿
汤发
肾周
疮毒
脾大能
搬进
尖銳
越滴
欧阳
妇产医院
促后
不爱理
剪光
结气
三鑫
我应
显啥
绿灯
塌
尼尔
比大
车门
盒
沙普爱斯
hbo
逗和疤
做化
毯
粟丘疹
荚膜
底置
放疆
hcj
含糖
雷洛氏
紫车
宝妈会
咳速
白无
吴鹰
做供
说照
人中长
钻
极少量
皂来
奶好
窥镜
e#.#
饭去
粒白
男下
體囊
孕放久
人胺
附于
能始
单相思
炒油鱼
孕植安
丑陋
腹式
zvp
点皮
算重
肛里
舌诊
嘴脚
金元
人一抱
纤支镜
枣糕
体木
加有
滑车神经
mt
抽着
用宫
鲍温
色觉
###########
检查室
有虫影
几丁质
负做
用娥
非医
未果
没射会
缝子
秘尿科
市级
喉咯
拿些
肾孟
安医有
明矾
热身
发复
怎疗
我現
金卓玛治
Rh
那针
用吃茵
使不出
青医
手撑
損伤
多高才
染油
带油
ds
腰栓
pm###.#
识疗
放过
矯正麼
于甲减
要晨
问哈严
秀眉
瘡会
滚能
擒
小吃
有虹视
非少尿型
包破
跳蚤
防防
看亮
情有
血涕
瞎眼
肺痒
去定
##IgG
两杯
天枢
现未
股皮癣
区串
增胖
根茶
聊到
开利
藏医院
对眦部
特胖
位眼盘
盳
测血能
长膘
比较显著
感光性
ou
总么治
红掌
大癣
凤宝宁
我关
嵩
伴中
用善宁
带病毒
头囊
图画
指肚
动不起
浓疱病
清栓
转季
刚行
湿会
可拍照
读片
变蓝
一言不合
探头
垃
柔
走远
团会
家猫
山泉水
杂个
帮握
宽度
这副药
对消
片该
土黄色
迪通
托环
左肢
优克
半约
盆骨侧
吃宝健
越橘
惡性
怡和
外肿
##ng
中糜
问下眼
化眼妆
内因
对接
瞧不起
两支
鼻子嘴巴
晚非
贪血
papa
非化
医让
月光
雪压
肤股
痛芝
通瘀片
第边
剂行
胃浆
配不上
磕破
氧死
高会会
一走床
药妆
度能治
恩病
环子
潜表
绵阳
针人血
越急
四十三天
女同性恋
断牙
激光医疗
旋昏症
蚕蚀性
斑片影
发该
老给
眼表
橘核
易坦净
烧焦
电子鼻
特细
全脸
质硬
未确定
還要
咽食
阴癖
大颗
油子
肌壁
抽能
昌
凡有
有治头
zenme
这课
有视
胸锁处
肛能
齐心
内诊会
感觉神经
的藥
散瘀
事一
大床
特药
v#
香槟
用奥平
伤缝
输上
隔代
比大要
月宫
难免
残次品
有测
一版
会该
内得
易瑞莎
早操
说甲流
测血
有静
最靠
精锁固
花舞
变美点
火燎
鼻噻好
脚方
肾膜
Hcv##
管不住
毫克
神安片
勾型
酚图
减脂
日岁
打桥
加做
可下
acyw
不会弄错
图里
治标
用朗
低和长
鳄鱼
胎芽长
用火针
宽有
铜振
奈膏
华中科技大学
👧
劲椎病
这会癌
真假
癌光
近亲结婚
光头
带过
湿困
肾膏
胃透
第二道
漏电
萎
洪瑞
饭想
癌半切
分析法
吃百今
白块
狹窄
口紧
微寒
青鱼
浓壮物
冲激
自律
生碱
养颜
和善
依巴
药制疗
抽吸
青该
用筑美
检点
灰印
或事
服十枣
从县
曲唑酮片
尖疼
会得腺性
如上图
单吃甲
出炎性
三五分钟
天鼠
规范化
肾好
受冻
孕早
退热药
搞完
保单
停史
药之然
闷响
后常发
爱抚
该选
部过
百破
脸老发
疟疾疫苗
正方
有纳囊
苦丁茶
蛮大
四神片
狗皮
脂肪性
红色盲
左冠前
起跑
舒片治
襄肿严
克霉磋
会受
脉康
体像
医有治
治出
t#bn#m#
药哇
肝哀竭
iga#
炎妈
透光度
下焦
水果汁
毒菌
疼下
肿尿尿有
会压
剥史
喝乳核
敲
痟
补骨液
一跳
洗得药
冰硼散
全景
舌弓
按上
he
提防
每当
住油
噎阻
簕
爱奥儿
野山
過後有
泡影
信阳
压会
追加
阿斯
四號
邦治
纵裂
冲浪
除草剂
飞沫
风热犯
左枕部
溃破用
号口
喝血
崩片
预算
快速增长
蒸会
炎拔
长啦些
后内
活摸
林老
刘小荣
黑黄
科布
懷過
吃海
义乌
依照
耳心
当作
攥
坚壁
很绒
纬
体长
幹
能应
孤獨症
晒斑
嘴起
痊嘛
跟疑
肛镜
方对
会喘
牙周脓肿
青肿
宗合证
式子
以後要
广藿香
狂恐
影飘
诊刮术
脑梗过
怎祥
艾益生
反烧
两额
段数
哪开
有白尖
内深
杨圣凤
现人处
加强锻炼
回血到
相对性
脸会痛
须肉加
伤是
传倒
直经
儿童房
公共设施
疼后
肥皂水
露头
预苗要
食些
对病
离异
我解
减持
样无
汗发
香芋
点多高
###cm##kg
正视
輸液
跟会
经起会
水會
太差
脚扭伤
养身
金胆粉
五连征
认真
照料
多一些
应注
尤汗
TC
区囊
没伤
油性
怎该
林下
圧
张在
酸枣仁
症未
出红疱
草集
尿里会
不換
五型
龙泽
喝有何
癌脑
深约
看腿
越热越
尖部
呤
全应
完牙会
无脂
能肠
麻果
氯挫
骚骚
打祛疤
维量
hai
小解
HCV
头和头
用埃美汀
筋拉好
鼻唇
七籽宝
尤文氏
值超
马眼
抗精
酸特布
起疤
触发
指路
布拉
多近
凭借
翻不开
枪眼
BNP#####
铙
红疤
胃向
培美曲
五六斤
壁超
牙垠
加烂
调制
正安堂
治喻
酒石酸
仓
哽噎
男星
尿囊素
微烧
一舒
对铁
洗眉嘛
检测仪
用切
英
西瓜子
软四指
弱性
牛和鹿
烟能
合作医疗
豆粒
性器官
挂号费
鹿邑
巢包
帐
Xiazhi
多掉
枕后
升会
癌分
若素
吃巴柳
半瘫
剥嘛
艾婴康
爱抽烟
小腿肚子
值数
易悲
影晌
遭罪
血团
ghbbbbbbb
肠型
前边
钉枪
奶会少
后症
IA#
况脑
万孚
二十八岁
瓜子金
精备
菲娜
回弯疼
史手
捐肝
套扎敢
##O
性疑
涂派
graver
多宫缩
发医
巢宫宝
双克
纯粹
鼻子尖
浙一
咳漱
秒钟
吃蛇果
北方
痔核
糠皮
吓傻
DHEA
康宝
抵
肩带
把典
已侯
一千度
象牙
能学车
他行
难脸
歇息
挑多会
右肢
人绒
脚汗症
这开
乳林格尔
看太多
症症
笑会
号接
蒙托
西比
弱阳治好
握力
皱疮
成脑癌
炎吃桂芝
查人
炎对
缺会
病知
挂面
Rgp
已降
老子
推脂
刺血
一以
没听说过
手尾
诊断率
下宫
整理
更肿
生人
uvb
快五周
英流
中膜
高等
交谈
极重
排球
残尿
胃滞
肾四型
雷丸
默氏
及营
宁泌泰
每平方
依证
药還
散会
玩儿
易喷爽
皮衣
卞
能气
飞龙
融掉
带电
临沧
爱情
暖风
油麦
煤球
内舒拿好
吐会
宝空
恐高
来得
根冲
用膏膏管
帕金
索乐
宿迁
阻术
腿子
韦脂
消毛
炎怕
昆虫
ATP
叠加
眼向
怎破
白殿
紫苏
窗外
果干
病摸
短会
不着
钻开
##Mm
用汗
早测
用喜
高甲怡
五指
孔未
预放
山益
单硝酸
风化
研究进展
功能测试
肝太乐
水土不服
有名
喝御
证据
顺气
生下宝
晃来晃去
失代
每家
驰援
期又活
头盖骨
缩成
大米粥
##ML
液才
四叠
验單
高招
广西南宁
班主任
不顾
第二根
芬和甲
莖
原田
白玉
zenmebu
一个点
奥硝挫
HcG
图时
硬型
烦心
###cm##
他克莫丝
###E#
第五个
甲粉
孔未闭
哪治好
發生胎
去体
头鸣肠
春节
濆
蛋痛
病得
神外
皮长
胖人
闻多
外青
坐不住
重口
一二年
凯尼
鼻酸
月径
入口处
管跖疣
超肝
过高危
骨癣
方苓
初愈
上排
脑池
指上
腹产有
郭利洁
黄色素
腫會
八九个
征照
长法
zzxxx
油漆味
支付
打苄
恋
栓住
淋巴腺
史是
半大叶
云锭
稍量
有眶
路口
触觉
桥吃益
甲盖
吃丹
死去
入冬
外部性
组织学
检查表
药吃来
不一会
真实
直哭
玛卡能
结咳性
有囊
超能查
鲜活
苦苦
六粒
系膜性
吸脂
粼状
喝雪
肿不痒
喝鹅血
葱白
野外
垮
热重
微红
盘点
要够
寨
溺水
双省
挺大有
颞脑
小面包
瘫软
折痕
流后
天行
大王
尿到
胆什性
掰掰
骨科医生
几百
上中下
出股
阶级性
炎不治会
脚肌
洛
扎眼
三性
多次通
回气
没劲儿
性寒
口底
固定术
后骨痛
指后
蓬勃
失查
阴一
反口
吃氨加
黄软细
过午不食
谨记
紧绷着
四加
體質
喷金因
谷有
牙木木
刚买
治晒伤
时热
只痛
根煲
白芸豆
写个
会令
抓挠
精无精
应吃点
用多大
得压
打写
夫乃
疑神疑鬼
扑腾
疼发
起牙轩
娇诺
受了伤
口喉
凹位
士
草籽
遇水会
都化
蒸水蛋
就会胎
重楼
湿度
在校学生
贴要
事先
低尾
天犯
有白圈
发能治好
欧脚
吞下
喜仔
真该
光反射
zmb
悴
银手镯
粗强
皮毒
鸟尿滴
罐注
吃健
burgada
适于
外漏
毒品
番瓜
辅舒铜
没尿
hpvL#
助产
CVR
灰度
多动性
多为
五一
补疼
志
喝头花
查尿能
糖能
丹黄
dpm###
服阿奇
老爱长
炉
精浆
贪食
脲体
阴精
环是
结水会
您们
阿普唑伦片
偏高为
清过
外有个
乳酪
神阙穴
大椎穴
会往
肝是
玩具
完起
信必
折裂
胸多大
掰
挑毛病
去暑
算全
有感
鼻舒乐能
妙方
致毒
蹲会
拔好
鼎城
起早
苗寨
回乡
仁青常觉
元月
每颗
治找
血青会
过会会
∩
涎腺
搞好
下全
zhiyix
老咳
渗透性
能不输
鞍形
做排
督促
医疗保险
∵
防锈油
产褥期
总卡
脱小
众说纷纭
长嘎达
有个治
病型
活腿
占有欲
用全
一抖
天未净
怎什办
個
卢大夫
阳减
湿洛音
爱会
手书
苯海索
艾博
坏牙拔
病能治外
侧隐窝
百福丹
动是
快掉
喝花胶
一触
质控
联谊
特硬
神經性
老喊
热后
聚肌胞
减和亚
胆康灵
微囊
耾
滴药进
对房
囊炎会
移殖
莫沙必
會體
用金肤
用丙球
下会胎
滴漏
涂除
湿养
立春
小得
极小
倒苦水
肾出
不擦
冻裂
甘之露
忆
HCG#.#
倒管
温水浴
皮厚
眼障
加酒
能接
长血
治肺
助孕后
清盐
菜汤
馅入
太低会
总吸
赵氏
红潮
十七八岁
用断
脑年
用火療
大前天
麻杏
用冰王
喝藍莓
斑严
几该
酒去
多牙
温烧
無痛
剂末
喘定
电棒
健身操
戴维
扎坏
網多會
触
索菲不谓
登科
臉和額頭
敌敌畏
疹治
四宝粉
读有
纠筋
水便
途
钢片
脚脸
幾個
美脲
值能
岳阳
体有
多组
粉得
流加
后膜
上岗
CiK
卧则
千年
来闭
已转
痛发直
用赛
粗是
用汇
趾头
水质
himama
就会裂
Lga
炎吃妇
几算大
俩对
吃点易
寒怕
加烤
九十九
脑上
鼯
算比
夜对
加柯子
毒力
细带
倒下
会拉出
韦卡
喝什麼藥
人中起
前熊
相当于
高精
坐板凳
掏出
胸挂
手把
叛断
有撒办
腹多生
骨变
参么
动无
收縮期
微化
全休
XN
烫水
诊乱
大腸癌
全息
消毒片
外板
打膈
肠意结
腺留样
如弱
吃胆
没嘛
聚体
红曲
失去平衡
或类
右骨
吃红茹
很抖
新发
半女
抗栓
补髓
氐
roa
水汪汪
网膜炎
请门
请速答
卡力
喷香
族片
亚麻酸
剃到
昔落
日间
脚治
脑补部
好几遍
下割
按去
問會
回身
企月
对线
老得
分為
一玩
粪块
梭性
有飘影
马黛茶
非布
泡饭
水补
骨底
扣掉
快前
声道
眼说
义能治
锈味
酿成
涂复治
够用
麻木不仁
亲润
抗愿
没留
#IGG
娃脸
能治解
小肿囊
穿负
頭痛
DNA##
喂狗
安全可靠
供功
镊
搞掉
遗传学
花青素
祝您
要冶
攻击
汗氏
省心
巴氯芬
白开水
复性
深浅
肿症
右颌
最深处
放药治
跟键
抽回
抗心
医嘱
何氏
指肿
抗敏药
CT##
伴感渠
多梦该
几包
脸老
皮发
实行
甲藓
內服
反流加
口形
殴打
漂移
闻会
孕六
后会查
鸡子
根起
头点
阿克苏
病打
肿病疆
四回
嗒
求付
法宝
女解
起皮癣
乌
能用肤
好油
墅
庵堂
加钙
亨特
涂炉
光治
地尔有
少得
疼通
刮后
间息
和晨
纯奶
纹唇
降调
海鮮
空孕囊
损毁
雞眼
⃣
那痛
手腿动
粉末
港大
软庞
躲过
用雷
节区
舍头
有酸水
路边摊
后会流
两虚型
起紫块
曲林药
亏损
周末
龙岩
女金
高粱
膏剂
没买
炎多厚
什以
拜拜
腰力
清瘟治
两条腿
辣椒素
只疼
胸毛
阴丘
搞不清楚
QS
陈醋
癌多
痒醒
缺鐵性
耳呜
爱退
伴结甲
CkLDHHBDH
小窍门
窒
穷
检完
體溫
全待排
一形
五颗
卡松
事例
优卡丹
减肥法
腸胃
减到
看得见
天男
马蜂窝
超准
蛋羹
君子兰
水光针
筋膜
当晚
包经
沙星片
疼内个
安阳市
浅度
代购
玩嘛
渗血能
背气
整容手术
治功
货
可脓硬
毒康
怎吃
涨合
公
渴
做卷
怎会事
侯会
男上
扭变
牛肚
射完
棚
用杰
吃二妙
甲拌
近排
床瘤
没得医
現出
美甲店
变视
粉条
全无
特粗
有麻痛
四口
血伤宁
矢状
清掉
这写
死路一条
癌后
不增
反嗝
全阴该
零三个
血宁能
个个
不冶
用止
脂性
畅该
安舒贴
坑能
养羊
包装
顶针
脸供
会吐奶
精神失常
体胖
林对
問經常
脸烫
仍有
前方
芸豆
听从
鼻滴
福克斯
欠損
視
完身
功血病
he#
淺表性
二十几年
氏病
baby
皮节
时涂鱼
扶沟
百分之七十
服右佐匹
缓冲液
受过伤
健可
振源
流了血
迈大
药求
孕空囊
交粗
输孢
热乎乎
闭缩
术士
地尔酊
假宫
促成
胶治
焊渣
糠诊
助
治头
晦
异病
应三
縱
脑梗刚
白袜子
里外
跪谢
雪症
#LgG
阻挠
发右
创产前
亨丁顿
深林
莱
耐信
修息
庑
lot
吃酚
十余年
恐白
遮住
会启
泥
前中
症段
普尔
凹性
分风
熨
同一
打抗
和生
长热
出心
炎证
氧是
伤涂
顶约
抗栓药
WHO#
动物油
聪明伶俐
总合
手工
妞妞
要人命
震颤麻痹
炎消
荞麦面
一塊
于口
甩手
谈话
药化
改正过来
茫然
根源
用腱
事向
癌己
用射
不苏服
患酮证
后尿不出
脑太
穿线
胎吸
生長
因吃点
起源于
牙关
大陆
阿童
轰鸣
手易
万会胎
能懷孕
跳伞
九号
菩利
周期时间
腰要
打死
沙普艾斯
打安痛定
电子手表
历假
保字
网球
漂呤
几十遍
喀
空难
般痒
皮宝
氯诺
寒凝
索状
完水后
水飞
内腔
粗喘
珍黄
痔发
遺傳病
黑制
喷布
略大
眼跳
玩不动
边细
左内叶
归脾丸冶
喉鸣
护养
小手指头
脱离危险
用补
腊八
有颈管
说错
迈舒
固化
冰棒
解收
流液
刚洗
没吃过
左痒
惊散
镜上
军海
较多会
求转
煤焦油
高温作业
会弱
HCG##
肛痒
素要
瓜汁
晕乎
胖疗
三亚
跟烂牙
和验
加甲安喋令
项高
二三十天
旮瘩
杠会
海扶
打氨曲南
石侧
榕
被家
三十几
集气
偏盲
跳远
楞
双补丸
必利片
人份
坍塌
华夏
新肉
管壁增
太好了
上制
冶愈率
ige
号诉
凡会
特好
文静
归单
炎乍治
蓟
得亚甲炎
肝硬
我舅
心筛
精不化
下火
病室
内板
比餐
側壁
舂
剖产要
稍宽
吃安儿宁
一震
带脚
不家
火考
因胃
检兵
LASIK
跟月子
香囊
做要
回落
大未
迪巧
西丸
鼻宁
透明质
申立
科男
看肌
完塞
精者
氟骨症
生物钟
涶
第四节
斯哑
哥有
胃下
乳制品
症肌
沈阳市
石韦
一用
不积
多里
没话
蕨菜
助间
背起
虚龄
吃辣点
右额部
好几道
菜能
下前
非委缩性
很嫩
扛过来
绝眼
口流
根去
合度
北大第一医院
华佗再造丸
朗布
米外
男右
耳死
软犹么
脂会
区深
t##
上痒
炫晕
脑袋瓜
及时发现
流到
伴生
全患
岁成
头汗
宫前
嵌甲症
冻人
处死
有眦部
肝区胀
子娴
涂完
晕到
事項
长见
白天黑夜
精等
克洛来
飙升
跳楼
冻过
修美乐
处能
治疼
应欢
孔裂
无数
儿泻
稀黑
专勿
图能
曲突
周期长
逆灌
对巧
干点
留是
电图
足足
伏立
周吉堂
动画片
菇
笀
比索
浅型
大衣
吃鲜
竿茵
郦
临表
高医
桃花
未孕会
阿法
重有
周照
睾囊
次生
针没好
胃复安
爱喝
牙基台
育人
鸣叫
大专
内未
哭过
处一
dpoae
手指尖
眼缘炎
有郊
湿咳
培植
手水后
阻梗
厕会
率过
能扎出
逾
遺精
卡唑
试过
夸大
好鳞状
长段
足状
性感
影响力
健儿
双头
豉
胖会
点燃
小诊
经隐疼
肠菌
年限
乐
叫喊
找对象
伸腿
普食
备孕能
鱼痣
老痒
里治好
IPMN
预防接种
问题解答
初时
用何
咳痛
及球炎
统称
用易
好裂
两三岁
慢气
头受
状甲
断药会
头眼
爬炸皮
喀麦隆
珍宝
药和涂
滚动
妨
那药
很苦脑
交大
问么治
佛山
几位
炎时
近几年
能吃念
弱阳该
初检
叱
软骨病
恐病疑
乌黑
能生口
针扎似
病龄长
困一
管不拔
压死
内倾
没钱买
鸣哮
青酶素
养鱼
性黑
显示器
仪么
包护
代茶
山来
炎偶
上饶市
顺应
翻得开
Yeah
铁过
含液
眼皮底下
过份
孕试条
通能
NOS
木桶
银道炎
天呐
诶
下页
黄莲上
催眠疗法
线上
不逐
时摸
药治得
王后
场效
液晶
起源
勒马
按摩女
伴中颅
胃地
病侯
人分
天测
潜负
内路
吃长
拥堵
元数
氰酸
泗粉
该持
没得解
付启睿
立松
蒜皮
得了吧
见癌
何解
要晨尿验
遮光
左氧好
伴肝内
Cmf
平残
血找
##xxy
直降
ga
缩紧
海鲜大餐
一聊
AU
这才
红道
验后
前好
面值
脸着
咳白
並且
ve
柏林
要诀
脓以
全安素
缝用
十公里
小马
以去
糜触
消息
益康
摄
事坎
黄药
伊曲唑
医疗费
很列害
ClN
高变
雌三醇
状癌
手术台上
咨询师
力锤
以手
积累
热晕
伤大
韦福得
可冶疗
吉非
长肉牙
胰线炎
非诺
冰敷时
加不加
小痛
药定
补它
水土
吃甲芬
线口
看光时
班用
容掉
次药
多乏
沫沫
环杓
被确
生肝源
皮藓
瘊能
三明市
癌常
颖
單子
部皮表疼
泰诺林
一丁点儿
灶肠化
液洗
会白己
长点
手肚
胸好
越治
续断
布特
隧道
障
郁静美
转成癌
杨才
波刀
胃疡
内八
儿长
有个胧
烹调
渣
孕囊会
退兵
喝秋
退缩
有丹
万金油
曲脹
霍金斯
刚硬
膨化食品
氧环利嗪
###E##
吃心
长冻
加一
冒起
牛脑
个人卫生
姜醋
毒癣
姿
阴到
痫症
IB
觉治
需忌
段会
肌会
腙
浦地兰
普诺复
x#
STT
肝右页
原值
无痛苦
得查
出会
活苗后
进化
尖盘
排脓后
辅舒良治
搔
软皮
拔甲有
洗牙有
能考
五周年
完多
昌乐县
趋于
感统
裂破
未次
精治好
龟沟
萎了
证会
点拔
种上
皮雪
加五
这飞
多磨囊
刀切
乘七
事有
特饮会
催胎针
蓖麻子
股浅
金莲花
PAPA
噎住
长阻
提心
护彤
腹稀
最专
湿滞型
前状
或睑
有宫
伤科
青枣
快捷
咨詢
老二
呼快
圆中
最药流
钻痛
平方厘米
测评
淚道
射出
需低
炎得
老排
异体
此证
电椅
梦魇
盖化点
吃得饱
孙相
立克次体
急化
我张
后牙会
异食
阳性菌
困痛
肮有
吉法
傅产
舒服些
错话
右腋
钟翠梅
七百
美因宁
感有
看些
优甲
咬不动
流嘛
暑假
约膏
平残要
我姨
高想查
肠间
北仑
不少次
解不完
得人能
HBSAB
储留
自诉
敏敏人
凝血因子
末闭
啮颌
麻涨
很容
好肿
炎宁拉绿
v#v#v#t
伢
胃蔻
尚
砂石
补精
我心
芦荟汁
浸到
剪才
转成惠氏
消不去
脸霜
因来
䏜
侠炎
我叔
有升
熏艾条
抽脓后
推背
张秀文
漳州
好红好
登革熱
骨维力
饱时
黄草
瞧瞧
灵牌
开合
脚破
农活
慢些
足后
RPR
牌正露
髌前
化风丹
不见得
打足
孕卵
参是
我点
凍傷
可莫司
肝囊炎
娘娘
lgm#.###
陈老师
深面
贺普丁
抽后
龙济
两虚该
c#
能治去
耍用
门冬
玉米粉
算上
肝页
搞不清
肤痒
台江
再孕胎
寻天刑
每顿
肠粉
尺动脉
心荒
隙性
得甲癬
早教
看下脑
左顶
守岁
嬰宝
足店
階段
婴孩
用养
后治好
吃维参
康酸莫米
舍根
拟腺
比郊
壁肌层
今冬
心硬
做射波
患风热
膀碗
冷媒
易困
金斯利
枞
床头
酿造
关节盘
察
具象
生疮
坐标
简
会不回
her#
肿瘤发生
本是
喝雅培益
减能治
眼黄
测是
洛韦好
氧性
望远镜
奇尼
突发状况
打弯
遗过
味丸治布病
黄藤素
招有
隐亭片
棉裤
微生物
喝鸿茂
后肠痿
没得事
碎石机
阿阿阿
拆钉
得医
总能
晨尿验
爱尔
玩晒伤
消液
得乐
雷击
那类
百忧解
仙人掌果
情下须
哈尔滨市
兵马
芙敏
金丹
特比来
双精
谈谈
配菜
型类
贴眼
生命垂危
规整
洗会油
鱼片
抽五管
蛋卷
液后
头脑清醒
能治多囊
站长
扩会
牛羊
低常
后遇
开录
性侵
时剑突
黴菌性
guitou
输错
說
##.###
陈孟
lgM#.##
十二点
鰓
成像
带会
瓶血
剩菜
后犯
颅磁
CR
增癌
我末次
嫖
发后
拾
喝后
期膜性
输多
肩疼
脂肝高
宋明
出刚
夏萨德
补得
但解
婴爽
最多保
想用
天那水
脉瘤
喷爱赛
草晴治
MRCP
资源
黄退
特困
CCT
供痒
单胎
黑边
靠右
度严
没宝妈
时挂
束支
絮
青蒿素
名师
想治
心能
过肠镜
克月
完去
八针
温珍
要化
哪此
支原
乱性
吃葆宫
快克能
纯囊
融入
伴壶
可医好
后卡血
注塑
永恒
出应
沟里
鉴护应
流行病
尤能
起壳
熟食
白蒿
活会
灶微
传么
喷门炎
开胃
手破
为腔隙
生两
氟斑牙
九九九
短袜
扩越
病干
手油
提拉
无数个
用百夫灵
真红性
同志
去浩疗
庆城
用环
双山
松鼠
龅牙
喝保灵
抗酸
后留
环宽
选错
单传
迎光
无聊
补上去
辩证
我过
边肉
和谐
板少
大大的
搭桥术
同屋
哑型
维安双菇
精华
易生
儿童期
药同
分岭区
嘧啶
会试
用洁尔
灵药
基素
茶树菇
务必
艰难
打羊
瑞松治
林来
吃冠心
乙派
色拉
血单
氯底
塞氟康
氨加
两形
大造
周差
两杠
病耳
耽误时间
里生
有丝
无尿
金贵
踟疣
乌龟
效用
克雷白
安丘市
xelox
孜然
微光
咳能
二爸
生米
夜游
金坤
累疼
有疹
稍底
纠整
烟戒
脑控
没戏
很肥
僵吃
裂能学
六十五岁
肛窦炎加
化州
唇红
母膏治
王华
男宝卵
白馒头
头低
牙线
空虚
左半脑
减生
阿苯达唑片
不回
隙腔性
法四
好几处
微发
今夜
曼迪米诺
药一
奶藓
后眼
用托伐
DMD
斜轴
混蚀
议器
症吃些
艾症
trust
查甲
弄水
大小不等
小数
传单
睡不热
病吃华法
完童
搭救
如厕
食料
吃妈
HHD
好丽友
终末
渗腿
没发
束带
含个
治脂溢
抽索
分秘物
举高
八十二
鳞化严
前三甲
心宝丸
冻干
低不低
福龙
健美操
炸整
地尼是
岫岩
天脸
参岑
更进一步
空隙
普林
未过
暈倒醒
镜框
点水
合烂
吃酸料
剥下
黑绿色
直想
飞到
炎再
虎牙
辨识
鹿胎粉
签子
科急
实际
包养
灵水
晕沉沉
#mm#mm
蓟宾
做纤
石了
摇哄
铅要
开宁针
完波
髖
箱子
二五
完胎
长根阻
炎钟胀
葎
那课
lCU
治不治
淡方包
硝磺
跤
蜷着
复水该
姨父
涂布
尿胆
有冻
六十一
痛烂
收索感
换算
腺炎性
贲
毒尿证
爱闹且
闪腰
之下
白脓
看白
买滴
反刍
衍变
地下室
用霉淋康行
型炎
月台
推进
主药流
拉栓
硅胶
干掉
能以
受得了
美拉挫
牛肺
胚宝
上布病
早查
adp
下多囊
放双
干且
较瘦
返复
吃益髓
疤大
同睡
复员
現象
兰光
###ct
日健
腰后
火毒
根筋
nt#.#
hdghjfghhjjjjj
完油
脱壳
颅內
后带
心切
利韦粒
冴
汗光
呼吸声
平行
肉样
电极
晋兰
又治好
盆壁
病损
钾高
赘物
脚干
现吃
欧
鸡腿菇
后缓
崎胎瘤
除此之外
就餐
频会
赌博
查疑
发堵
按个
暴菊能
实际意义
干水
周检
眼管
上会出
举不坚
淮
赵波
或配
altast
配梦
学懂
同等
脑细
离皮
全想通
烧糊
缺铜
呼入
舒肋
慢性期
仁青常
杏仁露
氯沙坦
打水豆
#lgg
打右
通直
长血志
腰眼
牙牙
惩状
值治
现痰
大和脸
戴护
同龄人
满脑子
失活
金钠
徐动加
发干用
二十次
上一年
消膏
越来越低
内置
能治布病
去童
会始
胡剂
手参
摔断
菲子
备些
以兴
样便
十一月份
嵌合
人胖
血精有
有小硬
贝壳
双源性
泡能
虱子
c#c#
详细资料
两负
性要
滴托百士加
喝鹿
转治
喝启韵
缺定
卢内
两瓣
三轮车
舌下神经
梦有
移植术
西好
那牙
天右
多片
三片
附和
偿期
拔下来
左沙星
后牙能
性颈
怀有
肿吃
保时
有肉状
走会
班级
百白
鹅足腱
GGT
国没
蓟县
叶下珠
脑面
肝细
完完
全吐
验上
#mm.#
hui
生娃
怎莫
前宫缩
心腦
米片
严重危害
HlV
高尿
布鞋
必经
膏要
做半麻会
霓虹灯
英太青
沙滩
jijiji
低好
精和少
养个
重制
十分困难
配美瞳
查婴儿
侵烛性
老人斑
vvc
伴伞端
通丸
精及
叶源性
风一吹
CKD
不太开
卷
有白泡
幾次
cd##nk
猪娃
环没掉
张锐
饮良
没太
隔餐
黄安
粉红
涨到
用门冬
疑惑
角菜
有紅斑
达卡
毛肚
山七花
或仰
活鸡
期后
含钾
就读
实际性
左通右
老伤
单克隆
会松
五十三岁
怎会
吸掉
过个
静脉滴注
倾角
需配
引进
下植
历单
印痘
晚一
精醉
没全
办事
非遗传性
竹罐
还原
用茵花
挂水好
高看
用定
疼一
唇样
肧
白眼
持点
生物性
校服
胃中
有齿痕
斗雞眼
气晕
用光
晨勃少
三弟
洗牙要
防治所
眼发涩
非炎性
腰坻疼
桐乡
三线
脸出
一累
里响
处光
加黑
运视行
血汗
患肝门
瘊要
惺
难解
手微麻
时胎
胸取
观看
两回
腚
校正
花镜
散光眼镜
返流会
洛西汀
真人
氯咪
白及
孕弱
鞘瘤术区
认清
压值
健脑
一搓
hsv#ab
前度
胸大是
亲功
它痛
妇检会
可宁片
石散
撤低
阴火
几能
证明书
成水
吸吮
要害
象数
满心
第一节
呼嘟
涵术
多吃含
水得
甲泼尼
问解
开米
三面
叮咛
有三大
期应
用类
有尿精
线处
波治
夹点
指腸
hie
求脂溢性
过大叶
刘玉芳
窝长个
雪燕皂角
左附
扭脚
交叉性
挑动
专冶
负作用
那能治
杳不出
切痣
出能
有米
嚷
刺刺
粉状
欸
啉
安乳方
使密
SAA
泄漏
丝炖
紧密
前中期
我想生
抹些
烟不戒
引想
难有
白霜
滚蛋
内体
多多指教
肠腔
鲜牛奶
相同点
针出
一热痒
窦式
被口
喷出
手化
导
套上
腓肠
丝蜜儿
前日
限行
筛骨
用鹅
体危
地尔酊对
安海
合拢
嘴合
精吃右
傌
钾肥
面摊
上海长征医院
素对
口史
做大梦
症和功
闭舒行
寻跖疣
胡桃
酞行
克洛干
臁
火炕
射得
直窦及
打网球
能食
下多
遵义
手木
拯救
硫眯能行
相挤
带癌
肩酸
顽癣
咋治能
文科
肿涂
双椎
提大
宮内
美罗培南
DSA
髓鞘
肉蛋
电瓶
核病
对策
起皮用
酥糖
今次
断经
黑黑
美药
记载
病时
初孕
会塌
会腿困
初变
换镜
阴根
仲硬
安环会
拆药
萝莉
第十次
老留
求泡
黄龙
求答
伞段
产复康
做妇
CmX#.#
后牙碎
恢愎
耳穴
痔伴
智疗
眼干口
账疼
长一
退钱
优思敏
光后
血潜
物像
轻塑
吸完
完贝复
宫高
做用
墨汁
好似
山海
树状
脑堵
爸手
撑开
泛力
相差太大
护理液
日行
破出
贝丽丹
胃潰瘍
陰囊
对取
求介紹
完线
夜见
反腰
部落
高丸
用邦
没是
吃肉蔻
需内
索坦
数日
深及
哪根
混用
割脉会
偶
看胃
老手
中医理论
肺疾
犯得
潜表性
抗宫炎
煎蛋
主人
泡泡糖
┳
年数
額
孕是
青囊
藥比
凯对
牛筋
点严
寝室
头胞
农科院
需何
这正
时想
粉嫩
凯有
情况紧急
做功
喝百令
痔膏
白砂糖
杌
黄秋葵
证个
入盆后
张磊
瘾
辛芩
不举
高原地区
小尖
恙虫
鈦
腾
会闭
会范
耳骨洞
舒阴宁
叶小
充
多血供
易留
实拍图
绕经
肾内
证退
患无精症
榛子
ruo
芝麻汤圆
ED
下挂
荞头
米力农
糜
架痛
毛症
增重
............
年现
改药行
慌会
百瑞
夸张
睡一觉
绒癌
桨
汤饭
不补
已去
洛地尔
保养品
乱交
阁
痔能治好
危之分
志根
苍
融
奥德
晚晚
vp
泡菜
布鲁病
头尾
拔线
生养
咖那敏片
木子
打绒
好想长
留痕
杀牙
恩母
喇叭
江湖救急
消红
心疑
喝特仑苏
