<pad>
<unk>
<s>
<\s>
药
慢性
宝宝
手术
感染
子宫
急性
治
检查
月
囊肿
怀孕
感冒
息肉
过敏性
性
胃炎
乳腺
孩子
阴道炎
治愈
病
疼
肺炎
导致
宫颈
湿疹
糖尿病
增生
术后
内膜
发烧
新生儿
小孩
结石
药好
肝
结肠炎
打
损伤
小儿
肛门
药物
流产
晚期
患者
复发
瘤
支原体
咳嗽
咽炎
肺癌
鼻炎
前列腺
做手术
高血压
静脉曲张
肿瘤
骨折
吃药
乳腺炎
效果
根治
糜烂
卵巢
心脏病
出血
肥大
血管瘤
积液
前列腺炎
抑郁症
障碍
中药
眼睛
预防
肾病
过敏
荨麻疹
传染
肠炎
直肠癌
甲状腺
心脏
先天性
胸膜炎
疱疹
病毒性
皮炎
尖锐湿疣
婴儿
头晕
盆腔炎
哺乳期
综合征
疼痛
女
胃
恢复
轻度
饮食
神经性
结核性
炎
输卵管
产后
症
粘连
胰腺炎
黄疸
型
紫癜
结膜炎
男
肺
综合症
精索
大夫
痔疮
肝炎
痛
脑膜炎
切除
疝
贫血
痒
脂肪肝
疫苗
妊娠
结肠癌
肾炎
上呼吸道
胃癌
肠梗阻
龟头炎
脑瘫
发作
念珠菌
细菌性
腮腺炎
病变
钱
调理
鼻咽癌
脑
肝硬化
突出
尿道炎
扁桃体炎
支气管
左侧
衣原体
确诊
化疗
孕
病人
转移
胎儿
颈椎病
高血脂
包皮
哮喘
近视
功能
中耳炎
大便
宫颈炎
霉菌性
用药
关节炎
淋巴瘤
细胞
轻微
传染性
多囊
儿童
癌
不孕
乙肝
男性
查出
月经
重度
疾病
红眼病
恐惧症
孕妇
病毒
脸上
中风
肺部
膀胱炎
发现
胆囊炎
下肢
中医
尿路感染
头痛
支气管炎
膜
红斑狼疮
异位症
肾结石
胎盘
紊乱
阑尾炎
阳性
肛瘘
体检
视网膜
窦性
性皮炎
焦虑症
与
败血症
睾丸
诊断
鼻息肉
宫颈癌
结节
皮肤
不育
浅表性
胆管
肺气肿
缺损
后遗症
白血病
溃疡
鞘
腺样体
鼻窦炎
脱垂
纤维瘤
垂体瘤
神经
反流性
肝癌
萎缩性
体质
幼儿
神经官能症
乳房
十二指肠
动脉硬化
挂
胆结石
阴道
脑出血
缓解
复查
早产儿
胃溃疡
脓肿
纵隔
肠胃炎
住院
附睾炎
食管炎
母乳
禽流感
肺结核
活多久
不足
附件炎
遗传
气胸
尿毒症
血
口腔
胆囊息肉
非
癫痫
肺大泡
玻璃体
脑炎
伴
脑梗塞
血栓
神经衰弱
溃疡性
先兆
胆囊结石
早泄
内分泌
心肌炎
患有
异常
失调
宫腔
尿
妇科炎症
滴虫性
乳头
胃出血
咽喉炎
烫伤
脐
心律不齐
扁平疣
急疹
服用
钙化
食管癌
肚子
蚕豆病
肠
炎症
咽峡炎
鸡胸
静脉
糜烂性
疤痕
肝内
厌食症
烧伤
女性
康复
血管炎
外阴
肋骨
肌瘤
身体
脑病
心动过速
假性
疣
甲状腺炎
混浊
右侧
中毒
晚上
腰椎
身上
腺瘤
失眠
直肠
坏死
腹股沟
乳腺癌
肛周
艾滋病
患
双侧
管
性病
韧带
老人
痊愈
脊柱
彩超
强迫症
阴囊
前列腺癌
畸胎瘤
肿
胃肠炎
脑梗死
肠粘连
食物
直肠炎
热
痢疾
风热
痤疮
睡眠
皮脂腺
黄体
右
沙眼
呕吐
出院
脂溢
疝气
应
弱视
椎管
冠心病
痰
子宫癌
积水
高热
小叶
脱发
惊厥
慢性肾炎
嘴唇
难受
癌症
包茎
神经炎
激素
中
股骨头
查
肾积水
堵塞
糠疹
排除
卵巢囊肿
胶质瘤
室间隔
系统性
胆汁
长期
唇裂
鼻子
原发性
输液
毛囊炎
肠套叠
宫外孕
肉瘤
手足
低
丙肝
颈椎
化脓性
医治
青光眼
心衰
脑溢血
淋巴结核
结肠
肾衰竭
头疼
腹水
同房
面瘫
胃病
性早熟
包皮炎
妊娠期
多发性
霉菌
全身
下垂
多月
心肌梗塞
肾囊肿
水痘
淋病
精神病
勃起
梅毒
腿
拉肚子
风疹
耳鸣
黑色素瘤
遗精
脑血栓
恶性
危害
鼻中隔
老
食道癌
锁骨
食物中毒
引发
B超
妇科病
肾
胃穿孔
胸
畸形
淋巴癌
白癜风
微创
胃下垂
吐
脚癣
风湿性关节炎
费用
脂肪瘤
牙髓炎
鸡眼
营养不良
抽动症
麦粒肿
白带
老年人
心肌病
带状疱疹
脂溢性
精囊炎
疙瘩
药膏
手癣
求
早衰
中暑
缺铁性
甲沟炎
肾癌
骨癌
腰肌劳损
阴茎
脖子
葡萄胎
口病
发热
专家
脑血管
半
冻伤
幽门
耳聋
肠胃
变性
妊高症
类风湿
初期
手
散光
红
动手术
膀胱
牛皮癣
喝酒
腰椎间盘
远视
偏曲
肥胖症
发育
自愈
脚
脱落
脚气病
外阴炎
风寒
前庭
顺产
备孕
硬化
软组织
妇科疾病
瘙痒
精症
非淋菌性
弱
手淫
危险
淋巴结炎
护理
脑震荡
喉咙
泌尿系统
结核病
早孕
淋巴结
血症
裂
检测
未闭
喂奶
肾盂肾炎
动脉瘤
萎缩
头
发炎
恶性肿瘤
高压
腱鞘炎
重症
药能
淋巴
b
动脉
耳朵
盆腔
软疣
性生活
小腿
流鼻涕
肺动脉
腺癌
犯
开刀
鼻
血管
肺心病
破裂
高烧
放疗
消炎药
类
胶囊
食管
抗体
百日咳
近视眼
腰间盘
植物神经
声带
飞蚊症
颗粒
恶心
神经纤维
桥本
生
激光
骨质增生
黄斑
智齿
膜炎
病症
痣
停育
房间隔
腹痛
分娩
麻风
膝盖
猝死
腹泻
肾小球
伴有
反应
角膜炎
胸闷
输尿管
肿大
肚子疼
龟头
早产
皮肤病
手指
冠周炎
腹部
海鲜
三岁
肾虚
内
风险
染色体
一氧化碳
妇科
吃海鲜
病理性
螺杆菌
无力
总
癌变
反反复复
打针
头孢
性功能
双相
功能障碍
伤风
尿频
下降
血压
胚胎
带
多囊肾
CT
口腔溃疡
银屑病
泪囊炎
便秘
外痔
斜视
保养
期
生育
不要
流血
ct
视力
鸡蛋
鼻塞
科室
脚气
甲肝
灰指甲
水肿
唇炎
贲门癌
变异性
良性
混合
水果
害怕
鳞状
功血
运动
手腕
病毒感染
大腺
滑膜炎
低血糖
发育不良
视神经
很痒
呼吸
不孕症
脑损伤
奶粉
血小板
#mm
周围
出生
肾功能
片
上长
生化
解脲
心肌梗死
呼吸道
湿疣
脑萎缩
更年期
红肿
甲减
洗澡
流感
硬
非典型
豆状
灶
死胎
乳头状
中晚期
肌无力
心包
死
颈
胎停
内痔
面部
脑外伤
衰竭
煤气中毒
窦性心
水
丘疹
脑垂体
膀胱癌
针
脑膜瘤
心肌缺血
擦
脑供
喉癌
白细胞
哺乳
嗓子
核
双
反流
发病
肺结核病
精神分裂症
流脑
干眼症
急
圆孔
伤口
跖
纤维
唇腭裂
附睾
异位
腰疼
房颤
缺血性
小便
食道炎
扁桃体
软
风湿性
颅内
汗
股癣
已
小孩子
糖尿病足
精子
脸
化验
缺血
胃窦炎
抽烟
湿热
洁癖
卵
水泡
疱疹病毒
腺
脊柱炎
神经症
血糖
缺氧
两岁
胃镜
牙
手上
腭裂
腺肌症
慢阻
状
扩散
脑瘤
心电图
大腿
氏
脱肛
蛀牙
眼
牙周炎
泌尿系
腹腔
自闭症
七个
肩周炎
胰腺癌
心理疾病
甲状腺癌
后期
消除
卵巢癌
疤痕疙瘩
病理
管瘤
地中海
干
矫正
牙齿
鹅口疮
侧弯
频繁
易激
关节
种植
化脓
肚脐
痱子
寻常疣
孕期
雀斑
北京
细菌
龋齿
会长
溶血性
消化道
恢复期
牙龈炎
花斑癣
腱鞘
低烧
酒糟鼻
副作用
功能性
头癣
胸部
毛细血管
痔
眼药水
脉管炎
体癣
级
导管
临床
办
脱皮
面
鼻涕
腰
斜
白内障
粥样
狂犬病
人流
维生素
左眼
父亲
无精症
由
神经病
忌口
焦虑
脸部
老年痴呆症
病情
偏高
涂
退
便血
口
结核
多汗症
口腔癌
色素痣
破
高尿酸
风湿病
胸口
供血
右眼
流行性
皮肌炎
针灸
便
乙脑
超
脑肿瘤
化验单
加重
浑身
男孩
依赖性
甲
筋
行
遗传病
腔隙性
小腹
不适
样
睡不着
皮肤癌
膝关节
外伤
奶癣
服药
猩红热
生活
牙龈
眼底
颈部
传染给
深
治不好
躯体
突发性
母亲
脊髓
胆脂瘤
截瘫
扁平苔藓
掉
肝脏
胆管癌
修复
女儿
扁平
处
休克
清宫
室性早搏
好转
分泌物
卵泡
脑中风
风湿
贴
转氨酶
消炎
帕金森
减退
淋巴管
泌乳素
穿刺
金黄色
尿道
颅脑
静脉炎
爸爸
阻塞
舌头
阴性
骨髓瘤
愈合
胆囊
乙肝病毒
强直性
发
鳞癌
胎位
胀
胰岛素
苔癣
丸
继发性
软骨
滴虫
成人
流
主动脉
丹毒
停药
痘痘
口角炎
血常规
酒精肝
结节性
稽留
肿块
阻滞
抑郁
喉炎
四岁
西药
宫角
失眠症
胳膊
分泌
上消化道
未
痛经
麻木
缺氧性
心肌
角膜
病因
女孩
膨出
接种
灌肠
营养
肠道
真菌
正
免疫力
胀痛
外耳道
支架
指标
出汗
肠系膜
按摩
甲亢
肉
前壁
椎间盘
酸中毒
胎
cm
硬块
癔症
史
大小
后背
鼻骨
脊髓炎
硬皮病
脐炎
腹胀
蛛网膜
耳石
输卵管炎
骨
周岁
屁股
下腔
肠癌
呼吸困难
大脑
脑梗
转
软膏
头上
黑
片子
骨髓炎
药疹
做爱
我妈
胆总管
心慌
色盲
风疹病毒
肌肉
月经不调
抹
昏迷
巨细胞
缓
尿蛋白
很痛
精神
乏力
特效药
胃疼
青春期
脾
瘙痒症
穿孔
两侧
头部
脱离
克罗恩
生理性
摸
宫内
返流性
智力
霍奇金
并发症
双子宫
囊
脑部
说话
心率
口服
输
阳痿
头皮
痛苦
骨转移
股骨颈
弱精
粉刺
手脚
下疳
压迫
黄水疮
剖腹产
注射
活检
晒伤
头发
上火
酒精中毒
乙型肝炎
酸痛
肋软骨
滑脱
抗生素
补
肌
霉素
低钾血症
甲癣
睡
锻炼
海绵状
老婆
中成药
好得快
癫痫病
太田
血液
外
心跳
脚上
根
食疗
干燥
空调
升高
种
喝牛奶
巴氏
不育症
消化不良
##mm
泡
跑步
浮肿
胸腔
骶
病史
肝病
排卵
住院治疗
复发性
因
十个月
休息
打嗝
尿急
肿痛
验血
胎膜
部位
纤维化
肚子痛
增大
宝贝
胰腺
老年痴呆
抽血
隐性
打预防针
脊髓灰质炎
血压高
黄色
女生
宫腔镜
下腹
较
减肥
消肿
梗阻
心里
指甲
裂口
血液病
洗
流脓
冷冻
急性肾炎
满月
气短
裂孔
布病
虹膜炎
阿
右边
肿胀
发红
感
造影
术
痛风
手臂
帕金森病
遗尿
眼病
霰粒肿
mm
子宫出血
体重
腰痛
副
麻痹
会痛
肥胖
肝功能
粉
内侧
小三阳
右肺
戊肝
腋下
心力衰竭
射精
伤
足
憋
色素
嘴
念珠菌性
球部
胃肠功能
拍
扁平足
睾丸癌
五岁
葡萄膜
预后
良性肿瘤
蚊症
孕酮
偏方
感染性
排便
腺性
川崎
艾灸
A
免疫
咳
膜性
咽喉癌
变应性
眼外伤
腹腔镜
胃痛
亚急性
早破
眼镜
异味
疗法
呈
红色
有点痛
栓塞
红斑
肛窦炎
二尖瓣
空腹
止痛
久
打喷嚏
脓
我爸
住
hiv
咽喉
肝胆
生殖器
听神经
乙状结肠
丝状
无痛分娩
减轻
炎性
防治
亚
穿
胆红素
胆碱能
腰部
经期
蛋白
胀气
鱼
免疫性
尿酸
好处
患上
老年
口腔炎
髂
盲肠炎
先天
高脂血症
磁共振
引流
黑色
疹子
牙疼
弱阳性
调养
过长
开放性
房室
发痒
指
潜伏期
干性
失明
鼓膜
难
主动脉瘤
肛
美尼尔
口臭
体
毛细
结婚
测
多毛
窦炎
心理障碍
冶
西医
气
iga
醒
胆道
声音
粘液
频发
尿崩症
爱
很大
保胎
精液
喉咙痛
伴随
看到
背部
换
腹膜炎
感冒药
如何治
心理
腿部
二胎
#cm
肺栓塞
热敷
皮
透析
传播
生命危险
肠镜
慢性病
脊椎
甲流
刺痛
铅中毒
酸奶
米
听力
双眼
退烧
心脑血管
尘肺病
四维
再生
三期
咬
密集
扩张性
颜色
懂
大人
糖尿病人
有血
嘴巴
冠状动脉
错构瘤
血糖高
留疤
肺病
重
液
专业
皮肤感染
割
疗效
阿奇
脚趾
酒渣鼻
反流病
降低
牛奶
除根
走
摘除
充血
骨头
上颌
发黄
心
爷爷
骨关节炎
起泡
坐
肩膀
闭经
抽搐
桥
退行性
障碍性
游泳
半月板
带血
化
麻
髋关节
裂开
白
拍片
眼压
引产
泌尿
胃胀
肌酐
血栓性
视
避孕药
剥
雾化
发麻
堵
奶奶
a
滤泡
吐血
出血热
血丝
腿疼
远视眼
分
治愈率
陈旧性
寿命
眼球
疤
酸性
手部
女人
不痒
恋物癖
腹
脚底
癣
颈动脉
血管性
汤
肾结核
褐色
改
尿路
嘴里
嘴角
遗传性
EB
泌尿道
消化
支
量
差
医
下巴
人能
青霉素
完全性
眼皮
肥厚型
奶
照
皮肤科
临床表现
滑囊
恐艾症
隐痛
一侧
抵抗
原位癌
甲醛
天花板
红细胞
恶化
年轻人
鹅掌风
歪
受孕
草莓
发高烧
球炎
干咳
空洞
吸烟
例假
滴
浆细胞
变形
假孕
常规
溃烂
生命
羊水
晕
阴虱
结痂
大三阳
复位
降
外用
母乳喂养
尿血
压力
排出
检查报告
预防针
茶
突发
复方
携带者
酸
健康
基因
油
喘
六岁
肝腹水
肺纤维化
肝性
预激
口周
男人
靠
气管炎
刚出生
生完
膏
脚踝
右手
脑缺血
复发率
熬夜
眼角
hpv
包块
开水
刺
痛风性
挺
试管
异物感
点滴
人工
炎吃
氧氟沙星
吃奶
吸收
复诊
疗程
食道
会痒
脑血管病
拔牙
胸片
梅核气
第一胎
救
血脂
链球菌
子
偏瘫
单
白斑
红霉素
心房颤动
群流脑
阴道口
放
上皮
缺乏
通气
炎会
鼻甲
嗓子疼
淋球菌
酒精
苯丙酮
包
眼部
硬化性
睑缘炎
人格分裂
尿常规
菌
什
脓包
段
三七
hcg
胸痛
性交
能活
小脑
性肺炎
碎石
无痛
老年性
疮
舌苔
晒
现
痒痒
慢性子
流感疫苗
尿症
性肝炎
斑块
斑
靶向
双肺
瘘
心脑血管病
面神经
生小孩
敷
车祸
大动脉炎
eb
戴
隐形眼镜
医师
外用药
发黑
脚肿
饭
脑袋
牛肉
止血
躺
房性早搏
死亡
羊肉
小肠
舌炎
肺脓肿
体温
涨
植入
乙型
小儿麻痹症
增厚
刨
低血压
高危
结
男科
左腿
弱智
咳血
抗原
吃不下
腰酸
坐飞机
亚甲炎
安全
消
核磁
双角
四肢
躁狂症
激光治疗
药会
碘
单角
多动症
慢
生长
产妇
粘膜
右腿
盐水
血尿
不痛不痒
三尖瓣
额头
浓
疲劳
药品
生气
乙肝疫苗
向
回
蜂蜜
放化疗
大量
HIV
皮肤过敏
巩膜
药流
阿胶
试管婴儿
内科
麻疹
胫骨
胆囊癌
做人流
核磁共振
精
甲状腺肿
细菌性痢疾
偏低
尿检
瘦
肛裂
多梦
移植
割包皮
晕倒
脂肪
痉挛性
肾移植
怀
服
眩晕
大拇指
异物
隆起
液体
鸡
尘肺
心血管
灵芝
人会
壁
双下肢
泡泡
寻麻疹
没劲
酒精性
开颅
孕晚期
乳膏
气管
左手
室上性
瘫痪
血管硬化
打点滴
光
婴幼儿
阵发性
皮疹
植物
大肠癌
超声
药方
治得
子痫
高血脂症
高压氧
烧
剧烈运动
烂
葡萄球菌
女朋友
区
拉稀
弄
下颌
头昏
左肺
胎心
挂水
短
青少年
切除术
胃窦
吹
抗
飞
消化性
嗜睡
度数
男生
骨髓
肾衰
扩张型
表皮
膝
球
流鼻血
消瘦
补充
止痒
挂号
道
右肾
滴眼液
三度
弥漫性
牙周病
不痛
尿液
血脂高
阿莫西林
证
进食
大叶
尘螨
夜盲症
菜
儿
药治
蔬菜
用力
囊性
切
全麻
胃肠
性咽
拔
理疗
第二胎
多长
涂抹
足底
里长
丙型肝炎
伤寒
口子
分离
病灶
诱发
淋菌性
双性恋
泪腺炎
久治不愈
断根
性病变
觉
交会
肉芽肿
占位
下一代
矽肺病
主
早搏
清洗
C
痘
c
放屁
脑干
排
炎是
通
虾
伤害
强
筛
潜血
外科
两岁半
脑水肿
血友病
手足癣
钙片
转阴
痛感
疼痛感
球菌
部
尺
新生
喂母乳
下会
超能
长痘痘
能生
病会
按压
干呕
隐形
人格障碍
黄体酮
天能
辣椒
止疼
血压低
次数
哭闹
入睡
骨肉瘤
自慰
周期
清
情况严重
尿痛
中间
家族
膈
白化病
脑癌
方子
T
酒
膏药
阴唇
吸
破皮
肺上
高血糖
四肢无力
胆
胖
全切
起水泡
白点
肾上腺
药物中毒
睑
补品
查血
红疹
肝功
乳腺病
胃部
创伤性
附件
辣
八岁
变小
危型
忌
块
烫
凸起
脸肿
性神经症
蝶窦
板腺
提高
性障碍
刺激
好痒
口炎
眼睑
左脚
桡骨
舌下腺
阴囊炎
甲硝唑
易
拆线
脐带
哭
HPV
炎有
有无
肛门口
药物性
变化
人民
背上
医疗
中心
症是
毒血症
乳突炎
量少
花
散
长奶
断奶
图
家人
误诊
盐酸
人类
特发性
疟疾
大姨妈
手术费
右脚
记忆力
肺动脉瓣
主任
钙
经
孕前
干涩
跳
梗
阻塞性
肾动脉
手汗症
舌癌
小朋友
浑浊
痛是
二级
先心病
伤风感冒
胸前
紧张性
颊
皮下脂肪
戴眼镜
糖丸
食欲
泡水
双眼皮
恶变
肾脏
痉挛
颅骨
眼科
阴部
达克宁
瘢痕
消退
饿
女童
保健品
阴超
窦
印
撕裂
岁会
退烧药
大小便
有救
气喘
小姐
蛋白质
风
胸椎
看不清
骨结核
偏头痛
恐怖症
怀上
口服液
症有
半边
眼角膜
登革热
房事
月子
不完全性
情绪
左心室
大出血
流水
停止
就诊
镜
力气
脾大
颞
蛲虫
浅
难产
输精管
皮下
肺大疱
末梢神经
中浆
霰
粒肿
老花眼
阵痛
一级
病能
主动脉瓣
低蛋白
根管
卧床
缺钙
臀部
毛病
淋巴细胞
冷
失禁
后视
栓
苹果
核桃
根部
凹陷
臂丛
胃肠道
出疹子
胸膜
右束
闪光
胆管炎
冲洗
hpv##
药好点
生产
偏
排尿
发白
大面积
长个
腋窝
人体
体内
白塞病
强制性
天花
而
检验
采取
巨
上吐下泻
氮平
口水
活
换药
炎用
睾丸炎
邦
坏
抽筋
药水
闭合
夜里
热水
口交
边缘性
窒息
骨性
外侧
有治
概述
神经外科
风湿热
贲门
狂犬
厚
降压药
反酸
角化
酸疼
孕早期
肌间
单侧
手麻
僵硬
流泪
心悸
排卵期
处女
育苗
igg
组织
电
鼻咽
叶酸
洗液
I
阴毛
部长
滴虫病
神经内科
心理医生
igm
溶血
痒疹
能治根
腺体
七岁
酶
胆固醇
背
十岁
孢子
刮宫
后应
补钙
脲
杆菌
约
间歇性
眼眶
脓毒症
横纹肌
测出
白蛋白
黏膜
口服药
非小
流出
红枣
小宝宝
眼屎
错位
真性
症会
泥沙
孤独症
隔
院
过多
婆婆
粑
犯病
腹壁
尿失禁
腔
狗
手掌
后脑勺
戊
牙痛
血流
多岁
报销
克
梗阻性
间
吸氧
基底
母细胞
震颤
脊髓型
月经期
脑积水
内裤
止痛药
B
有事
敏感
会厌
心功能
隐
脑卒中
门静脉
白塞氏
鞘瘤
马拉
垂体
塞
药才
白质
返流
肝上
近
配
下方
一粒
麻醉
养
成年人
人参
鼻腔
自杀
肺咳
干裂
筛窦炎
脓疱
曾
肚脐眼
治理
红点
粘
蛋白尿
代谢
好药
糠秕
拔掉
男士
宁
者
心口
石
心内膜炎
嘶哑
打呼噜
红酒
骶骨
潴留
尿道口
脚部
减
着急
达
呛
剧烈
扎
肉芽
喷
粥
低钠血症
昏迷不醒
结缔组织
好痛
血块
tct
健康证
增高
大腺炎
瘊
保健
站
抗病毒
患儿
尿床
右耳
周围神经
胆石症
嗜铬细胞
坐月子
胸疼
畅
香蕉
DNA
回奶
喘气
手心
叶
麻风病
谷丙
眼底病
益生菌
浆膜
四期
咖啡
接吻
吸气
胃酸
波
平滑肌
门牙
色菌
奶水
少许
韭菜
阑尾
不畅
拇指
结膜
色弱
肋间
特异性
葡萄
大蒜
男童
禁食
男宝
直
活疫苗
根肋骨
狼疮
狼疮性
凝胶
下坠
憋气
贵
精神分裂
迟缓
肿瘤科
上皮细胞
结合
咽
斗鸡眼
烟
红薯
氨
终身
胸骨
结节病
脑子
中耳
后该
辅食
药对
外敷
炎要
炎能
灌注
电切
糖
肿瘤医院
血清
结石病
祛除
九岁
镜检查
酮症
脚后跟
矽肺
自动
隔离
同
绿色
海参
加号
大病
发冷
慌
腺肌病
电解质
烧心
累
毒性
脑脊液
IGA
体外
男朋友
留
下体
黄水
抓
刀
门诊
窗口期
患病
肌炎
掉皮
老爸
胃底
蛔虫病
治療
发紫
疏通
女方
尿道感染
亲戚
类癌
白斑病
减肥药
红糖
听
搽
阴
亲
唾液
急救
瘘管
背痛
左耳
缓是
腓总
夫妻
脾虚
碰
中重度
用手
坐浴
脸色
全
开车
臭
零
泪囊
颗
有疑
液化
人工流产
插
典型性
屎
前胸
打鼾
肺水肿
皮炎平
收缩
刮痧
鱼肝油
真
阿司匹林
老人家
奇痒
有红点
心包炎
基底节
小肚子
正常值
遇到
隐隐作痛
醒来
二个月
嗅觉
丘脑
股
右小腿
核变
单眼
孕囊
葡萄糖
环
淤血
麻药
洗剂
生二胎
腹产
消毒
摔
胃口
上腹
外伤性
瞳孔
血精
x
调
补血
存活率
吐奶
一周岁
E
补牙
厌食
苷
肝肾
艾滋
迟发性
排石
检查单
隐血
男方
属
左胸
软化
除
线
小阴唇
肽
延长
能冶好
弟弟
耳后
脸颊
盗汗
发抖
摔倒
肝部
毛囊
源性
虫
泪
做肠镜
响
照片
关节痛
继发
嵌顿
恐惧
椎动脉
颅底
黑便
娃娃
药店
抬
发低烧
硬硬
传染病
高锰酸钾
补肾
碱性
半岁
吞咽
扭伤
器质性
动静脉
肌筋
牙龈瘤
酒精依赖
观察
外翻
妈
宫
头胎
玉米
闭塞
过高
癌细胞
西洋参
症能
本身
脑电图
鼻孔
养胃
心律失常
无菌
汞
桡
男性病
喂养
性感冒
心绞痛
轮状病毒
吸入
黑点
受伤
肺囊
一胎
压痛
粒细胞
有药
D
凝血
带套
床
流清
洗脸
蚊子
头顶
甲型
大肠
开角型
HPV##
真菌性
上药
美
夹
坠胀
燕窝
蓝光
发育不全
稳
太阳穴
吹风
酮
边缘
疹
南瓜
蛋白粉
潮湿
稍微
疼得
小孩儿
皮肤痒
肢体
脱髓鞘
伽马刀
红血丝
隐翅虫
防
切口
纳氏
宝妈
献血
干扰素
缺
摔伤
肺门
两肺
梅尼埃
周炎
颅咽
蜂蜜水
头晕目眩
近期
哑
右心室
后脑
占位性
根型
人格解体
率
药用
揉
侧
产
搞
连
粗
缩小
十
漏
受
双腿
窘迫
舍曲林
头晕眼花
奥美拉唑
眉毛
阴虚
仪器
宝
推拿
边
外婆
受损
小红点
唐氏
影
神经痛
凸出
下叶
蜕皮
骨肿瘤
囊炎
类风湿病
根尖周炎
意识
变黑
浆液
作
成年
癌有
干细胞
硬结
断
很红
射频
双肾
没来
榴莲
胎芽
洗牙
肠子
妇女
配方
诊治
病例
啤酒
溴
床上
己
挤
耳
神经管
迷糊
睡着
眼膏
喝啤酒
前列
挫裂伤
胃管
泄泻
虹膜
t
待
阴痒
食补
小包
凉
妹妹
谱
柚子
得病
三维
治疗法
心梗
松动
梦游症
粘稠
生殖
掉头发
输血
乘
吊
浸润
撞
心室
药都
进口
枸杞
做梦
碱中毒
颧骨
中风病
睫状体
肛周炎
视网膜炎
阻生齿
不良
可见
煮
转变
罗红霉素
三甲
肟
额叶
椎体
完胃
吃螃蟹
看不见
拖
优甲乐
消融
闷
髌骨
倍
我脚
动脉炎
拆
耳前
散瞳
皮试
穴位
年纪
拉血
妇产
修补
降压
挠
性病科
单核细胞
猫
黑棘皮病
刮
妈富隆
上起
怕冷
性行为
耐药
宫颈口
药来
女宝
中药方
较大
切掉
纯牛奶
炉甘石
板蓝根
寄生虫病
咯血
季节性
肾小管
胎记
亢进症
验
卡
物理
抱
五
小女孩
氧
吊水
病能治好
防疫针
出疹
擦药
眼肌
神经质
节
过敏源
饮酒
溶栓
区腔隙
配眼镜
双乳
通畅
止咳
病该
骨科
氯雷
新液
父母
死亡率
沙哑
季节
中草药
早博
右膝
代偿
对症
维
血肿
常
少弱
物
两周岁
百白破
张嘴
胸腔镜
非典
肩胛骨
M#
肾下垂
间隔
停经
窝
蒲公英
毛
林
蚕豆
愈后
手抖
粉尘
海带
肿物
肠化
脂
斜颈
中老年
精神病人
天疱疮
霰粒
媳妇
生理
血象
可乐
稀
降下来
透明
超标
蹲
安宫
二甲
围产期
症该
低热
眨眼
黄痰
脚麻
三联
唐
上升
几度
法
诱因
纵膈
药能治
脑内
二岁
后遗
藿香
面膜
舌
胸水
跳动
反胃
舔
换肾
准
受凉
这有
性欲
预产期
成熟
黄豆
肉眼
开裂
剧痛
肩
无脑儿
流眼泪
脑胀
腮腺
血气胸
IgG
骨质
左小腿
甲型肝炎
臭汗
臭氧
薄
喝奶
扩大
骚痒
唑
剖宫产
发胖
致
癌是
云南白药
腹膜
单发
贴膏药
能得
皮样
疔
发病率
受限
吞咽困难
喉喘鸣
上叶
风疹块
肛肠
眼药
胎动
糖浆
氟康唑
HCG
长痘
背后
脸红
就医
春雨
尿布
病用
金银花
移位
烦躁
喉
蛋
儿童医院
肱骨
肝区
胆石
宫寒
乱
血检
堵住
拔罐
e
斑点
过快
会阴
跑
炎该
出虚汗
冒
d
有脑
咽痛
起红
老妈
减毒
心房
火烧
脚背
酸胀
处方
气血
室
醋
一阵一阵
割掉
间质
知觉
小男孩
微量
切割
脓血
双手
房缺
运动神经元
喷剂
含
疗养
骨刺
鼠疫
软下疳
湿气
天有
避孕
虚
出血点
治才
开腹
转成
冲剂
牛黄
分期
闺女
生殖道
专科
过期
升
治能
脚痛
子宫炎
微
三周岁
法洛
急性期
针剂
手背
挫伤
飞蚊
下壁
放射
做肠
抵抗力
吊瓶
久坐
雌激素
快要
球蛋白
下腹部
低度
首选
一次性
花费
根治术
翻
咽部
肉球
忧郁症
病发
灵
深呼吸
痴呆
脚趾甲
室性
剥脱
护肤品
泌乳素瘤
丝虫病
风扇
三金片
剂量
加深
染上
破溃
底
蜂胶
坨
看病
素
癌能
智商
鱼油
螨虫
纹身
伽玛刀
内镜
伤疤
重影
精神科
佩戴
表面抗原
胰头癌
姨妈
塞药
要花
分散片
期能
替
不洁
时好时坏
疼不疼
营养品
病要
曲张
黑影
急诊
弯腰
蛋黄
吐痰
浸润性
肾盂
代谢性
梗塞
黄胆
软肋
有肠
IgA
瘊子
软腭
进
酵素
印子
TCT
i
水能
通水
综合
肛交
伏
中段
#a
湿
传
鱼汤
瓣膜
涂药
乙肝患者
插管
甘油三酯
谷维素
截肢
马应龙
克霉唑
绝经
脾胃
肚皮
紫色
淤积
劳累
休养
皂
醋酸
X
螨
外公
II
合剂
康复训练
药酒
溶
脑栓塞
精神障碍
掌
上眼皮
癌前
拉大
上应
##cm
子宫颈癌
灼热
方
氟
唐筛
生子
分型
布洛芬
流口水
半身
双脚
特
恐
血沉
割完
非淋
乳晕
下身
高风险
性激素
咯
疼会
未孕
性疾病
催乳素
抬头
妻子
安
下边
隐亭
细
待排
红豆
吃生
渗血
算好
妈咪
脚臭
甲鱼
渗出性
胃里
洞
半身不遂
颞叶
痔疮膏
钡餐
乔本
骨炎
皲裂
今
猪
骨盆
侧脑室
会胎
发胀
描述
检查和
娃
变白
鸽子
注射液
蓝
路
变异
咳痰
完全恢复
入院
青春痘
抖
坐骨神经
硬度
性爱
监测
解
糯米
缝
离
点多
钠
奈德
舌根
吃糖
病患者
一位
派瑞松
退热
破伤风
管事
附
多汗
转移性
喉镜
左脸
高血压病
能吃些
Iga
山楂
绞痛
豆腐
双胎
促
朮
止疼药
康
他克莫司
站立
腮
食欲不振
白喉
复视
症要
退化
交流
太难受
螺旋杆菌
伤后
睑腺炎
症狀
治疗仪
腹胀痛
花粉
撸
刚生
发紧
晶体
芦荟
查体
不消
茶叶
請
牙病
能治得
内脏
辦
抢救
会事
自卑
生病
心源性
柠檬水
农药
症用
挂线
肝右叶
前列腺病
牙隐裂
频率
化妆品
隐隐
清洁度
坠
身子
备
房
乳
肿是
成活率
凉水
医保
拿掉
山药
破损
男婴
技术
染发
减退症
杂音
头脑
磨牙
流感病毒
心理咨询
脑神经
牛黄丸
患处
劲
瓣膜病
植皮
包扎
中老年人
灭
促排卵
大半年
保妇
栓剂
宫缩
去世
米粒
诊疗
打吊针
撞击
起红点
病历
紧
危险性
喝药
吗啡
发烫
蒲地
染
小点
长高
失忆
M
过敏原
压缩
胍
伤残
狂犬病毒
脚面
海绵
视物
丛集
毛糙
溢脂
黑变病
甲功
闻
芒果
舒
促排
微波
杠
没治
绒毛
主意
炖
少精弱
姐姐
养护
有得治
中医院
b#
零食
消融术
再生性
六味地黄
慢跑
管子
核酸
火
变硬
严
很瘦
安眠药
儿科
流涕
氨酚
肠绞痛
肌电图
话
葡萄酒
正气水
过量
辅酶
喉部
耳洞
肺性
中枢性
挑
红印
稠
起痱子
固定性
毛周
性贫血
泌尿科
参差
买点
要切
打吊瓶
能冶
紫
呼吸机
拉肚
修养
甲胎蛋白
血型
什药
爱人
糕
着凉
变癌
吖
后脚
内服
地塞米松
虫草
心律
出血性
医学
腿脚
治根
纯
耳膜
右脑
草药
侵犯
口苦
中有
眼白
双氧水
髌
电轴
渗出
失
胃药
裂有
沙拉
叶黄素
汀
优
思明
多钱
逍遥丸
呼噜
双胞胎
器官
碎
开塞露
药要
克拉
阳虚
男女
隐疼
掉下来
羊奶
割除
炒菜
葯
发软
检出
治病
大片
喝完
咽干
拔火罐
铁
砸
呼吸衰竭
脚趾头
收费
#MM
短暂性
隙
大隐
下腰
绷带
血吸虫病
口腔疾病
耵聍
女友
胸透
涨痛
药后
康栓
会出
周有
鼻梁
弓形虫
不长
烤
肚
绝症
皮化生
度能
不治
感染者
持续性
高会
装
精少
电子
姿势
肛肠科
妊高征
流黄
内扣
佝偻病
抽动
发干
鸭
中叶
头胀
滴度
肌酸激酶
过速
眼晴
肾内科
生长激素
侏儒症
跟腱
牛痘
淡化
红绿色盲
露阴癖
坠痛
上能
小于
妇炎
五十岁
大包
没见
促进
率高
侧切
米饭
橘子
诊所
阴道镜
溶液
黏液
疼有
x#.#
夫妻生活
阿姨
屁眼
烤电
益气
天麻
头颅
吃什
发凉
抽风
寒风
摇头
出脓
双耳
中枢神经
泼尼松
解毒
淤青
肺里
上肢
丹参
老鼠
断裂
小针刀
微痛
打胎
会患
挤出
泡茶
鼓
脑膜
尾骨
止不住
鳞
分化腺癌
养生
孢子粉
血项
难好
姜水
潜伏
血红蛋白
马
创面
凹
复合
专治
中医科
疯
抓破
虚汗
肘关节
求救
皮蛋
st
降血脂
腘
肌腱
口唇
缓伴
心境障碍
霍乱
溢
星形
全性
舌乳头炎
瓣
肾阳虚
汤药
轻中度
前要
熏
同性恋
转院
完药
宽
左腹
拉伤
致癌
病好
炒
很胖
CM
病毒检测
土豆
疗
金
小宝
喘不上
胺
横
慢行
抗过敏
腮帮子
缺钾
修补术
电压
骨关节
喝多
滴血
脊索
偏曲会
念珠
水样
增生症
药行
绿
奶茶
臭味
物理疗法
鼻翼
鱼腥草
冻
内测
指征
温度
心烦
痛得
抖动
胸腺
预防措施
食指
辽
发肿
磨
哮喘病
果冻
下眼皮
强的松
塌陷
闭塞性
椎
手肿
脚痒
髁
三叉神经
脉络膜
L#
交感神经
谷草
长满
赤面
射
总疼
冲
黑豆
气虚
豆豆
私处
声
出血量
术前
ca###
鼻血
长小
锌
免疫组化
脑室
石斛
刺痛感
手脚冰凉
头孢类
肿疼
发青
心内科
乙
很着急
脑缺氧
犯困
纹理
口气
飞秒
哥哥
病程
疏松
错
阻肺
尿量
猴子
皮肤性病
冠脉
牙膏
祛疤
甘油三脂
口角
脱位
群
嗪
动眼神经
裂是
石通
多生牙
睾酮
把脉
自
脓性
女郎
孕吐
不成形
左面
冬虫夏草
大豆
神经节
缝合
乳汁
F
会阴部
肚疼
脸针
暖
发做
小孔
吊针
将
黑头
项
要命
dna
绿豆
癌会
房性
有治好
精吃
狗肉
盐
形
肠痉挛
局麻
误食
眼泪
上颚
精通
杀菌
脑鸣
卡介苗
肿起来
假瘤
打呼
酸软
死前
良方
牛羊肉
抹药
隔代遗传
催吐
起皮
中指
盘状
滴眼药
足癣
布
脾肿大
鼻漏
祛
盲肠
胃体
毛孔
真菌病
黑痣
假性近视
内斜视
藏红花
酒后
毓婷
女孩子
乳酸
精油
止住
受精
积血
熬
生育能力
粘液性
理疗仪
功效
月经周期
骑车
补中
后患
骑
流汗
暴躁
泌尿外科
尖锐
生姜
眨眼睛
病症状
一针
救治
紧绷
肺泡
没救
轻伤
梦
会肿
幻觉
亢进
钾
紫外线
弯
颞颌
高钾血症
戴美瞳
国产
皮脂
硫磺
滑膜
手汗
超生
锉
盆底
长不高
生存率
脱
股骨
鲜红
后腰
北京协和医院
姑姑
肠鸣
忘
右面
花椒
若
爆皮
检
黄瓜
无创
正气
忌嘴
打哈欠
六十岁
蒜
两根
创伤
眼花
蒙脱石
急促
出诊
肋
输水
有腺样
颅压
排不出
腺细胞
疥疮
ST
黑色素
整容
红皮
侧壁
眼珠
胆源性
急腹症
整形
诺氟沙星
保胆
肠瘘
脂肪粒
蛋蛋
用眼
鳞屑
垢
看不到
会流
cin#
要治
腰背
很胀
散结
超单
枕
美容
#b
阴超能
异性
庝
下床
南昌
有多囊
软胶囊
辛辣
口服药物
怀过
鬼头
汁
后腿
硒
主治
麒麟
听不见
急慢性
脚跟
水疱
换血
B#
汗斑
奥司
红茶
尿潴留
绿茶
分子
B型
H#N#
昏睡
抗结核
略
铁蛋白
自救
扫描
器
昏厥
失血性
枕头
菊花
结晶
性炎
前突
伪膜性
配镜
生牙
买药
降到
女婴
补铁
惊吓
丹
西红柿
粉色
地尼
尿素
赵
专科医院
青
李
诊
病后
果
老太太
吃醋
囗
危人
中要
癌胚抗原
白醋
扁
晕厥
拌
精神状态
骨骼
出水
字
单抗
强直
胡
罗汉果
鼻窦
鼻镜
慢支
制氧机
拔管
Ct
耳垂
电话
炭疽病
脚指甲
环状
泻
孙
布鲁氏菌
头皮屑
应激
风能
爬
髋臼
肝移植
尿多
喜
瞎
肝內
抓伤
皮屑
牙根
口蹄疫
皮癣
性变态
周得
恶露
剖腹
流掉
药流后
桂枝
樱桃
长斑
满脸
丈夫
剔除
子宮
传给
解尿
病菌
医得
我生
精囊
立即
化疗药
生存期
吃会
各
唇
肾阴虚
药抹
疼死
硫酸镁
肛管
产褥
压
结疤
艾畅
清开灵
鼻水
右胸
很累
脱毛
铅
硫酸
霜
抬高
韦
戒烟
麝香
幻听
鼻部
应挂
致命
灰
碘盐
有泪
胃涨
变直
芦荟胶
挑破
硬化症
肩关节
血泡
指骨
妄想症
分裂
寄生虫
梦游
伴肠化
金钱草
升结肠
m#
击伤
太小
ll
忌食
挤压
结块
补佳乐
产前
禁欲
味
高温
米酒
残留
岀
n
卵巢功能
黄芪
交叉感染
A#
男子
癌症病人
针刺
健忘
心脑
纠结
平
褥疮
疖肿
挤破
排毒
鸟
通便
发涨
利巴韦
阿昔洛韦
静脉注射
两眼
能拔
茶好
露
玻璃
姥爷
蛋清
开胸
吃豆腐
有脐炎
淀粉酶
回流
他乐克
钢钉
脾脏
冠状沟
腰上
系带
心理治疗
下颌骨
化生
BB
纳囊
苦参
小囊
坚果
咖啡色
子宫颈
每
杀
脱水
茯苓
💊
银耳
泡腾片
鼻屎
丁
针会
孕检
点状
实验
好会
尿里
雪梨
幼儿园
够
腹沟
脏
底部
鸡翅
罐
辐射
头会
李医生
粒
芋头
华蟾素
姜
睡醒
名医
中医疗法
困
女士
麻是
脓水
扎针
十六岁
黑斑
左心
咳喘
鼓起
cT
红痒
沟
玩电脑
降温
防护
肩部
Q##
肺内
姥姥
鲜血
肠系
吓
排气管
放射性
槟榔
血液科
止泻
视盘
血透
慢粒
开药
剥离
接触性
上环
着床
热水袋
靶
反射
咸
弱阳
高出
坐车
好治嘛
验尿
药敏
征状
蜂王浆
瑞松
药擦
五周岁
侵袭
选
局灶
成因
上部
易怒
动完
缓释片
外涂
嘴上
激动
胸脯
硫
盘
脓液
前额
洗肺
含片
肺叶
泡性
氨基酸
帕罗西
指头
胃粘膜
宁片
附属
中年人
安宁
左室
重金属
伸不直
胫
左膝
家族史
氏杆菌
减压
公公
内外
烤瓷牙
酚
滴耳液
青枝
翻足
有益
杂菌
null
棕色
灼烧
万
团
节结
替硝唑
心超
AD
雌二醇
刀疤
人型
托
玛
手术过程
右下
协和医院
抛
公务员
鸡巴
开刀手术
科看
喷雾剂
动脉血
空
扎破
肿起
右乳
根冶
症能治好
肉毒素
叮咬
应多
小鸡鸡
扣
姜汤
注意力
脑子里
初
钴
喉咙干
求看
氧气
气体
做腺样
四周岁
IGM
块状
能醒
有病
左臂
门上
地贫
我手
腓骨
硬膜
肠管
活血
心窝
下眼睑
顶叶
黛力
妄想
洗面奶
阿昔洛
普外科
织炎
癌痛
牙好
后位
药房
怀不上
免疫系统
硝
妇幼保健
照影
黄绿色
针后
前会
甘蔗
腿酸
梨
耳鼻喉
川贝
得花
能涂
洁尔阴
超级
一层
前能
内瘤
芹菜
治有
药较
手指甲
药方子
表
二院
️
造口术
脚心
式
绑
痂
口疮
秋季
鼻头
送
肠结核
一身
内科医生
周期性
易醒
扑尔敏
风心病
救心丸
先心
疖
坏死性
艾滋病毒
鼻出血
动态
下泄
电击
腔隙
孔
全能
AC
菠菜
有红
被害
脑科
酸钠
###cm
鹏
没消
HP
取石
右肝
完肠
头孢曲松
黄热病
口腔粘膜
测试题
幽闭
鹅蛋
避孕套
煲
印象
澡
刮片
花胶
妇科医生
痛有
钼
催乳
MRI
发硬
呐
鸭肉
伴鳞化
人工授精
黄是
声像
浦乳期
美林
心肺
保
儿科医生
针好
摘
糖类
孩
蔓延
粗大
危险期
脚尖
接
呗
清热
见风
烦躁不安
跳舞
茸
纹
仓鼠
叔叔
气道
漏气
利尿剂
护肝片
流食
迟发
精神疾病
部瘤
益
肠溶片
祛斑
脚腕
衰弱
疖子
常见病
藓
脖颈
躁狂
助听器
感音
牙髓
精神性
左叶
黄疸型
奥利
多吉
钩
性鞘
磷
验孕
取环
地区
封闭抗体
三代
男友
涨疼
汗毛
成活
针有
内出血
阳
小泡
检验单
怎治
艾叶
挤出来
复检
沙星
腺肌
夜
复
杀死
十一岁
生出
脐带血
针头
危后
鲜红色
脑功
肾功
腭
鹿茸
m
火旺
該
牛
多糖
喷雾
硅油
启赋
针能
大全
海鲜类
二月
鸭子
呼吸系统
灭活
家有
闭式
愈
胸有
家庭
要滴
卵磷脂
黄连素
嗜
脚有
心电
庆大霉素
苦瓜
低氧
扶
蒸汽
舌尖
节食
左手腕
运动障碍
S#
卡韦
门脉
司
活动期
乳腺瘤
牙齿痛
划痕
厌氧菌
大牙
泪道
泡面
卫生
机能
度会
粗盐
黏连
中性
样变
豆制品
丰胸
羟
ma
月龄
破腹产
瘤子
拉定
打扰
柠檬
干痒
痒痛
杂
治用
米粉
小米粥
小红
奥
精弱
无精
地黄丸
咪
口腔科
安神
洛尔
医冶
伟哥
翘
降血压
止疼片
肌病
多大要
冒汗
右室
大动脉
猪蹄
好大
骨龄
瘉
性脑
灼痛
豆
A型
变是
呼气
眼疼
IgM
硼酸
全身性
右叶
桃子
医大
腿软
曲度
发慌
冯
干重
低密度
瘦肉
桥会
溃疡病
期前
颈内
丙
多疑
后代
压抑
大脑炎
粉碎性
##kg
裂高危
胃角
利胆
丹皮
胰岛素瘤
颌骨
性囊
妇炎洁
整
啪
气滞
之分
腹疼
完针
腰困
盖
衰退
咨
双顶
入盆
镇痛
耻骨
甲状腺素
柿子
三角区
伴鳞状
受压
金黄
引流术
丙烯
致死
少精
开口
俞
✘
健身房
十三
症壮
苏打水
情
高级别
癌能治好
十三岁
样癌
高低
生殖器官
香菜
莫
jj
桂圆
胃部不适
j
有什麼
能补
蚊虫
少儿
抗癫痫
寒战
高有
两腿
免疫科
没力
偏瘦
驼背
学
张口
嘴边
肺不张
无痰
能救
拉粑
睡眠不足
菊花茶
常用药
泡状
lgg
背疼
生理盐水
拉不出
葱
希罗
龙胆
冠心病人
三高
心痛
打碎
右脸
左胳膊
前驱
纵欲
豆类
平扫能
足部
戒酒
##ml
卒
黄酒
精神病院
阿米巴
马齿苋
完肠镜
左肝
能割
伊曲
低血糖症
乔本氏
头屑
惰性
上唇
奶瓣
妥布
要拔
黑素瘤
有眼
衡量标准
免疫治疗
周能
龙虾
血值
血会
难耐
老疼
高三
盆
径
初产妇
阴蒂
胡萝卜
猕猴桃
报
天会
爱哭
康片
疼疼
非司
发物
后置
内口
类药物
撒
能备
做月子
问诊
羊
通开
电切术
致密
冲突
停育会
转移因子
条
大枣
血色
非淋性
淋菌
草
ABO
治本
性功
高原
非处方药
妊高
点儿
付
插尿管
脚疼
鼓包
鸣音
康唑
播散
龟
族
鸭蛋
职业病
本
侧身
气肿
焦躁
疼该
岁腺样
好发
速效
心病
孔型
爸
户
印戒
肚胀
狗狗
胸腹
室管膜
步
停奶
例如
求医
短暂
小腿肚
泛红
病证
坠楼
ac
趾
出肝
肾上
酱油
冠区
胸上
胰头
耳道
炖鸡
自检
模糊不清
呆小症
美瞳
角质
完汗
睫毛
验光
念
陰道炎
混合性
通液
丁啉
乳癖
胶原蛋白
超声波
小苏打
附院
催产
能吃生
愁
试
二十岁
抑菌
平片
剖
合
不破
产检
十五岁
擦伤
能能
反弹
注
性腺
紫菜
利尿
网膜
性传播
良药
归
功血要
后方
腐烂
灼热感
长过
睪
氧化锌
不吐
伊可新
摩擦
葵花
同仁堂
满身
菠萝
采血
胸外科
尿裤子
眨
眼红
通红
残疾
预苗
台
针眼
烤肉
人用
老慢
肢
营养液
脑梗后
划伤
白血球
中年
很困
乳突
骨膜
广泛
方剂
区域
活动性
薄荷
蜈蚣
煤气
有甲减
前叉
右膝盖
围生期
痛疼
干皮
牙有
恐艾
分裂症
胸是
s
螺旋藻
保肛
患肠
性肠
戊肝会
肛肠病
骨髓移植
拔除
不拔
黑变
畏光
性冷淡
身体虚弱
暗区
经血
茴香
金丸
团块
灸
脸黄
MR
捏
位
上身
地屈
蘑菇
打瘦
猪油
边缘型
雪糕
湘雅医院
虚弱
睡姿
火辣辣
皮质
我右
乳酸菌
打掉
侵蚀性
秒
北京医院
橙子
鲫鱼汤
秘方
烧退
呋辛酯
偏胖
生精
指甲盖
发脾气
爆
提
尾椎
混
##x##
香菇
竖
缺铁
片会
狐臭
药治好
阻断
鸡蛋黄
鱼虾
咽颊
没退
心外科
我儿
有类
突
一科
婴宝
生婴儿
翻白眼
求治
口中
喷嚏
灰色
吃水
发闷
药可
药量
颤抖
神经功能
利福平
定片
下颚
扒
吃茵
人应
血稠
湿润
崴
小拇指
脚掌
脚指
杨
怎嘛
期吃
臂
裂会
秋葵
伴肠
眼袋
双膝
冻疮
氯霉素
隐睾
上颌骨
春梦
夹闭
哨兵
##x##mm
变厚
奶头
沾水
破腹
未成年
家长
月饼
电疗
左乳
艾草
同治
雄性激素
乌鸡
原
宫口
肛泰
颠簸
疾控中心
戒
怀孕期
能照
后流
豆角
活性
红花
葆
长胖
L
牛排
妇产科
损坏
红外线
安乃近
全身检查
望
小妙
中西医
三九
信
甲状
刺破
低落
创口
不红
时得
得救
肿涨
流清涕
静
哪治
起奶
口吐白沫
稳定期
咬伤
浓痰
呆
荔枝
小细泡
突变
占
肺有
碘伏
粽子
鼻癌
滴剂
擤
开过
会越
白头发
内耳
还肿
球囊
胶质
脊
女能
栀黄
抗抑郁
幻想
购买
左肩
呕
瘀血
夜尿多
右肩
打完
脚脖子
缺乏症
应吃些
桥要
醛固酮
皮质醇
眼神
右半
中心医院
后能活
lga
性溃疡
腋臭
胳膊肘
蚊
肾石通
还会胎
长霰粒
血瘀
做药流
液性
白皮
内分泌科
TSH
唐氏儿
绕颈
缝针
厘子
羊肉汤
胚芽
隆鼻
寿司
蚯蚓
达英
当归
鹿角
衍宗丸
胚
引
衣
憋不住
拴
小黑点
會
饥饿
满
驴肉
不治之症
杨梅
多囊性
有效期
双氯芬
丅
白厚
酮体
西京医院
出冷汗
骨密度
火疗
河粉
环切
照射
紫草
痹症
桥脑
口罩
尼龙
十七
福州
甘草
体表
炸鸡
自言自语
鼠
偏头疼
味觉
化痰
刚得
番茄
滴丸
大宝
昏沉
积食
癒
脖
闹
打架
治能治好
浆
诺
上半身
脓胸
病房
肺源性
材料
一院
鸡蛋羹
甲氨蝶呤
沉重
过药
快死了
碱
嚼
脱臼
瘸
客服
室壁瘤
枕叶
镁
坐骨
脚底板
划破
腰突
能染
铵
疑心病
尿管
阿尔茨海默
吻
hp
煎饼
右肋
薏米
新长
解不
髂骨
酒酿
疮疡
剩
尿毒
色素性
巨幼
小肉
打眼
婚前
生齿
龙眼
太痒
难闻
偏黄
制疗
吃维
內
不起
头围
脑门
黄豆大
补药
空囊
麟
萝卜
环素
麻木感
下部
仙人掌
易患
劳损
置
螺
炎能治好
肥
肝郁
排泄
不大
药涂
会演
中能
高发
曲霉菌
长包
角
男孩子
妇幼
血糖值
藕粉
能治嘛
兼
熊胆
猪肚
皮损
疲惫
肌肝
厚白
这像
早熟
肚痛
腰酸背痛
忽冷忽热
并存
芝麻
轻症
高丽参
须
毛滴虫
用地
太瘦
机械性
码
夜尿
前症
冠
象
资询
吃力
百日
常备
止咳药
初诊
吃鸭蛋
趴
睑下垂
癬
涂点
呛咳
专科医生
左脑
骨化
憋闷
全副
虑
扁桃
抠
痛能
红是
吃易瑞沙
结水
肝能
h#n#
洋葱
清肺
重伤
心疼
左肋
失聪
肿着
肥大症
枇杷
甲状旁腺
梗死
大泡
顶
科是
中医中药
诒
茎
五官科
消化系统
丧失
体虚
胳肢窝
脑细胞
纤颤
退皮
爆发性
脂蛋白
暂时性
藥物
长红点
肿有
起搏器
腓
性骨折
拐
脉搏
补钾
吓死
海鱼
脚板
湿性
松花粉
吃黛力
感是
韦片
贫血症
经鼻
谷氨
戊型
太胖
冰冻
青霉
胆壁
伴肝
会转
結石
胃黏膜
降糖药
霍金
敷脸
癖
包虫病
翻性
唇膏
液氮
PSA
开髓
闭角型
做泪
涩
产后检查
利普刀
宫腔内
能药流
吃治
查说
起痘
异黄酮
管会
体毛
奶瓶
剃
腿抽筋
豆渣
十周
抗癌
反复无常
超说
单是
陈医生
迈之灵
肠胃病
佳茵
针扎
蛇肉
蒲地兰
天得
性关系
亲们
小龙虾
陰道
什麼藥
夏枯草
无味
肌层
月余
单上
周去
有性
吃达英
我多囊
內膜
虫子
卵子
庠
打通
脚丫
#Cm
随访
停胎
炒鸡蛋
奶油
IV
ca
爽身粉
下唇
肠溶
硝唑
X光
畏寒
预
鬼
网状
程
照光
亲人
监护室
有痛
发性
按摩器
痛痒
重感冒
瓶
大哭
病痛
眼下
十七个
珠
片状
咳不出
金霉素
刺痒
开瑞坦
临终前
第一期
果糖
高发期
变粗
吃抗
肿该
发苦
刷
情绪低落
隆
扩张剂
能养
搓
换瓣
中应
低温
副伤寒
芡实
做脑
撑
派
扫
伽
后手
鼻尖
缩窄
白糖
关节镜
血钾
乙状
整肠生
后侧
神经元
出车祸
环磷酰胺
手有
变红
钉
脑力
摁
神精
教授
无名指
耳内
疑病
溢液
仕
饥饿感
Rh#
嗝
八宝粥
呕血
嘴干
眼上
憋尿会
镜能
Eb
灼伤
拔甲
有肉
环切术
腹股
卡他性
近视眼镜
牙后
泪管
nt
泌乳
玻
脉
中后期
阴道内
显
捂
通不畅
煎
血水
保婴
痊
胯骨
痒会
呛到
艾条
卵黄
Hpv
筛选
变会
肾亏
坠疼
挂水后
菌群
淋漓
欠
示
偏少
红痛
挨
病检
崩溃
麦片
猪肝
天热
基因突变
長
三体
CA###
癌中
蒙
收腹
药材
逼
麼
手痒
蚝
迂曲
镜下
指检
会破
缩短
称
性伴侣
答
单独
硝苯地平
痛死
热气
恶臭
后天性
能输
凸出来
听诊器
螺旋
腹肌
闹肚子
大块
兴奋
吞口水
顾
少痰
舒利
鼻痒
袁
咽不下
应起
内酯
热疗
鹅肉
醪糟
呼吸科
参
有多痛
魔芋
孢疹
lgm
磷脂
耳朵痛
缓释
鱼肉
烦请
阴天
粪
饭量
没得治
沉
排骨
六期
二尖
第四期
####mm
巨细
六十多岁
产检能
疼醒
吐酸
脸部皮肤
火碱
金水
肾会
丁苯
棘间
后角
七星
奥美
自残
外科手术
O
丁香
疫
或卵
指关节
耳科
高蛋白
脚烂
性期
间盘
人格
黄鳝
肩峰
咽鼓管
鱼鳞病
倾斜
暴食
少突
球形
吃不胖
清创
溶石
化石
贝拉
a#
黑水
管状腺瘤
梦遗
香皂
瞳线
准分子
坏血病
裂个
带美瞳
牙缝
性洁癖
碳酸锂
勒
后过
放药
益母草
差会
挽救
蛮
滋养
神灯
抽取
刺疼
黑糖
X#.#
少女
黑眼圈
针要
牌
破水
水中
海扶刀
恐惧感
课
不流
才刚
冬瓜
孕后
NT
灯
片仔癀
毒
高潮
结扎
面色
##mmX##mm
性交时
打点
芒硝
戒奶
吸奶器
闷痛
昂
一味
缘
同济
炎好
y
扯
病严
能怀
木
麻麻
时用
沙棘
火龙果
曲安
随诊
转癌
宝妈们
管炎
昰
降血糖
燕麦片
地瓜
脚会
尾
随
西林
生成素
壶
低危
颗粒状
✖
异同
崔
隔膜
息斯敏
沾
专家门诊
后部
炎症性
尿少
催眠
长泡
会发
用丁桂儿
凸
周半
进口药
评残
遇
浑身发抖
咳嗦
灰尘
舒良
耳鼻喉科
薯片
特罗
蒸蛋
黑血
小狗
药快
狼
撤
头重脚轻
牙床
igG
救命
乳糖
瞌睡
下雨天
过敏反应
息
猪血
起头
瘦肉粥
屋
股藓
工伤
七十岁
充血性
长牙
颅
解手
紫药水
打后
上速
秦
烧伤科
烫发
渗液
Ac
男有
脑梗有
力
兔肉
末梢
菜谱
肿能
甘露醇
视觉
接骨
嘴苦
暴饮暴食
西乐
坐久
奥氮
张不开
化浓性
脊椎神经
轻生
那科
残
肾性
裂痕
淡盐水
吃恩替
伴炎性
吃米糊
门齿
鱼胶
肝门
克洛
系膜
灌药
褪
嵌甲
内囊
天花粉
美白
不硬
头皮癣
痦子
汗症
闭术
蛙
鼻科
牙结石
传导性
窦及
牙髓坏死
九
带环
水囊
水状
度多
微疼
刚发
油炸
抽液
那雄胺
雄激素
卤门
痛不痛
推
钙尔奇
要药
铁皮
拳头
强阳
CIN
均
😎
间断性
吃香
该输
w
脏东西
那囊
化胧
李子
吕
青年
右腰
止血药
科好
巧囊
做爱时
黄片
血性
雪
手术刀
腰骶部
挫
治疗费
久治
小指
锥切
灌
必
吓人
葡萄糖酸钙
降糖
艾
仙
变胖
造瘘
做后
葛根粉
III
用治
浓性
四十岁
百草
精是
精有
精会
功血算
湿毒
戊酸
出得
溜
老化
发火
pph
左氧沙星
左氧
半山
高龄
溃破
破壁
尿不出
液能
曲
肖膜
病情恶化
喷药
那敏
周部
吐出来
垂
机化
德
口齿不清
发酸
长跑
银翘片
头昏脑胀
小柴胡
甘草片
用辅
敏感性
孟鲁司
百花
淋
受寒
肿用
闷气
嗜血
辽宁
中带
病患
闷疼
一吸
适应
眼肿
黄连
小学生
好法
征
动物
诊断书
暑湿
肺小
存活期
肺用
网
南通
肠穿孔
痱
合胞
内窥镜
abo
茵
肌部
一过性
少年
体温计
米线
摔了一跤
心颤
有红印
参苓
护肝
胡言乱语
磺胺类
长红
歪眼
小臂
射血
褶皱
问前
胸锁
拉水
宣武医院
anca
宫产
医用
缩窄性
缝线
说梦话
神經
钻孔
脸会
过低
显性
帕金森症
锥体
发木
摔下来
语言障碍
体重减轻
眼科医生
根炎
C#
麻辣烫
可食用
初发
增肥
竹笋
结肠镜
#x#mm
粒子
罗
发痛
皮赘
利通片
尿疼
开同
茶油
nkt
骨穿
用维
髓系
特痒
内陷
痔用
生殖细胞
晶状体
十六
处女膜
房早
宫劲
尿尿会
试孕
诊刮后
右腹
做宫
甜酒
辣木籽
吸奶
果汁
宜
十月
要放
圈
鲤鱼
留血
鹿胎膏
v
坠涨
拿药
土方
糜栓
用管
多多
理
缠
雪莲
会诊
婚检
血细胞
生殖系统
女医生
炎好治
徐州
肌力
带状
bc
吃鹿
发愁
丁丁
新农
母体
共存
霉
扶刀
黑木耳
剂
T#
行房
做人
橄榄
冶愈
超看
奶会
腰椎病
精片
功血会
血能
巩固
微量元素
片治
节育环
对生
杂交
太疼
太夫
十几岁
吉
兔唇
鳞片
粉红色
吻合术
绣
二十几岁
尤
骨痛
症性
泪囊处
啖
猴枣
戒口
病况
补脑
麻雀
睁
挤眼
叹气
扭
询
用肤
还长
总犯
舅舅
范
鼻音
无花果
眼痒
雷诺
背心
药名
六神丸
鸿毛
经肺
银黄
煤烟
脊椎炎
茄子
打麻
安康
光片
敗
刺激性
肋部
疲乏
克隆
瑞康
酸麻
聋
端
螃蟹
Igm
冷热
西瓜霜
气雾剂
z
初生儿
性休克
泛白
喉结
离子
喉痹
放血
偏高有
傻
酯
炎炎
耳痛
肺腺
容
栀
碘酊
嗡嗡
头皮发麻
心闷
脑涨
淀粉
体检表
过敏者
甘草酸
回春
尿尿疼
棘上
间壁
右心房
太原
偶发性
钛
鸡内金
失语
电动车
眼罩
虾皮
老烂
昏
西咪替
光线
陈
三型
心得安
眼结膜
要开
整形外科
反弓
廋
来士普
官能症
护士
病发症
枸杞子
延髓
嚴重
麦角
颌下
耳闷
阳萎
巳
盲
増
小肉球
状有
麻油
远处
减毒疫苗
喷门
固肠
点解
郭
治胃
初元
尿意
拔过
渗透
保湿
伯
基特
特比
非手术
舟骨
镶牙
热疹
殅
膝盖骨
滑精
多细
有骨
筛窦
游离
积雪
血量
孕棒
取环后
Hcg
疼法
三类
疼胀
经济
白凤丸
遗症
髋骨
惠氏
探望
太久
腰麻
憩室
#A
侵及
总好
重力
根处
老看
多西
葡萄籽
性癌
黄素
皱纹
后奶
胸涨
禁
抗炎
激素水平
安全套
清洁
长毛
蜘蛛痣
岔气
凶险
混乱
对症下药
静滴
治会
擦洗
再备
早破会
臀位
人血体
净
指证
医吗
深海鱼
不治有
#x#
具体情况
女性阴道
中西
潮热
精能
补锌
活动力
功血能
昵
用曲
纸巾
碰撞
效
另
扎到
冰水
中医药
腔镜
唾沫
祛痰
扛
孕妈
酊
前列康
生长发育
口病会
手和脚
圆
咳出
什莫
狂躁
点头
无副作用
岁数
三文鱼
甲强
生长因子
站不起来
新型
脑性
吴
四季
咔
干疼
白痰
咽喉部
内服药
间断
热感
吃车
苦
毛发
兔子
鸡会
肺能
火腿
胶
听诊
困要
天冷
糸
胸会
膀子
牵张
挂瓶
根疼
会聋
lgG
泡破
胃泌素
血浆
酗酒
心急
有机
q
会导
滤网
杏仁
三院
皮质激素
老犯
脸色苍白
大闸蟹
患甲流
影像学
完刀
颈子
半球
补水
耳根
口吃
鲍鱼
肺出血
蚂蚁
八十岁
踮脚
婴儿期
自疗
外科医生
羟基
防疫
阵发
保心
护
心血
温度计
植
急问
下水
糖果
酞
受风
楼
利尿药
低钾
磨损
骨裂
通宵
舌下
激酶
被车撞
小脚
下要
治法
暗红色
雷公藤
性幻想
变瘦
性肝
纤维素
紫癫
疼时
神智不清
马肉
心房扑动
精神紧张
婆
指尖
臀
用什麼
咸鸭蛋
腋
脊神经
神经科
胯
点有
喉管
肩盘
摄入
胰岛
听觉
造血
自恋
导尿管
一两年
质子
裂高
椎弓
最低
转诊
白苔
有溃
胃液
干硬
针管
二姑
脱脂
壮
全胃
会和肠
挂袋
切肛
墨绿色
氟哌酸
中年男人
炎伴
光疗
回肠
组织液
肛内
钩虫病
不愈
排骨汤
代
晨勃
康王
点阵
手肘
近视镜
牙套
牛皮
白头
种牛痘
夹炎
齿
长跖疣
侧凸
喉心
窦炎会
全喉
牙片
龋
牙要
治沙
开青
阿弗
交联
拔阻
和疑
同床
花露水
胎囊
宫腔积
残留物
再孕
腥臭味
会带
新桥
行房事
备孕要
美容院
总起
色斑
惊醒
吃惠氏
完能
有孕
麦苗
花甲
药管
切片
uu
鳞化
鳞形
黄体期
环后
未满
调经
进补
触痛
散能
乳期
天药
胃肠病
壬辰
麻痛
遗
哒
蛋液
数
異位
肿痒
排血
超做
过山车
潮红
亲问
过胎
壳
制霉菌素
Hp
能验
小型
娃儿
遗传基因
野生
木瓜
状是
手術
抗感
静脉血
片行
归脾丸
脾丸
有宝妈
大黄
燥热
病愈
低阻
玉米须
E#
泉州
针水
多襄
糊涂
伊利
总医院
能少
药粉
插入
克林
星
尤卓尔
出月子
那一科
发育畸形
肚里
烧成
不吃不喝
病疫苗
半得
夜惊
寶寶
外凸
咀嚼片
羊奶粉
透视
整形手术
莫匹罗星
巴金
对脑
髋关节炎
冲击波
附二
迭
雾
孙女
吐沫
药剂
系
反流会
霍香
口干
凉茶
张卫红
叶有
眼会
没熟
能医
隔气
点药
打吊水
地酸
兔
包子
解析
传染期
保肝药
耐药性
药叫
花斑
胖子
劲部
积气
钝
解毒片
心理压力
打成
独角
鼻腺样
帮宝适
绿豆汤
自限性
补液
耐受
ICU
脱屑
银杏
确珍
射波刀
血像
肺要
先治
流型
咪唑
移植手术
不伴
颌下腺
侄子
肝肺
元
替莫唑胺
鸦胆子
能产检
十八个
精神压力
基
tsh
飘
青年人
蚊香
发霉
同工酶
虚胖
血粘度
头蒙
祛痘
频谱
下咽
水蛭
舒通
低血钾
断药
名词解释
J
美白丸
拉挫
打颤
q##
雅施
玫瑰花
干结
献
伤胃
害
渗
眼框
托百士
健
防晒霜
尿胆原
有三高
眼内炎
发疼
过脑
髋
九院
失神
噩梦
眼皮跳
奥氮平
通络
齐鲁
镇静
培酮
闹心
垂體瘤
脑外科
鞍区
胞
思想
凹槽
喽
暗黄
潰瘍性
結腸炎
辣子
ALT
肝大
痛该
胃热
肝有
四至
橡皮筋
口疼
指诊
留有
型肠
曹
痒用
肠壁
痔能
部队
窦道
疝会
发脓
屁屁
免役
康宝莱
请间
萘芬
肢端
腰椎骨
RGP
慢淋
l#
能配
天阴
疼痒
同性
脚长
甲下
皮内
脸晒伤
迎风
倒睫
耳病
天用
足浴
后痒
产前检查
苏打
调治
切出
发觉
侧睡
熏蒸
带好
苏打粉
dha
消乳
泡疹
降火
乳糜
合生元
头位
於
足月儿
骨缝
产程
下奶
缩
止痛针
打多
三叉神经痛
产科
羊膜
叶酸片
牛蒡
乳白色
淡
清片
安利
证能
肌注
巢
度要
侄女
少精症
裆部
小麦
矫正器
抽痛
蛇
中会
熬水
卫生巾
徐
顺生
天内
用消
澎出
酮康唑
要照
阻
得药
有赘
碳酸氢钠
缺如
比超
有心
松果体
我孕
南方
cea
抽完
戳
乳核
证有
粉能
胧
氯
人工受孕
玄驹
长不大
对弱
抗感染
功
中医医院
脑液
非手术治疗
反应迟钝
hellp
蹲久
瘤长
性是
通并
伞部
复康
十四岁
无限极
不割
刚动
黄柏
肥皂
阳是
单看
达克罗宁
赘肉
問問
沉积物
残角
依
病能治
包会
嗓
工
椰子
知
止
抚触
般
胡子
不咳
甲泼
胆碱
线粒体
有红块
僵
胸膛
闭
哌
结巴
多巴胺
泥鳅
脸蛋
肌膈
角处
冒烟
特灵
吃何
银花
烷胺
牙会
stas
临死
磷酸
苍蝇
花钱
鸡爪
不治能
h
植骨
榨菜
痢
会人
水蒸气
鸡血
复腔
灵片
猫咪
金葡菌
破口
止痛片
不动
精神恍惚
漱口水
妊辰
跟腺样
釆
越挠
后现
铅汞
吃利
药片
脸会肿
悬剂
丹参滴丸
仪
充气
大神
流通
丝丝
icu
磷状
发困
无意识
皮囊
凝固
鳖
内收
吐字
得脐炎
脐周
濒死
cta
听不清
上劲
胃寒
共
肌钙蛋白
粉对
几类
装修
番薯
感会
戳破
烟花
火炉
白术
高血
两粒
局部性
u
伤及
右臂
劲酒
闭不上
跌倒
小手指
饱腹
支具
潰瘍
突突
吃果
酸乳
吃坏
视觉神经
瘫
花生油
寻麻
叮
菜花
吃炖
医学院
能制
瘀斑
闭会
发晕
起不来
昔洛
红红
血尿酸
脚丫子
更痒
负重
能管
田鸡
救助
肉跳
布病会
卧床不起
咖
手腿
有冶
舍曲林能
茶水
强迫性
记
认知障碍
抓头
前臂
丛
萎靡
肽酶
栓系
忧郁
口有
芬必得
会拉
代夫
逆行
潜毛
斑会
桑葚
淡黄色
碳酸
血脉
肺隐
逆向
胃烧
闭口
鲫鱼
消化科
空腹吃
脉冲
素片
保守疗法
剑突
胃全
小血点
小娃儿
皮筋
吃饺子
肝丸
流性
指检能
有口
取样
性变
钳除
披萨
戊肝能
这肝
抛腹产
挖
累到
烧掉
花生米
摸得着
肠病
甲戊肝
腐蚀
肾痛
越小越
沙
苍性
抗核
小豆豆
林赛
非霍奇
老茧
癌性
唇部
库欣
软骨素
松软
眼干
疤印
眼都
三醇
侵润性
脂益
沙土
眼睫毛
黑印
处骨
眼科医院
活术
戒除
有血精
四根
鄂裂
发展期
吐得
皋丸癌
龋病
天胎
补过
oct
打油
改掉
制服
建卡
八九
养狗
做会
hcg###
棉花
难怀
红牛
长途车
优生优育
聚焦
没血
孕纸
标高
藥好
加味
经前
黄褐斑
@
白发
周胎
吃益
ad
脚会肿
追物
胎头
时要
内检
更痛
用制
闷闷
枣子
枸杞茶
做无创
孕测
懷孕
西比灵
变浅
病理切片
二聚体
已育
基因治疗
打美白针
黄脓
短波
左小
cin
用查
男吃
刺鼻
双球菌
宫寒会
气球
咨询点
抗菌
下疼
促孕丸
辅乳期
滴流
馕
肉块
革兰氏
匹多莫德
氧化
畸
蛤
宮內膜
排出去
完有
度该
红肉
治治
酿
藥
酸菜
戒掉
六十
腹中
病应
发生率
余
吃玛卡
成熟性
圣女
不生
沙拉酱
傻子
癌栓
#c
炙
病者
G#
百香果
醇
蟹
查道
夫西
FSH
紫河车
酵母片
取精
补补
番茄红素
涨气
长多
枣
节段
造
精力
拍过
兰大
想生
肌苷
盆地
固本
脯
禁吃
青汁
黑鱼
医药
p
裂小口
PR
蔓延到
东东
氟康
莲花
无极
红光
手疼
咨询服务
哽咽
全会
淌
孑
肺热
刺挠
膨胀
贾
羚羊角
袋
腋毛
白百破
打鼠
几时
壮阳药
r
经颅
伸
安律
补点
奶制品
亚宝
儿有
龙马
脸长
保济丸
脑电波
病嘛
小头
蛋花
西替
利嗪
杨医生
头好
普洱茶
腊肉
霾
喝好
塞鼻
懵
烟味
有小泡
烷胺片
秋天
鼾声
大脖筋
结结
頭暈
伤肝
太饱
冒火
防预
蓝芩
腮帮
吉奥
治聊
抽气
影是
烟酒
求一
整夜
多动
怕热
清丸
未愈
中频
不得劲
成片
收
支气管镜
肺右
铝
华法林
墨鱼
吃泻
疼肿
牛油果
肋下
蟾蜍
前照
七十多岁
肺力
灶会
淤
铜
光吃
昏倒
#B
止吐
低血
剃须刀
华山医院
PET
长会
T#N#M#
mri
身是
追视
O型
跨
干下型
💔
渗水
喝醉酒
头暈
既
燕麦
地高辛
利害
枯
解救
擦拭
洗胃
栗子
冷汗
长肉
恢复过来
治要
非布司
直不起
過敏
善存
S
芪
手动
嘴部
各用些
心跳声
颤
脚崴
距骨
筋疼
钓鱼
氯化钾
堵死
纳豆
油烟
罗布麻
豆瓣酱
b##
吃盐
碳酸钙
恢复性
磕到
我想询
苗
A##
脂肪酶
青紫
打喜
炎平
米醋
白术散
风团
必利劲
爸妈
鞋
用足
光散
全家
越痒
死皮
吐口
CTA
危象
疼用
湿寒
蜂皇浆
发沉
减药
問腦
喝洒
打人
口眼歪斜
有面
活络
林是
痛法
神经系统
肘部
B##
化解
帕金森氏
做骨
盆骨
应服
思
儿童智力
超低
咬破
荧光
裂嘛
眼膜
环孢素
伤口发炎
亨廷顿
姨夫
想不开
碘酒
巴雷特
胃痉挛
斯达舒
炒蛋
山楂片
转安梅
异型
照出
petct
肚子饿
割胆
干果
出结
酸水
蔡华
屁多
药该
碳
豆腐脑
#x#cm
麻腮风
水分
丙型
拉出
臭臭
油脂
肝管
下肝
右肝内
肝右
药排
处疼
内疮
ercp
出肠
后疤
泛
炎老
补片
返流病
左半
尿不净
吃哈乐
尿沉渣
腹透
医药费
米诺
眼周
光子
余年
处痛
试剂
药补
脱恐
矫正视力
推油
奈瑟
搽药
泪腺
有炎性
卷发
舌部
点掉
痱子粉
长汗
牙冠
下型
灶能
血液循环
觜
肝门部
痔加
偏曲该
上额
咽隐窝
湿热型
牙科
炎滴
普爱思
洗眼
龈口炎
两级
试出来
柴胡
催生
无性
无血
孕有
化掉
勤
腿毛
周生
TF#
松
#o
三十七
临产
孕周
尿不湿
奶量
时侧
地西泮
术会
过高会
流完
肌症
超查
防癌
山西省
问有
内用
冰点
药洗
海盐
尿裤
嚢
省立医院
微石
莲子
#CM
曲南
红梅
挂水要
林能
要服
嫂子
变淡
两性
就会痛
姣
药单
婴
环有
金华
体查
悬
艾炙
没怀
和艾灸
能通
婚后
打错
软管
周是
困疼
表达
后胎
埋
血热
见血
末
无糖
营养餐
糖耐量
吃凉
解除
骼
纳
菲林
来潮
变质
体积小
泰
血虚
犯有
精证
湘雅
知柏
增长速度
林可霉素
长白
猛
剥有
中西药
喜怒无常
希尔
出有
验血单
裂伤
拉尿
次方
病毒基因
吻合器
壮阳
會得
剪
BI
怎麼治
皇
初潮
MP
糖尿
粉瘤
襄
甲硝
胎死
完血
尿后
疣体
病对
月子病
排畸
抬腿
良恶
百天
牛初乳
烧到
流青
ev##
避风
小娃
辨
肠虫
变大是
费力
磁
秽语
湖南省
白破
维酸钾
天长
做针
急切
普
创能
哈乐
IGG
喉咽
前科
权健
部有
咽后
不辣
磁疗
壅
哑不疼
要禁
西
购
康泰克
佳
气是
邵逸夫
后心
喉头
老糊涂
养鸡
条纹
乌鸡汤
风流
杯子
链霉素
狼毒
风油精
百合
天水
复合型
元音
九味
剑
熟
鹅
蒸熟
哮
踹
格林
牙医
革兰
自行车
点样
淮安
高峰期
哪有卖
焦虑不安
包要
恒瑞
紫斑
半腺样
特钠
泵
全身上下
片能治
无乳
脸起
揪
肾上腺素
养血
电热毯
超导
甲流会
痢疾杆菌
补血药
打升
白针
三大
富马酸
ascus
V
馅
吸着
切诺
研究所
镊子
中空
社区
t#n#m#
喝青汁
贪睡
#s
天肌
振庄
疾
胪
退黄
茵陈
母婴
膜部
心胸
脐炎会
床位
脸麻
甲磺酸
喝鸿茅
高血壓
珍断
鹿
金针菇
失血
撕掉
手头
高该
红痣
持
劳
脚凉
参茸
左骨
北京阜外医院
腕关节
棘
跖骨
肩胛
下端
护膝
房扑
粉会
短阵
会心
浓茶
下深
麦芽
蚕蛹
共济失调
娄
氨基
满头
心超单
安卡型
青斑
蕁麻疹
带病
先打
hib
节律
七叶
有涨
血塞通
用冰
五十多岁
折
泰必利
可医
跛行
跛
引体向上
利培酮
身
睡不醒
LAD
丁克
仨月
皮瓣
味丸
长骨
稳定型
目
喝高
脑白金
站不稳
出根
肾精
用脑
我脑
癔病
神医
打伤
重性
法医鉴定
苄
坐火车
岁脑
有影
肾宝
朱
周圍
爆裂性
咬牙
杀人
嗅
未醒
额窦炎
双目
矮
残疾证
说胡话
万艾可
抑鬱症
海马
病性
隐裂
中药材
颞骨
小二阳
放糖
糊状
泛酸
胆襄
石能
达喜
浮水
幽
切胃
镜会
肾里
腸
月查
绞疼
宝贴
吃雷
胃子
后活
我拉血
松茸
程为
直乙
胆宁片
柏油
镜检
伴胃
经络
氮
珍珠粉
反跳
上结
时小
###mm
胰
#X#mm
骨力
演变
紫薯
横结肠
紫癫性
隐匿型
肾穿
换牙
尿素氮
短效
特异
大蒜素
耐
同位素
亚甲减
用米诺
油性皮肤
NK
低回
導致
用水
后肿
寒湿
鹅足
获得性
第二期
HSV
有痒
这长
边有
起过
印该
全蛋
解脲性
脲解
Hiv
性索
包膜
帕林
核素
股沟
镰旁
突性
防冻
T##
断端
阴茎头
性冲动
氯米
变扁
胸要
胸能
做海
窦段
#D
裂道
肾石
野区
后椎通
LNM
后致
耳镜
有雾
远达性
有胎
我胎
肿要
洗牙后
残根
散粒肿
完眼
漂浮
红灯
红绿灯
graves
外路
抽油
挑眼
长眼
泛化
双项
胡雄
八院
解体
宫外
大号
周见
润肤露
爱乐维
完要
蔓
发汗
天查
超会
阴式
过得
逐瘀
会涨
消片
左乳有
蜜蜂
蛰
周了
有斑
酸臭
咳得
级会
麻醉药
车
话梅
很酸
双杠
染色
小电
大电
内阴
三八
妇乐
电灼
天半
口干舌燥
吃辣条
微信
搔痒
龟苓膏
干有
那通
求好
通草
超敏
断奶期
牛尾
拉丝
涨奶
能吃益
丝
紫黑色
一脸
仁和
藤
轮状
张单
抗宫
炎片
筋骨
老火
后血
好孕
恢
用红核
怪味
烧灼
挛缩
放环
胎膏
洗洗
贴用
精液量
会伤
救活
割好
曾患
呋
七十
未成熟
病假
毛豆
米粥
芝麻糊
全脂奶粉
苹果汁
羊穿
Y
脉管
法兰
临死前
海豹
钟
多大是
黑芝麻
坤
师
泮
停孕
肾气
未育
精该
功血该
海绵体
喝些
很能
症生
一切
持久
单边
活血化瘀
多大算
罗米芬
度过
私
絮状
高排
综
提肛
镜内
瘤样
亚型
出人
心理因素
黃
全者
混悬液
天液
叶状
RADS#
乳癌
肩上
完术
古方
鱼石脂
消肿止痛
头沉
三枚
菊
查无
环扎
极
正位
早泻
溢出
动刀
藏药
红枣汤
池
可治好
替芬
妙招
神
同服
病治好
损
有得医
三尖
天脐
歲
胡须
拱
蒸梨
治快
PPD
花旗参
鸡胸肉
下陷
耸肩
老好
胃蛋白酶
斤算
bb
面上
初生
br
胸背
火药
好治好
后颅
窝池
弱智儿童
嘌呤
糕点
天岁
涕
白加
感康
不烧
克雷伯
快治
泰诺
噁
嗓子眼
黄丸
螺旋菌
辅舒良
康敏元
遇冷
桔子
穿心莲
凯
ib
反解
回光返照
氩
切肺
之会
热是
普兰
有洞
环丙沙星
喉痒
天不退
坏疽
蛋壳
九江
吐吐
人患
罕见
贤
用吸
局灶性
长云
老年病
贝因美
心影
有氧
肺尖
可小
双黄连
丸药
越来越重
完麻腮风
之四
滴鼻
預防
起大
布地
监护
老肿
心力
急症
抗凝
酱
油漆
完管
乘飞机
总饿
百令
煤
氨茶碱
治是
吸出来
两肋
两期
药才行
吃素
哭声
舱
哆嗦
鼻臭
受累
吃食
人变
结核菌
螺旋体
小肉粒
脱痂
斑痕
西达
本胺
深海
蹬腿
觅食
乳糖酶
退完
丙种球蛋白
贝沙坦
八宝
时高时低
波立维
三支
栗
河虾
抽脂
南昌市
水银
毒素
挑食
四季豆
阿托品
散大
误服
吸毒
做电
白泡
溃脓
桶
能除
阿莫
何谓
降脂
串
丹参片
粳塞和脑
观察期
川芎
老太
汤好
脑梗是
t#
心腔
可宁
脑塞通
腓前
撕脱
架
按摩椅
马丁
胸肌
主动脉弓
多潘立酮
周窦性
两手
二手烟
晕眩
治双侧
咳露
双歧
大豆油
明目
伤到
绕
围产
非对称
鸡鸭
不复
柠檬汁
黄热
后发
然
海米
草珊瑚
出窦性
泮片
能作
ii
兰释
鼻粘膜
眼窝
复明
网脱
高低不平
玻切
拄
基围
油好
内漏
得腹
做腹
胶浆
钉子
手才
怎心
多梦是
就响
两肩
腰脱
汽水
困乏
腰间
舒筋
瞳孔放大
丘
银杏叶
肝火
虾肉
中枢
心烦意乱
腦
针用
損傷
肾是
鼓气
证壮
有什莫
六味
rh#
患面
脸痛
医疗事故
沉积
延时
不香
食性
碗
无肌病
敷好
s#
裂能治好
仁
鬼神
附体
斑有
肉团
障碍者
冬枣
王老吉
清肠栓
有结
肝曲痛
胃肠科
溃性
重疾
打隔
基转移酶
加胃
跳痛
任
胺酶
脊背
肾囊
MT
鲢
馍
胡椒
马蹄形
雷
五味子
因吃华法林
厉后
导片
通后
消癌
兰尾
上大号
喝安素
指检血
青蛙
痛勤
瘘术
漏便
肿脚
后原
喝姬
配点
药冶疗
颈段
大住
会胀
咽癌
饱胀
益肠丸
吡啶
白菜
莎
苹果醋
静脉瘤
俯卧
有胀
经长
电灼术
会恶
石药
半球形
性胃
包含
艾艾
疼能
手会
肺类
热淋
鱼类
血肌
锁阳
置管
舒化奶
越疼
变病
相连
难治性
糖耐
伴亚
普特
彼
出油
光能
经典性
乔氏
看一
有亚
脱毛膏
氨糖
伸直
疼好
转子
血点
先天性免疫
处得
开水烫
髓
科有
Hpv##
颌面部
有脚
老鼠会
皮下组织
骨瘤
郁美净
异维
碱水
好红
老起
交通事故
毛癣
期腿痛
精丸
修
窦区
小柱
老父亲
管后
痔会
八期
T#N#bM#
藏
偏曲要
干眼
我眼
老花
水平阻生
配高
浅层
劈裂
文拉法
头盆
不称
安全期
定
摘环
漂
针状
菌群失调
双唑泰
质
血迹
用测
冷淡
妨碍
栓后
可清
输卵
拽
重活
hcg##
左腰
做痛
钎维瘤
腹泄
麻子
有瘤
莫西
伴囊性
邓
长胡子
率大
四斤
囟门
临产前
吃红参
生过
先有
腹带
宮
積液
AMH
高嘛
宫角处
心管
介的
溃
疡
价
腰骶疼
苞
购药
靜脈曲
涨感
处痒
水里
姜茶
絮状物
呼
上鼓
积乳
挤奶
汤圆
师弄
文胸
能流
金鸡
妇宝宁
会不来
凝
下缘
周说
值入
能涨
我怀
月牙
炎吃点
诊刮
受孕率
皱巴巴
涨人
拧
天提
怎么得了
油对
甲酚
用曲安
熏洗
美宝
显影
多囊会
近端
切腹
扩宫
肌性
多普勒
量会
时应
鱿鱼
BV
抜
对备
号脉
蜕膜
排空
嘞
酸菜鱼
afp
共振
值为
能切
控制目标
孕中
喝惠氏
一方
耳廓
#C
希
能话
侵入
普刀
曼月乐
帕
性交痛
出奶
厕
头孢氨苄
加热
吃芬
fsh
中气不足
严重者
被查
死精
对性
功血有
有功
血流量
肉会
体液
大庆
妥
米特
多莫德
牡蛎
会导治
阴型
😲
鼻内
HPV#
检测值
癌嘛
杜冷丁
怎医
滑雪
女有
火热
单肾
Ca
未生
胸大
消不
硬化剂
#X#
药去
甚麼
欲
黏稠
前端
告
抹掉
睾头
腕部
风湿痛
临沂
豆子
角区
Cm
蒂
手凉
隐窝
奶后
泪水
脓痰
健脾
外甥
羊汤
终身免疫
详细情况
累计
雨余时
打虫
帖
鼓得
激发
DHA
唱
sy
撅
晨
扩胸
秃
胸下
眉
必利
女孩儿
手痛
并伴
活动量
水滴
有癣
奶癬
褶烂
鞣酸
腹查
打雷
康柏西普
出脑
氧舱
治到
摔成
子女
两只手
散播
片有
腸炎
失声
鼻堵
遇凉
鼻器
说说看
火辣
咽扁
香菊片
啃
会生
勿
面颊
😘
苍白
欲裂
头重
噎着
线头
抗癌药
养鸟
打好
打行
一股
韦能
两上
溅
绝味
鸡腿
周黑
鸭会
寒颤
迷迷糊糊
双叶
腰腿疼
鄂下
格列
会脚肿
病算
肋前
捐
药丸
脑钠
黒
巴利
万古霉素
设
宝得
跑操
打驾
瘦弱
陪护
湖北省人民医院
障礙
幻触
期热
小缝
寒气
梨膏
骨节
药比
长疮
髙
耳下
冶用
得腺样
蛇皮
莲子汤
汗水
熏人
柴
野菊花
可活
气儿
润肤乳
华林
重病
适量
咳嗽药
异烟肼
胸模
分心
立停
醉酒
对入
后会痛
气囊
叶后
肺肿
鼻烟
半夜三更
蝙蝠
患慢
急救药
为甲流
溃疡面
蒙药
芥末
伴脑
青色
干燥症
全阴
铂
急死
脑后
刮破
北京肿瘤医院
样影
病原
小疼
耳屎
吐水
坐不稳
vc
握拳
儿带
磁可引
头后
就点
宫缩会
抱龙丸
发臭
脚软
头昏脑涨
钾钠
喝红参
欧米
皱褶
透风
分早
心血管病
打破
胆碱酯酶
生理反应
蛋挞
电池
科查
南瓜子
白沫
会烂
爪
高压电
肉色
喝醋
脂类
遗证
我头
神志不清
蹦
血吸虫
盐藻
唐氏塞查
严寒
针打
馄饨
口语
花旗
洋地黄
撞伤
控
左踝
骤停
胸慌
起博器
间歇
去痛片
心脏起搏器
一哈
律过
低有
上胎
强生
黄花菜
腌
豆奶粉
申捷
撇
算治好
制剂
安卡
疼且
正确对待
青斑样
LA
胖大海
Hib
脑外
伴周
萨琪玛
酸碱
pr
美托
养心
巴特
患低
有医
主干
拜瑞妥
下尺
#m
脑壳
乐安
会冶好
又称
管型
牙刷
共血
能换
半卵
鲜
马来酸
缓要
因车祸
中远
足光粉
臭死
鱼鳞
脚汗
电缆
铅笔
肝源
尸检
骨病
噻嗪
蹦极
脉络
中部
头臂
托珠
得布病
脾亢
疲倦
g
淮山
总吃
失恋
右佐匹
椎间
肾有
右归丸
π
乌灵
鸡皮
尼莫地平
加脑
脑水
醫生
劳拉
梅
精神病科
春秋
开开
有后
蝎子
漏水
冠腔隙
奴卡菌
杏
光用
喝补酒
运动神经
菲
雕
眶
天坛医院
求购
山
焦
振
电解
剃光头
有溢乳
外皮
摇
撞墙
正天丸
精分
社恐
哭时
连带关系
磕
伴肝性
肝叶
障碍物
太短
三节
c##
與
侯
瘫痪病人
作痛
平会
厉不
昔
无肌
裂要
周唐
能当
动车
能治肝
酥
能清肠
清宿
雪饼
肉松
症去
乐友
气涨
消化酶
宁胃
床事
早射
肠上
药膳
乳儿
修脚
已型
厌
注射用
埃索
橄榄油
油条
绞
暴瘦
劈
蘘
复春
吃软饭
忌些
切胆
外口
胃腸炎
胃有
奥替
开赛
巨结
加肠化
闫建林
外星
肛诊
海口
我希要
底位
肝后
格
伯父
我爹
身形
抗肿瘤
先干后
乙肠
冷饮
胃犊炎
零点
梨子
艾坦
阿帕替
凡
柳
下胃
深色
贴丁桂儿
冲开
眼中
球炎伴
洗衣
眉骨
提胃
落
磺
超高
对肠
天肝
起病
左肝内
串珠
叶内
山田
割过
湖州
卤面
滴药
🈶
转播
偏高降
甲乙丙丁
造漏
什莫好
增
贝母
肛痿
腰膝
肾脏病
震碎
循证
脱脂奶粉
晨尿
腎
秋水仙碱
肾部
钾低
氢化
共餐
小球
增性
活不了
余月
脚裸
微肿
起夜
高电位
脚杆
奶昔
天果
凶
变甲减
有甲
微痒
要涂
嫩肤
美罗华
曲普瑞林
保湿霜
加碘盐
大象
痛用
锯掉
磁县
伴囊
有变
pola
白芍
耗油
叩击
烤灯
颚
那治不治
百
阻生
点痣
座疮
腋窝下
重组
兆
沟处
小猫
热淋清
伤寒病
牙肉
手癬
沫
手裂
病毒感染者
衣壳
遍布
褪色
布鲁菌
嘴片
膏子
很肿
做美
疤膏
大母
浦乳
珈
脚下
拔甲后
肉里
嵌
眦
pd#
上张
角质化
肛門
疮用
凹凸不平
保定
有手
度算
症犯
排斥
能评
驾照
排精
索精
癌用
灶要
psa
MM
睑板
胸对
中线
时阴
小口
岁查
有肉球
痔该
坠坠
饮品
垫片
痔安
后快
后蛙
鼻会
偏曲用
偏曲能
这疼
拉莫
氯氮平
停会
牙洞
用沙
开角
护眼
加固
rgp
眼轴长
得飞
云翳
探通术
孔源性
取油
硫酸锌
夜磨牙症
完霰粒
抗焦虑
恐高症
恋足
异性恋
恋熟
凉菜
胎牙
宠物
金蝉
八角
康栓用
糜烂面
爱爱后
体炎
疼去
疼嘛
雌性激素
完奶
添加剂
慢该
D#
钙剂
不吸
降钙素
强化剂
完吃
快到
导乐
天算
要生
烟台
无疼
保过
通脉
群发
秋
治地
证兆
G
做防
两癌
蔓越莓
有酸味
bobo
安环
用御
舒丹
负离子
补气
阴处
cln
清淋
海苔
漏诊
nnnnn
做小月子
薰
越治越
打抑
透声
消块
小通草
留脓
单身
体检中心
总用
手能
周剖
郝
避免出现
协和
肯
老打
紫菜汤
妇宁
能放
EMAB
达菲
药塞
痨病
后查
洗海澡
穴
幼女
克斯
吃康
没排
双测
会复
子宫腔
膜状
前用
出手
糖脂
全脂
牛蛙
霉毒
菌丝
似
两胎
阵状
涂片
外流
检察
验出
奥硝
AFP
抻
沙琪玛
亚麻
玉米粒
玉米粥
百分比
腕
配型
田七
蛹
ia
足疗
癌要
想尿尿
癌能活
纳式
绝经期
大能
祛湿
泻药
克淋梅
PCR
一氧化氮
刮好
通乳师
姨
金匮
lh
吃克龄
冶辽
孕育
赘
中年妇女
算弱
卡片
生精片
宫血宁
避孕环
云芝
诊为
花红
##x#mm
做光
有活
有酸胀
天下
六十多
入
检是
医的
係
有過
解脲型
后生
做手
过厚
下半身
發
有分
打防
郁症
减产
变软
化是
显微
生个
甲级
加双侧
肤
体弱多病
舒张
浓流
僵直
百蕊
治感冒
拉绿屎
吃头
抗菌素
牛磺酸
火腿肠
打冷战
史能
蝉蜕
紧急情况
扁桃腺
脊灰
胶带
突起来
老哭
岁长
管能
请問
维他
铁锌
上海华山医院
该补
咧嘴
发声
山东省
肩痛
遏制
天针
肺宁
排痰
兒
生奶
乐霜
G#PD
未退
拉西
康复科
友
PKU
针炙
五六岁
疼到
哮鸣音
齁
坠积
清痰
鼻噻
嘀
考特
用慢
严舒
柠能
话务员
哽是
洗洗澡
干恶
咳有
咽下
厲害
挂针
咩
鼻梁骨
废
内舒
我风热
喝下
风冷
蓝莓
针在
少尿
冬春季
三乙
心蛋会
商洛
鱼算禽
吃酸
扁条体
支源体
药号
快克
天没好
就范
处方药
酸辣
开喉
生雞
蛋會
禽类
熟透
娄底
我想問
亚健康
鼻道
骨坏死
驴
支扩
补肺
限
局性
脑梗会
男婴儿
顸
防和冶疗
脏水
木糖
及化脑
百分之十五
生闷气
喝有
下痛
乙胺
丁醇
吃九菜
左氧嘛
跆拳道
打药
诊得
吃思
翻来覆去
上床
完步
硅
病叫
陀
呷
饭能
爆弹
蓝好
转染
腺样
对腺样
痛灵
半夏
内舒拿能
紧急措施
皮膚
茶碱
胸壁
潜水
浓肿
槽牙
髮
变天
起烧
二氧化碳
igm#.##
感染期
氧疗
眼泡
上气不接下气
褪皮
多算
贴药
四环素
静点
服食
甘露
花茶
时右
宠物狗
吉大
敷有
发咸
增强体质
相
效好
人该
用电
科普
皮包骨
简称
腰胀
流流
落枕
恋康
肌肝高
手套
凑
洗发
细泡
期肺
峡部
能点
小儿科
耳部
抗炎药
鳝鱼
不省人事
常见疾病
蛤蟆
重创
推会
晶
香港脚
叶索
条影
神经原
救过来
EGFR
三维重建
加辅食
奶嘴
发症
爬行
纳米
穿通
眼梢
新生儿期
独立
绕颈会
掉下去
右向
com
误打
肉碱
有力
呕心
劳累过度
奶疼
齿痕
茉莉花茶
茶有
青筋
变能
苯中毒
锡
甘油
附子
驱蚊
神经错乱
咬到
木炭
欣
火焰
火机
石灰
打火机
印会
手手
高脂
稠能
发蒙
吃尼美
热痛
手冻
磺胺
跌打
喝醉
理性
敢喝
煎熬
牙周
肺主
龙会
多支
吃粉
参茶
拿不住
莲藕
吊线
の
出医
洗血
大汗淋漓
证刻
磷癌
天好
累喘
阿托
万花油
市
心疾
防冶
须用
牛鞭
有班块
多肽
用餐
逆钟
我经
薄荷脑
用洁
哌嗪
杜蛎
田螺
松花蛋
题目
性非
瑞金医院
干冷
应想
地氯定
肉牙
闹腾
预苗后
财鱼
###ms
千多
禁忌症
滤器
机光
服啥
右小
头紧
筷子
错乱
有根
左右脑
病重
起满
替利
缓会
银
足光散
小坑
热时
手伸
见于
对乙酰氨基酚
腹涨
小儿麻痹
琥珀酸
鸿
茅
益智
氢氯
伤口处
加肝
面黄
耳鸣现象
布加
出红点
老年斑
榨
怎麼樣
曲唑
腹内
无精打采
雨天
锤击
惊
褪黑素
搬东西
氯硝西
池里
问用
七片
白鸽
旁腔隙
分裂性
蛭
联动
病初
烧出
切底
脑补
结该
头斗腿
斗有
注射剂
做线
牙掉
氯化钠
小针
交际
急剧下降
深部
变吃
洽疗
致乱
酰转
LH
能降
左背
康复者
手得
异证
神魔
痛起来
官能
震
耳蜗
巨核细胞
段性
新进展
老年性痴呆
起得
睡后
比不切
万年青
利妥
脊膜
低威
浙二
性肌
亚急
粟粒性
医不
散行
不贵
钞票
天说
眠
痉
孪
肌炎会
字数
青素
舞蹈病
眼外
皮会
吃索
金戈
高点
鸡尾酒
气阴
杨桃
消丸
整肠
找位
薰衣草
調理
猴头菇
带菌者
淤胆
中藥
其有
肠溃疡
真的假
莫斯利
大肚子
转移酶
克污
胆内
转肝
半法
批准
胃不疼
血癌
括散
医科大
喝治
咖吗
清肝
##X#
肛漏
痔栓
有冶疗
蜜饯
接触传染
皮破
禁水
用生
噻
排通
用此
累活
常益生
复用
焦类
青汤
AI
扇贝
熊去
胆酸
口漏
组
补脾益
肠丸
冒青
红萝卜
有菌性
倒刺
胃斗炎
可疼
胃隔
复安
##X##
做术
粉好
虚寒
超右
回音
ghcg
体俭
x#.##
建康
ERCP
管壮
内痣
正状
突有
指肠
得肠
重会
豆奶
胃大切
排尽
周查
人血
姑父
铁片
切完
饱子
新陈代谢
大麦茶
内癌
肉片
肿包
水溅
拼
酯酶
泌
能排
击碎
喝红芪
腎炎
昔洛韦
黄葵
第五期
CKD#
白介素
麦
香油
尿糖
植发
自血
右季
奇
鼻非
每期
政状
智牙
喹
背肌筋
乳牙
除湿
褪去
血点会
学医
诺思
男医生
带图
假体
健腰
鼓个
肩颈
东阿
阴能
烂掉
甲周
圈里
红块
急需解决
用托百士
用酞
登革热病
药泡
这手
面部皮肤
碘甘油
滴白
线炎
嘴肿
贴后
两腮
果酸
长脚
毒丸
卡泊
淌水
拿点
湿敷
硼
脚得
脚指头
#cm#cm
五节
样痣
疼要
韦膏
丙酸
旁长
罗星
红花油
治跖疣
会裂
多形性
嘴皮
冻手
剥皮
对屋
剝
菭
面颈
sd
伴后
周同
髋部
追
腿骨
弃
金锁固
帕明片
有瘾
炎犯
隆胸
虹吸
左颈
鞍上
牙坏
依诺沙星
并肠腔
llB
造口肠
不愉
做造楼
珠子
llA
半侧
原失
尿带
皮面
右斜
回涕
蛇舌草
假牙
弓
剥落
有牙洞
塞牙
脓头
图伦
度美瞳
牙能
中浆性
足弓
颈椎骨
###mg
烫染
体寒
捅破
姜汁
结扎手术
梅菌性
倾
问会
疼着
刚照
天流
值低
能用验
hcg####
用验
腰底
罐肠
药郊果
舒片
孕九周
过水
康妇
胸里
乳管
渣子
斯
体重增加
补打
出世
料理
早产奶
前应
用品
快生
漏奶
催产素
曰
撑破
达芙通
流能
天去
变要
钾片
过性
红杠
阳性反应
测孕
试条
炸
scc
花菜
待诊
急诊科
拟诊
CIN#
可痒
盆炎净
阴晴
男女双方
输阿奇
非淋好
用三六妇
常见问题
手后
算轻
正中间
男伴
月见草
三公
替唑
病号
单有
肿快
奶结
算流
座
硝酸
生癣
回有
长途汽车
璧
腰下
河南省
缺铁会
薏仁
节育
炎输
炎挂
看多囊
處理
度药
腰腿
leep
双唑
泰栓
刀会
用缩
自立
钻出来
减肥操
产钳
水瓶
用康妇
用甲
天山
益康唑
复复
松解术
剪切
畅会
完宫
多好
红外
阴阜
做血
鄂
夫妻间
瘦身
治育
孕会
如向
身体检查
細菌性
早破能
用益
剥除
菠萝蜜
黑芝麻糊
铁剂
糖化
被判
異常
香
物有
青椒
少能
內膜癌
那氏
做利
支元体
做诊
妇检
ctc
Tct
异
黄骨鱼
这属
积奶
主治医师
克龄
锌片
精对
精想
精用
精吃育
吃五子
能致
咖片
跟弱
不净
围
功血服
宫瘤
曼月乐环
刘女士
#x#.#
囊壁
##MM
芥
vsbsb
剥后
药可治
腰会
性子宫
伞状
吃匹
迂回
欠畅
弥散
防及治
苁蓉
打肉毒
拉贝
试产
自知
捕获
去医
留院
超图
安庆市
立
周没
辽宁省
已作
电烤
毁
分勉
疤用
稍通
治痒
用针
因吃
乍
加多囊
必超
不切
总流
十八
吞
蒜苗
＋
疑难杂症
梦里
不禁
会易
红线
偏宫角
太薄
舍曲林片
左氧佛
猪心
肝素钠
壁薄
發育
🏥
家庭成员
mmx#.#
开高危
治产
内见
拉丁
人造
vin#
带下病
癢
这是验
正行
泻肚子
天老
荷叶
该配
会拉肚
透不过气
琳
P
莲
乐赛
有效率
越起
风会
出红
髒
隔間
隕
缺房
无热
多内
打寒
砧
鲁米
进院
迦
妞
带脐
古
算脐
硬核
微突
要測
女娃
阴丸
桂皮
鹌鹑蛋
沧州
求有
甲片
冲击
抑制剂
斯的明
赛乐特
d#
仔仔
疆硬
甩头
仰头
家庭治疗
透皮
皴
蹭
鱼蛋
症挂
候
看脑
幼时
石榴
二十六
过院
怀要
热性
炎琥宁
李秋忱
呛水
北京地区
委缩性
秋冬
吐出
波浪状
滤胞
结狼肿
满岁
气促
变态性
肺丸
抗菌药
鼻竇炎
头闷
打喷涕
肺气
喷鼻
鬓角
有青
VC
姜片
感敏
姜嘛
蒜头
蜜糖
火茶
周风热
头涨
黄浓
麦片粥
传家
痛滴
链球
散列通
被罩
毛会
鼻赛
央视
完克唑
毛玻璃
生土
豆汁
动物园
h#
半生不熟
咽疼
家禽
發燒
五六只
肺結
徹底治好
吡嗪
酰胺
白芨
药保肝
腔子
丝瓜
桑拿
疱
唇疱疹
荤
鸭汤
侄儿
隐窝性
溏
里脊肉
凤爪
脸热
啄
切断
补助
刺伤
医不好
斑状
桃仁
齐特片
运城
氧气瓶
品
药为
几升
吸剂
结咳
音
脓毒
大肠杆菌
肌肤
观察室
胸右
出为
压缩比
放气
骨碎
肺片
没痰
角变
邱
沐
该服
打阿奇
太浅
鬼压床
腿动
疾患
幻视
有火
她们
头微
盛京
问药
人会生
鳃部
关
体肥
AN
治序
淋有
眼圈
風疹
变重
有小红
灰区
内热
扩張
顺尔宁
药医
性咽峽炎
跟头
后大
数高
铜症
腥臭
脐茸会
不沥尿
虚岁
感然
置换术
磷霉素
华法
手老
區分
可可
心动图
补气血
cr
天院
能治出
過敏性
汤治
很严
双下
肋膜
病待
形体
叶散
百分之四十
娃得
吸痰
洗鼻
干痛
如球
吃曲马
气急
天津市
杳
伴肺
风湿科
安儿宁
医疗法
肺该
肾素
俺
得甲流
缺甲
脚嵌
上长瘤
双硫仑
郁结
沫子
ASCUS
asc
PO
摩罗
巴巴爸爸
冷风
硒片
脑转
姜黄
发证
炉子
能闻
天气炎热
炎看
超想
冰淇淋
加湿器
阴滋病
病毒疣
保肝
具不
夹破
毛刺
禁口
针来
男得
左主
管腔
全脑
灭菌
kg
睡得
神经因子
头骨
风会变
聊解
比别
鲨鱼
天平
拉力
滞会
席汉
平足
稳腰
双足
帮帮
并膜
伴膜
能吸
长能
全育
臭水
湿症
有味
倒地
周身
眼胀
平血
过底
老痛
站不住
滑
卡马西平
晕过去
浮
下压
要作
漂唇
疹断
輔
口感
根痛
粉有
水中毒
汤能
味精
苯
荠菜
有毒
血斑
吃脑
高伤
煤油
用藏
速回
治女
皮用
扎烂
药查
氰氟酸
烧住
新皮长
手面
生石灰
炮
眼珠子
心丸
药非
诺贝
脂血
炸开
解暑
没味
##W
结核菌素
生鱼片
MRA
外囊区
双颈
仅
昏到
患小
不贴
凉是
现长
回解
沙班片
癍
万多
发绀
普洱
区长
李时珍
前胃
期算
胫后
多源
高耸
去治
清官
针行
颅外
正露
砂仁
有得冶
贴银胡
珮
银柴
叮起
用宝
乐乐
吃氨酚
气颅
两虚
遗忘
夏塔
热藓片
喝味
理中丸
封闭性
讯号
禁用
越厚越
病里
淡水鱼
伴反流
晃头晃脑
联合疫苗
龄
泌特
水饺
四十四岁
瘀
职
时窦性
Q
一百五十
甲亢病
痛要
软瘫
后拴子
积水潭
靜脉
裸
草木犀
腿肚子
虾仁
肩锁
心季
中量
煲汤
旧伤
病挂
病去
呋喃妥因
听歌
冷痛
小动脉
自闭
天先性
喝高泡
机体
排水
心超卵
说卵
老吐
鲈鱼
疙
缓有
氮质
肥胖型
桥能
支远段
肩背
醒脑
抗真菌
髓内
肘
山梨
能保
份
管瘘
吃酒
首乌
鸡骨草
慢加
手木后
因有
国珍
悬灸
羊布病
胸布
腰骨
中后
耳鳴
缓轻
灯烤
颈型
肩周
开胸后
自俞
控制力
安思定
真实感
腰肌
叫好
按好
正有
神经线
神志
瞢
手麻疼
####.##
N
热症
不肿
莴笋
脸疼
填写
联苯
膳食
微整
眼内
犬
无知觉
疏血通
谷氨酰胺
培育
转转
原虫
儿童用
娘胎
三四岁
六斤
长疮能
蝶骨
脊处
中日
左足
压伤
勾
功率
评级
利多卡因
隔音
正骨
秃顶
白癫风
鹰嘴
怕黑
息宁药
久会
气死
甲骨
镇心
蝶
并囊变
溢乳
隐婷
淋疤
黑脸
胶样
蚓
再造
干针
说得视
穿山甲
两叶
曲美
次会
一拳
红色素
费
五花肉
没治了
清问
肝豆
改變
腦瘤
九十
甚
突破性
补种
暴
鳖甲
打瞌睡
t#t#
做防疗
高级
莫唑胺
暗红
骨下
裂好
骶椎
裂能
青光
致盲
漏有
耳科医生
神仙
萘
上侧
看肝
不能医治
青瓜
框
腰大肌
碰伤
范了
dna#.##
e##
E###
病态
荷叶茶
百乐
地锦草
生行
吐泻
用美
药能治根
PNA
石淋通
Hcv
AST
竖纹
肢带
枯黄
细软
早餐会
罗圈腿
切嘛
胃火
抽根烟
指长
护胃
蜜
肝细胞
可冶
两大
需服
打护
丙谷
涮锅
肝痛
查肝
能化
吃宵夜
凯美纳能
哨
胃后
用尼松
黄皮
病假条
诊出
基因型
e#
取胆
巨痛
小眼
为肠
ppa
葡萄干
索非布
高灵敏
上铺
算通
植入术
ssg
吐奶会
火检
水疗
可根
跟升
心热
肥料
安哥拉
树皮
带血带
指检无
T#N#
活益康
清汁
肖瘦
勾突
血钙
胃空
油用
呋喃唑酮
吃太多
特苦
爬高
松子
止泻药
喝乳
洛芬
關於膽
戊肝存
打戊肝
戊肝高
T#N#Mx
花生衣
胃气
干渴
谷
伴局
肠蠕动
大麦
黏条
件
半办
喝上
腰会痛
丹参酮
寻医问药
后光
茉莉花
特片
治肠
素高
三氧
胃会
胃酸过多
疸
投保
肝囊
体验出
肝小
佳木斯
马来
曲酸
美布汀片
覺
胆有
心肝
伦状
会肝区
闷胀
抗肝
f#
超重
看肝内
伴小
直肠镜
肝钎维化
抗反流
肝外
怎幺
降解
得切
我肠
有蒂
做降
后得切
止血钳
细扁
火灼感
管想
扩肛
缺些
板栗
遮
黎
返酸
胆肠
舞
增家
堂妹
内低
豆芽
疝口
用金
石片
瘘会
亲嘴
先降
乳瘤
会尿痛
长火
利君沙
花瓣
肾下
盏
##mmx#mm
腰微
虾子
河蟹
肾疼
双嘧达
秘罗
状腺性
出双侧
高密度
下极
木耳
舒乐
大算
性肌炎
腺肌炎
舍尼亭
症好治
特拉
皮能
血糖仪
排酸
减要
氏甲减
酒槽鼻
头痒
头油
采乐
内脂
鼻型
GCG
痛过
胯下
痛肿
肌肉注射
北京同仁医院
吃活
眼突
胖好
炎吃些
变慢
无痒
杜
棘突
外敷药
胳
更红
喜辽妥
用夫西
冰敷
骨膜炎
麻疼
贴膏
美蛙
吃三华
吃怡
荨
外阴部
中轴
血清病
阿糖胞苷
细粒
髓性
甘
营养性
感染率
爱滋病
割伤
嫖娼
算高危
飞久会
染艾滋
丙干
缸
咬会
印迹
大观
沙门
斑疹伤寒
很红有
干涉
办多
眼药膏
泡手
有小白
手长
崽
脚癬
泡过
牛得
咬过
皮康王
秘鲁
净癣
熊
韦能治好
結核
瘰
出解
泡诊
根出
主任医师
脊椎骨
tppa
蓝科肤宁
斑能
整么办
出土
冰块
不沾肉
多大需
夹能
水点
瘦脸
彻底清除
头颈
左肩长
發性
莫米松
馏油
治手
踝骨
茧子
手中
红痕
斯汀
有疤
润肤
根长
化療
暗
伤用
碰住
氟替
掌心
型成
京万红
凉风
刷查
人中处
地儿
粒粒
症腿痛
活求
五椎
根痛平
郝坤
脚合
退麻疼
取钉
颧弓
尾椎骨
后滴
尿末
泌炎灵
固精丸
勃
割后
带血有
血精得
服哈乐
治为
吃膏方
斑要
双则
皮包
适应性
三十天
睡硬床
胸该
徐婷
胸内
股头
倒致
昏昏沉沉
乳黄色
裂易
二腮弓
用内
腔肠
草酸
长上
有隐
餐初
杞
钬
挂尿袋
传输
罩成
加葱汁
TEP
动怒
人需
做结
用孕
不治行
个响
气化
掌骨
癌全
种病
要治好
左斜
炖肉
性脂
酒窝
声门
自测题
陈疾
掏
右鼻有
飘黑
疹室
朦朦
沃力
厅
并球
喉痹通
双羊
骨蒸
胎芽后
停长
封
有脓点
基弧
眼液
眼用
大洞
牙上
正畸
房角
闭角性
颜
戴镜
衣原
能滴
沙子
书好
轴位
保护视力
玻璃球
对飞
黄灯
点眼药
取油后
溢泪
碎屑
眼脸
窦筛
做眼
挑完
泪液
肿破
完美主义
西酞
总去
浑浑
与疑
处女座
双厢
性心理
性偏离
管短
内射会
浓缩
流么
周宫缩
妇因
配药
宫禁
用保
妇康
越莓
性大
冷水澡
记些
吃琪宁
史能治好
助孕
哈市
验过
针没见
康妇炎
少腹
总痛
消能
乳块
💝
鹿胎
摸药
皮康
婚
顿
雌性
减重
排卵日
偏大
##w
膝腱
几斤
伸懒腰
不爱上
慧
脉络丛
好求
娩出
补贴
寒凉
丙球
还会生
准妈妈
痛后
奶吃
小月子
有下
红血
带排
随治随
zl
襄肿
小用
打洞
环好
桃胶
破卵针
太深
枯萎
安胎
Ib#
及量
HpV##
四价
锥形
帐痛
好愁
红褐色
恶臭味
勺
磷化
聚维酮
尿夜
大败
張用
中藥能
好轉
微石症
肿么样
兵
绝育
卫生间
骨疼
犹豫不决
生性
般的
胸红
奶一涨
宫素
阻性
药一停
腰子
车前子
重是
妇炎康
独
达力
爬楼
卧
龙鹿
堕胎
崩漏
科别
点穴
炎两人
血该
脓状
得多囊
菜油
態
問子

清润
舒宁
怎知
備孕
阴超会
壁澎出
调术行
康复会
刨宫
聚合
收复
塑身
吊带
拎
妇洁
烧灼感
碘伏能
H
铍
磺醛
湿庞
黄点
孩纸
窄小
做才行
美甲
配要
腰骶涨
片塞
最上
续发
三胎
第三胎
宮頸
刘勇
孕要
备孕应
唾液酸
太尔
洋芋
用海
直系亲属
陶氏腔
子能
磁力
木糖醇
..........
蛋汤
周零
香椿
单脐
二十七
恩度
拉米夫定
检能
遗传疾病
癌能治
la
加息
线体
软巢
吃消
crp
沿
CTC
摘除术
炔诺酮
推烧
热清
是良
习
地下
取卵
蒙好
后错
柱状
那泡
伴纳囊
体弱
之缘
加弱
勃锐
说弱
鞭
捡
求中
长多大才
输液管
丸巢
会不痒
烦死人
能放药
保到
并腺
提重
乐环
宫腺
方安
性及
怕怕
薄有
氯气
烧疼
时冷时热
耳多
症治
ph
三宝
阿娇
放醋
缺憾
留一
郑
累着
痛不欲生
呼啦圈
腹坠痛
一加
发是
内标
下得
多厚
朝
针尖
胸罩
椎骨
已后
红豆杉
接下去
土鸡
套会
横切
肾能
多囊样
旋切
乳后
拔毒
抽脓
刮掉
多泡
#mmX#mm
全该
堕胎药
液涂剂
壁有
供
射精管
单靠
吃克
罹患
续
还出
杀星
纯中药
臀膏
鱼子
兵检能
辦法
抗药性
囊腫
钱能
脑组织
互助
宫瘤宁
前景
做缩
前部
束缚
跐
中颅
桥角区
类实性
证吃
育
太凉
刚会
枇杷膏
灵能
清咽
他索
吃风
大葱
背头
日照
室间
法络
多得
偏轻
西甲
治脐
幺
脐窝
大大
对长
性早
不长个
聊城市
相似之处
可全
给治
速冻
娇正
功能分析
歪嘴
情感性
比利
雾化器
乳酶
用湿
嬰兒
草本
想替
手握
喃
初筛
甲低
颈髓
医看
安吉
径偏
耍
凝集
肺子
氏菌
毛细管
k#
找治
爱塞平
打喷提
创
治周
开西
胜会
多粒
郃
霍胆
鼻黏膜
白萝卜
清涕
生吃
可哟
能汗
跟风
孟多酯
胆木
桑树
叶茶
有散
头条
补能
树叶
能导
##mg
鳗鱼
宠物店
萨摩耶
幼犬
区域性
鹦鹉
杀鸡
量完
盛行
洗鸡肠会
中头
脖会
有鹅会
初治
能花
喝溪
黄茶
煮粥
能转
迟药
肝损
悬雍垂
会头
喉嚨
化痰药
子有
复乐
胭炎
喷到
汉堡
半生半熟
凉皮
凉面
致死率
飞过
良品
卤鸡肉
根会
泡椒
急性病
十大
合疗
得脑
营养素
匹
音器
得骨
人断
同住
呼衰
葡聚糖
限制性
全肺
五谷
小病
旁型
怪病
因先
肺来
索
口舌
索条
f
鼻饲
脑梗栓
先破
冷得
白雪
面色苍白
花纹
脐部
越坏
脾肺
血成
扣会
洗牙得
复数
菌能
败学症
绿脓杆菌
包守
背背佳
憋死
完气
抽抖
误诊率
刺穿
吃桃
挺胸
领
咯痰
孩童
烦烦
入眠
佐匹
安定片
na
雨
牙壁
腮部
包小
下肿
呱片
右旁
差用
颗粒感
灯火
算烧
左腮肿
老姨
过麻腮风
脸得
赶觉
芦丁片
疼起
igg##
igg##.##
喝鹅汤
分有
寒
满嘴
病感
换季
炎后
烧不退
用途
心脏科
哪侧
输人血
住意
血凝
右下支
肺气钟
吃易
中重
肺科
支镜
貝有
钻连
水越
少越
水行
胸水算
分格
火罐
泡沫痰
皮下注射
蝴蝶
烟会
依旧
背段
针针
要贵
症断
不愈会
斑片
能冶疗
水泥
吃敏
使朗
临终
无疗效
有费
菜刀
毒水
类药
暑热
啶
低化分
白桦
大溪地
诺丽
能治小
求小
#N#M#lllb
放聊
镇咳药
肺里会
肝气
咯噔
多排
陈皮
面粉
变能治
鱗状
未感染
微型
癌病
替尼
我报
吲哚
脑沟
拜复乐
运动型
一开
炎疼
大疱
开奶
原性
爆会
TP
我口
prp
间叶
X#
结是
方有
求后
肺腑
兴奋剂
叶舌
脑莫
儿能
七周岁
北京华
蛙位
Fspr
下会生
萌测
搜
健全人
周都
屈角
真得会
姑奶
七分
不大算
会退
HIB
局势
琥珀
手扣
两万多
尿会
吃不饱
晕车
蒙蒙
脑昏
梦多
麻黄碱
新同
買
會導致
完牙
区痛
肠容片
碧
拨牙
胸痹
始
脑有
爱生气
水泻
心速
梁
炒熟
有机磷
甲醇
冰棍
藜
汽油
毒蛇
肠积气
气性
缺钠
出人命
用青大
触电
疤会
落疤
包药
白肉
树脂
伏擦会
王水
多后
柴油
被片
外泄
膏涂
金嗓子
会犯
补养
血查
善
gam
厶
心血管科
晕死
禅意
高血糟
苦荞
高需
酥油茶
猪獾
河鲜
张化血
单能
无偿献血
平之
咖口
片制
高脂肪
体形
問用
放雪来
扩管
速速
头昏眼花
度不退
芬布芬
布诺芬
足血
里查
硬疹
面红
吃善存
水后
包后
浩
碟
会麻
示脑
银丹
软胶
襄对脑
消眩止
晕片
至脑
我妈脑
慢不慢
利舒康
研片
大板
歪歪
前患
样动
因血稠
喝红
预报
嘴眼
压片
柏金森
叫脑
麻手
冶脑
人愈
后防
人宜
吹易
诚心
双麦通
人腿
说不清楚
办随
热人
中花
这高风
低风
高血厌
那菲
及手
九正
手麻脚
抢救无效
独活
寄生
脑充血
亲为
唐世中
中風
松素
测睡
钠尿肽
九十岁
尿中
常喝
复健
护具
高处
肩袖
心性
气闭
鹿心
病发时
忽快忽慢
多源性
症候群
三万多
头麻
椰子油
服点
喝开
君乐宝
徳
这味
石椒草
员
瘟疫
冰霜
吡美莫司
喝安宝素
制菌
锦
悠神
打头
双扑
伪麻
护肤霜
吐过
隔夜
失血过多
有头
斑迹
带鱼
会抖
自主运动
朱砂
衰渴
长城
併
胸水冶疗
用治嘛
算快
筋痛
大脑皮层
挂诊
喝清
苔藓
宝打
药厂
空肠
天都
大米饭
性有
极端
U
R
兵役
###bpm
袜
蔓状
曲涨
尔
吃饭问题
脂肪乳
溜冰
底治好
心脏外科
上段
寰
稳感
挂骨
直用
晨跑
彻夜
洛克
会右房
汀片
谵妄
吸烟史
踏陷
欠园
痖
收小怕
树杈
能检
输清
查大
过能
头里
大肝
长寿
要会
染性
药买
单拐
能擦些
起白
身痒
臉
耳漏
冠状
桥有
浸渍
发热时
要取
多口
马凡
附壁
白藜芦醇
肾肝
胸廓
下胎
伤有
弯曲处
含氟
恶梦
CEA
心弱
做生
瘤体
匀称
六针
性室
痴呆症
吃纳豆
高钠血症
黄腻
力不从心
烦燥
烂牙
扭得
太极拳
史有
整骨
经峦
督灸
体湿会
剃头
爆炸
嗡嗡叫
心浮气躁
科能治
看腰
被试
阳上亢
诊室
目标性
洗脑
单耳
破入
墙上
跌
消栓
药停
需挂
蛇毒
通塞能
奋乃静
漏风
面癱
三叉
韦好
神经中枢
躁动
脑颅
血钠
体旁
脑梗能
喷血
要医
太高会
有针
基体
幾歲
难退
医科大学
反射亢进
喉返
饶
氢溴酸
應用
掂
起脚
屁股痛
加巴
之久
杜绝
有意识
咨询性
怕鬼
公立医院
食症
定期检查
康复中心
变有
世上
变用
能治胃
紊
凝似
加平
请王
冶不治
经鼻碟
囊变
总热得
乘九算
狗脑
增强版
陈立立
直型
值比
经蝶
袁挂
咖玛刀
粘性
不大能
脸有
叫腔隙
灶及
胸段
脖子酸
支撑
爆裂
犟用
治请
打清
脑药
初症
弥可保
总有一天
斑秃
治吃点
才治得
抽疼
无法自拔
失忆症
没医
肺心
多克
白求恩
下丘脑
皮层
失代常期
构音
断片
相能
益髓
腦動脈
樣頻
譜
什麼關
今查
吊起来
早会
顶骨
碧波
麻痹症
药治眼
肤对脑
斑长
阿帕
替尼片
说脑
吃雪连果
奇脑
迹
病科
裂伴
处有个
複
瘤经
湘西
州
确经
三博
麻会
脑肌病
野猪
摔断了
主治医生
用亮
偏身
时上
麻风病人
凑下
多尿
常服
脑肝
盐汽水
泳池
酚酞
开口处
腿走路
球有
出摸
琵琶
超行
质能
vclxl
有全
热胀
沾液
我宝
椰树
加肠
媽媽
阳型
丙氨酸
不点
有片
想长
涨肚
粪石
拉氧
痛起
不割会
右下侧
美拉唑
私聊
新行
十二支
老酒
带胃
热干面
快线
充水
脾大有
罡
还原型
谷胱甘肽
国药
肾为
白球
肋条
超都
后宜
索拉非尼
我想查
邹
肝要
辣椒油
总打
胃底体
莲蓬
辣酱
龟类
胃老疼
全腹
小弯
晚有
油有
低中
吃玛
白是
水杯
罗氏
拆完
八旬
外治
有肉块
不连
小豆
莱阳
现不流
螺蛳
中腹
压板
山竹
棒棒糖
汗液
伊力
替康
寶宝
旁路
伴粪石
换者
黏性
啊院
家常饼
克数
老拉奶
毫
胃管拔
定小
胃泡
级伴
边痛
蔡
任然会
做院
达吉
卤菜
求急
胆区
膽囊
绝招
白粥
哪点
钠片
正上方
九龙
发喘
生能
厘
干苦
brrett
溃炎
曾生
柳氮磺
驼奶
血肠
沙宗片
生物制剂
若叶
哈喇
银血
艾迪
准则
蓼
粘条
炎宁
贴能
消炎片
看护
酒才
钡
苏打饼干
苯扎
二丁
拉硬
饮食疗法
糜爛性
曲美布
小弯侧
莫沙
喝口水
丽珠
镇
脐下
治能治
根嘛
哪几
曾大
彩色
如刀
查才
腹坠胀
胃瘫
连云港
袍子
油管
结开
没下床
疼拉不出
剜
郑大一
用防
##mm##mm
烧坏
鲨烯
刚体
养肝
说继
去化
胆源
点五能
麻醉剂
#X#.#
乘乘
跟结
出胃
好取
天没上
药对肠
完电切
接肠
广基
吃东
灶性
旺
牙垢
军
失败率
预感
做切
淤胆性
胆系
正阳县
求药
石化
生孕
颈外
有软
用百
题
腰凉
过频
尿尿有
有脓流
易尿症
排下来
肘子
肾石痛
多食
高长
食盐
凝化
茶色
猪腰
有膜性
LGA
对膜性
先腺性
出腺性
发绿
有尿痛
利培酮会
郑安堂
外地
肾源
藕
吡
导尿
何区別
大青叶
必有
低能
能冶得
水蜜桃
生话
食用油
菇类
肉皮
女患者
怎莫办
表柔
微血管
lll
山茶油
脚后
胃滩
甲壳素
成甲减
凸眼
油多
吃肉会
烫头
潘
NKT
何杰金
好治些
GCB
噬血
鱼腥
脑长
绿豆粥
血竭
确疹
专
骨架
算胖
症好
树枝
半透明
甲狀腺
舌骨
骶骼
不冶疗
刚犯
消痛
纷乐
益赛
为类
肩筋
尺骨
胡椒粉
药经
能治育
葫芦岛
扒皮
这红点
右下角
再起
大骨节病
mds
貧血
磕碰
皮痒
轻链
IGE####
噬
老中医
防晒
伤会
同饮
润滑油
小刀
站街女
莫特
小瘤
阴蚤
会传
回痒
手给
门长
野
期到
后成
半打
弄平
祛掉
复后
糊口
呋辛
会输
微黄
金属
抓痕
眼痛
电光
用色
喝旺仔
hao
眼水好
红膜
乱滴
灌脓
源
珊瑚
手掌心
手藓
白屑
沐浴露
脚裂
整只
破会
鸡蛋清
打脊
期得
变黄
特指
浓液
症对
顿挫
殖
igg#.###
臂部
长流水
唇角
丁胺
外沿
热疮
怎冶
针过
假肢
翼状
胬肉
光化
迪
眼霜
剌
根断
苗药
光敏
氯喹
涂用
雾状
烟头烫
獾
子油
油溅
锅
毛细孔
阜外医院
退部
这眼
激
残痕
不吳
肝长
咋值
S##
较广
聚桂醇
海棉
彩光
母
拓
脚垫
银肖病
上臂
打欣吉尔针
药和用
往肉
多能治好
腰脊
内缘
祛痣
长疤
消不掉
能拉
出长
趾甲
伊曲康
罩
碍
沟长
那长
湿痒
尤文
电离子
樟脑
整形医院
窜
冻肿
玩雪
十六周岁
右额
癌伴
张医
灵散
内能
辣得
瘊用
膏能
腰腿痛
椎间隙
麻章
腰直
能装
牙槽骨
骻
姚
头下型
后鼓
半麻
小弟弟
发皱
漏出
右鞘
动力源
妇效
粉碎
PsA##
保列治
绝扎
精锁
绣球花
用美克
完尿
牛尾汤
帕明
针灸科
硬节
玫琳凯
硬包
椮
戳伤
板
七根
眼段
外突
脑前
克山病
鞍
液化气
调皮
镇雄
舌后
朶
十九
后痛
核糖核酸
针药
作完
比特
潜
尿石症
开花
做造
便频
痔要
肝曲癌
有肠鸣
T#aN#Mx
好肠漏
薯类
拿合检
用安维
爱必
妥好
根述
应作
时肠
得化
右骼
甩脂机
突会
六七岁
仰止
嵴
全摘
小嚷
二十六岁
左肾
过胃
胃轻
防范措施
肾长
中隔
大舅子
内新
可话
界里
雄黄
粉一克
EBv#
噴剂
有橘
瓣样
晚基
时快
吃安惠
调强
患在
六安市
华
角性化
分癌
麻椒
菜会
家公得
回吸涕
扶摸
内生
西汀
循环型
泰纳
三秦
滴进
看眼
中渗
颤眼
暗适应
性糖
盐澡
視網
病變
年會
咕胺
卤肉
散不开
该放
我牙
打桩
做牙套
白內障
可救
裂斑
眼是
蛀
宝有
翳
红有
盲袋
没配
塑形
夜盲
飘荡
眼震
埋伏
完阻
戴美
泪膜
文美
内霰粒
性取向
辛能
sm
外八
质地
偏小会
纽崔莱
高好
莫明其妙
我现
两人过
百艾
妇检有
液是
发庠
天未见
nu
理应
测会
停血
泡温
四度
用佳茵
用肃
用棒
孕棒测
mtx
米菲
天未
验孕棒
暖巢
菲尔
艾水
小叔叔
益汁
木梳
伴瘤化
圣洁
莓
囊装
又范
暴增
成得
乏
肠清茶
吃股
各精
天没退
采足
羽绒被
一喝奶
亮氨酸
异亮氨酸
周入
都发青
狰狞
IIe
浓团
相传
七活
八不活
食欲不佳
昏昏欲睡
种花
TSH##.#
赖安
管长
ROP
养活
滴济
周奶量
径长
视网
雅培
缩会
#kg
岱
流会
腰涨
节育手术
ICL
仔
高龄产妇
rh
九制
流得
相爱
天喜
净片
耳针
何适
阴超单
超未见
孕一深
测准
减高
米索
测纸
褐红色
条杠
胡是
一点红
交
CTN#
村里
多严
打瑞白
我外
炎热
及鳞化
爱宝疗
改怎麼
支原體
阿奇霉
咳呕
消唑
孕五周
you
垂下来
状及
疏
精管
对多囊
爱液
黄精
夹腿会
过要
彻底消除
挨刀
登记
降细
包性
棒奶
奶涨
芒销
抚乳期
通乳通
浦公英
六合
创灼膏
吊水后
改海
针回奶
不戒
胸一
美容师
会针
孩为
呋辛脂
判段
铺
后会来
排净
左克
红核
妇乐片
可致
杨美
葱蒜
银尔洁
血崩
藤片
膏有
巴洛
角痛
癥
血池
跨过
宫底
显怀
剖好
能入
长不起
低置性
生下
想怀
多卵
昆山
空腔
最难
话题
注药
天子
不多能
斑脱
屈螺
炔雌醇
偏高要
吃宫
孕三稀
及子
症應
用硝夫
有虫
重用
姜糖水
一痛
会测
想知
孑宫
再治
归来
拖出
阴球
肌对
练瑜珈
边口
过孕
低腰裤
表现形式
束身
环取
坡
会排
腹产快
有作
光前
蘩
成药
壁蓬出
腰酸背疼
伴张
力性
聚
祥顺
抗菌材料
药流会
管肌性
做超
准经量
出多囊
高雄
催经
天让
有小主
举痛
##m
彺
要戒
該用
用克痒
阴炎
关联性
我射
汕头
囊会
BC
##XXXX
亏
bv
病及
对胎
早破影
宝疗
及麟化
重糜
胎里
水嘛
甜糯
福格森
吃碱
土豆粉
基因芯片
始基
##xy
真照
紫杉醇
哪一
滨
lVd
厚能
用聚
舒康
多性
贴片
肌腺症
衰老
喝去
加脓性
性史会
常戴
隐型
有患
根痒
朱沙星
环素片
出支
药迷
培
海蛎子
但怀
宜阳
支愿体
越梅
按脚
长裤
完诊
患癌
先备
海
产会
流要
fsh##
三十六岁
外移
窄
咋治好
畸精
精吃点
无子
精死
玄驹治弱
质量检查
多药
左卡尼汀
精嘛
加功
功血后
功血用
免测
血府
脾厚
委全
贺
血生
崩
补佳乐会
胖嘛
功血诊
##mmx##mm
库尔勒市
小米
相关检查
弥
輸
二边
能全
成癌
药疗
巧
移
症治得
精氨酸
益肾
症和子
娴
预检
特洛
低排
大盖
正合适
PPT
胎有
缩肛
姿态
鳞片状
哌唑片
精体
吃安律
药卖
必尿
偏实性
条线
性经验
火针
迮
看才
优可适
瘦肉汤
番禺
多功能性
频凡
六十二岁
预苗防
Cin#
半能
盘绕
泰安
畅伴
芜湖
造影术
快破
征服
肿长
做造口
红外线灯
后放环
受精卵
打孔
脉象
添
锉片
东
片好
能胎
藥快
PH值
前测
避孕措施
能回
十字绣
公立
捡查
不高会
妇
小肚
莪
用护
超痒
鬼臼毒素
懷上
腺肝
药浴
风湿症
肩甲冷
后病
生活史
内实性
右角
Nt
露脑
用塞
芬
in
量体温
拍嗝
太细
带下
黄奶
未化
破流
破掉
吼
田
太苦
西瓜汁
月整
黑米
冰糖水
二母
宁嗽
加水
打湿
奶前
肛温
误
美沙
慈庵
阜阳
水包
零两月
脱甲
起疹
带子
外鼓
小女
河
变声
奶像
小丸子
小小年纪
咳咳
具體
爱力
风是
吉兰
巴雷
行性
吐词
圆柱形
胸凹
ya
颞部
堂
硫必利片
糖精
面肌
皱眉
偏窄
痰音
利落
小兒
腹围
儿会
维肤
温疹
张奶
发奶
衡水
茯维
缩泉
宰
孙道
浙江省
坦
隔袋
成拳
缩脖子
打冷镇
但脑
电仪
卡西平
扁头
间距
pku
减是
脑乏
并珠
凉气
做直
头大是
总痒
黄敏
痤丸
连花清
瘟
凉性
蛋类
小女儿
招告
病原菌
蜂巢
调好节
蒿子
诺舒易
受冷
我得龙
颚裂
豫防
体热
咽上
白有
爱得
䃼
沙丁胺
滴液
鼻毛
氦氖
鼻渊
窍
双辛
洗鼻器
抗力
風寒
痒且
涕风热
清热解毒
咖黄敏
起红诊
玉叶
畅疑
药拉
怀凝
混小
早胸
疼期
氦
吡坦
十曲
感性
半衰期
十么
乙行
破洞
原发型
西沙
血行
动感单车
叶多
柠檬茶
药茶
##c
泛福舒
干贝
梨汁
极性
烟炎
喷金
喉健
头凉
菂
犯该
神洁能
羌活
黄苄
钠输
肉圆
利咽
KFC
养鸡场
鸭肠
番茄酱
白切
那门
麻鸡
养有活
烤翅会
沾染
疫情
烤鸭
预知
胶水
喝替
超龄儿童
用奥
过怕
菌会
会病
人死
申报
肺野见
影及
云絮影
人后
病危
ppd
签
病狀
庖
肺磨
粘痰
天无
科呀
欢乐谷
用力吸气
屏气
胸镜
黄氏
蛤蚧
copd
六院
PETCT
检右出
胸翘炎
防疫站
喝纯奶
舒坦
大点
化痰止咳
昼夜节律
情绪化
赖床
老醒
疲劳感
老卜
钻牛角
睡意
但确
黑素
它治
难多梦
熊猫眼
无兴趣
图路
多导
白水
三伏天
吃百蕊
热伤
周热
不为
返校
雨得
扁脑体
吸到
出腺样
求腺样
腺樣體
会腺样
像腺样
过腺样
开切
吃喉
完腺样
患腺样
看下腺样
为腺样
总淌
水喷鼻
用麻
大鼾
包痒
痛情
交差
双阳
哈欠
腐膜
结件
作呕
绿痰
胸部手术
水奶
缺锌
蹬
救急
为森
重吸收
痛症
升压
低样
丙稀酸
走捷径
五水
致病菌
音重
从轻
评
氨曲南
抗链
咳会
退会
肝素
確診
痰种
脉动
天性
吃凯
芬乐
缺伴
奇美
路径
验查
压制住
桶状
气有
吃洋暑
完水有
起水
捐卵
可饮
烧麦
药脸
药吃久
胸水型
吃结
联关
木泡
四合
讓
結核性
快點
药草
椒
目葶
苈
背涨
能改
青海
细疾
苦涩
坚有
有神
顿梨
造成危害
压有
性鼻
虚有
等离子
炭疽
会串
鼻后
病种
用西
美沙芬
咳坏
通片
肺应
养肺
打克林
甲流病
HxNx
涌起
有别
沙门氏菌
头孢哌酮
咽峽炎
枸地
界定
胸常痛
孕十
绒毛状
菱形
汗腺
液基
灶状
检查费
分枝杆菌
蝉蛹
美辛
撤掉
自醒
打泡
动咋治
晕喘
不饿
渗出物
破脓
照肺
聚糖
得进
呼吸肌
几出
有多强
多强
耳隆
长水
舌吻
套套
軟疣
肺下
梭型
囊腺
盱眙
网肺
肩肘
怔
cD
睡托玛琳
一平
状形
规则性
fe
入骨
脐尿管
麟性
资格证
临床试验
合欢皮
肾排
尼可刹米
哭哭
不同点
鸦旦子
带菌
手查
我仔
超微
SD
头向
退儿
要断
升上去
喂药
辨认
值会
半做
三十五
李明泽
奇异果
帮能行
脐炎长
拒奶
伏涂
管漏
脐炎用
动就会
我脐炎
T#T#
喉喘鸣会
出牙
脂好
发呆
人来
神情恍惚
测血压
偏头
哄
晕得
晕晕沉沉
发懵
为害
吲达
帕胺片
茶能
修人
参龄集
却测
倒地不起
升到
求药尼福达
没气
耐力
压差
怎都
两降
低亚
吃兰迪行
真伪
北京安贞医院
lad
大鱼际
bbb
心堵
该禁
结胸症
解药
水银中毒
co
染完
自好
氨气
砷中毒
唾液腺
炭火
巴豆
中二病
抽电
酒店
块速
敝
喝果
啤
有伤
干石
修回
电烧
敷料
氢氟酸
碘伏用
丙烷
用美宝
茶树
脚盘
皮掉
爆性
紧是
乐脉
回会
被治好
胸通
应从
载脂蛋白
防话
户外工作
烈日
儿孩
我該
美能
过敏症
打虫药
滕州市
贴骨
眩
ne
腹主
酒泡
病看
经堂
收压
软斑
耳明
边瘫
周唐氏
fghii
人吃点
三高会
孟旦
有抗
大米
走能
有压
泡脚用
期会
粘合
雪天
屈膝
内側
伴半
处前
右漆
前侧
寇
活过来
转接
阵
扩心
长生
平素
减血
天欣泰
左房
早波
ECG
黑朦
房纤
何區別
喝金乐
健体
司丁
多下
脑死亡
右冠壮
小剂量
抗血栓
控制中心
导制
粉能治
闭气
验兵
检有
停博
早博是
或胎
月加
引生
吃立
普妥
高钙血症
右颈
疗好
舒张压
予防
决明子
法尔
吃巴戟
宫廷
济公
土霉素
对奶
乐儿
药皂
敏
颠茄
嘴麻
一瘸一拐
连拉带
伤处
颞顶
对眼
豆流
砖块
施捷
特重
干支
睡少
跌落
视听
举
玉丹荣
仲景
饮对
扩張性
急喘
新乡
冷球蛋白
冷球白
变应
利伐
ANKA
藤缠
羊鱼
诺宾
伴毛
角栓
统性
接节性
安卡性
碎裂
有视膜
牌益
肤宁
这一说
韦格纳
我炎
通血先
炎有治
嘌啉
红到
肿性
有经
激了
阜外
苖
抽下
用奥曲
剛
補品
先滴
高糖
胰酶
尿淀
减热
疼头
饱该
变肿
毒血
吃弥可
保类
最号
性窦性
录用
可达龙
心到
快时
补心
伴成
步长
一缺
补达秀
皂苷钠
蔗糖
林钠
荮
浅部
已程
术式
血官
后处理
国欣金
迈通
长距离
脑小
闵
紧身
叶片
肥肠
利伐沙班
地走动
璇
破馈
多孔
右房
豪米
轻柔
异响
小母
气液
伴量
微少
鱼头
家父
防和治
宁心宝
工度
右腕
整快
血淋淋
走形
会狂
打水
安贞医院
喜来
电凝
人血氧
细是
地奥
音是
打钉
天卵
小房
有卵
红药水
缓能
分伴
经皮
表浅型
纵深
前降
唯达宁
治越
腳氣病
给治好
脚老
请要
何医
重湿性
红处
情状
二手
鞋会
關於腳
氣病
小常识
酞洛
增效
联磺片
晕痛
粪肠球
吃北芪
那酸
伴腹
竖条
四十多岁
球茵脓
瞅
dic
解剖
氨酸
逆
介素
爪子
双睛
有布病
过布病
纳差
羊粪
云香
后长个
做全
退位
多塞平片
生理机制
秘密
致困
会多快
有法洛
生脉
怎让
降血
铁元
血管病
头眩
目眩
栀消
疗治
肩能
吱吱响
睡木
麻沉
脚木
肌底
手麻应
好困
洪都
伴间
枕能
个体差异
手胀
动脑
下头
醉
看管
袋鼠
zhi
累是
膏丸
问脑
阳虚阴
内伤
美时玉
去口
出产
治脑
舒血宁
撞头
太困
虾油
配餐
腔性
#d
接扎
安恭
黛
立新
哪间
后会成
没日没夜
实验室
芬达
原主
科能
打单
唾四已
贝尔
牵正
再障
完吊水
得癌
散发性
森林
紫殿
起热
NMDA
叶性
正壮
训练方法
sj
患脑
那裡
出医后
访冶
儿院
全血
应去
吐酒
林片
副神经
踝
足内
因外
傷導致
應服
颧
弓骨
右股
何首乌
硫辛酸
类风湿性
脚酸
颈背
发率
pj
鸡皮疙瘩
少白头
穿会
葛根
搭
油能
脑心通
精神创伤
陪
左旋多巴
喝白
多巴
解決
忧虑
发神经病
变该
状吃
TIA
自汗
腋温
舍曲林会
腺垂体
偏大有
襄能
伸缩
右疼
能溶
房射冠区
星型
双肩
会脚
姜糖
球后
撞车
黑胡椒
忒
外源性
补上
油大些
血氨高到
电脑病
尼克
放射科
大量排
咽该
西安市
行为障碍
头会痛
内皮
相向
依赖型
服安理
性趣
新伤
联
天氣
军医大
懷疑
厭
绝食
下饭
免体
总不爱
受够了
缺辛
一闻
姥娘
庭能治
单疱
偏激
苦闷
尿蹦症
多谱
MRS
留访
母瘤
泰道
手完
做多色
素法
朋患脑
雪连果
接治
和继发
少枝
金春
谢姣
发些
多形
吃甲泼
无氧
凉血
患侧
osb
做晚
科技
颈静脉
球瘤
应响
进饭
前会查
zh
阴径
留后
脂质
性肌病
六处
发神经
对腔隙
瑞克
脱髓
药贵
吃普
脑桥
甜椒
威尔逊
保脑药
石桥
浙医二院
卤蛋
用花油
动该
独到见解
吞没
特放
过肝
肝豆片
豆沙包
巯丙
磺酸钠
替诺福
蚁
病杂治
瓜果
症能治
一片空白
厌世
锥体外系
斑蝥
硧
诊患
灶腔隙
抢
秀发
算长
里昂
远段
有雪
肉肿
肛泰栓
坐卧不安
队
杠泰
小肉团
治下
第四第五
三对
亮
张丽娟
挖耳勺
生儿育女
泡海
法莫替丁
腌菜
缺牙
少吃多餐
水水
土豆泥
痘疹
必敬
羊肉串
液多
长乐
恶心感
坠感
未婚夫
点话
栓杳有
黄痘
上治
假设
对半
胆环管
很饱
已行
出乙行
有制
X##
黄旦
眼百
分身
手黄
搞对象
肝大是
公共卫生
喂食
HBsAg
见长
平胸
假肥
人瘦
性行
引响
导流
点痛
谈
胃乐
感吃
油桃
大妈
饱嗝
制治
舒普深
泰能
脾大是
低脚肿
😛
肝掌
rg#
多该
癌坯
盖化
葫芦
转安酶
易善复
脾内
alt###
吡非尼酮
肝岛
大蒜油
金胆片
果珍
胆舒
肝内强
现肝区
复檢需
吃蝶
欺
脚黑
卤过
麋烂
问点
管磨端
胆码
几有
卵灵脂
中葯
说肿
要百想膏
肠液
有胧
之疼
阴穴
塞莎布
有肉长
线刚
中算
切缝
宗
漏管
痔清栓会
痔好治
小嘎达
thank
果蔬
时不痛
会血
胃脘
止胃
知能
治痛
橙
查获
茶会
RNA
苦有
肝爽
柏
hcvrna
又快又好
Hlv
能输通
压缩饼干
刚通
左闭
怎莫治
排完
吃橙果
加反
肠有
罗卜
茶能治
雷贝
青梅
回填
如题
用妙
丽迪莎
渍疡性
完水
连片
吃肠
胰头区
老范
病厉
隐身
天需
胃区
时肩
治完
胃及
呋喃
碳酸镁
多枚
o.##
脑硬塞
脾大胃
吃瑶柱
先验
点绍子
突下
胃壁
多能
戍肝
献过
肝胀
入食
流质
透
歺
喷门癌
粪门
中上
医科
甲氨苷是
HP###
株
蔬菜汁
会会
干部
卡散片
乙类
蛤蜊
嘎气
反流伴
意嘛
粪菌
溃结
便水
乏困
屙
克痢痧
天拉黑
黑是
多宝
笨笨
菌俐会
套结
抽绪
活性炭
罐肠后
血肉
吃顿
水灌
夜奶
腸套
疊
霍山
复套
关痿
哭恼
天不拉
辨别出来
大肝内
病大
效果图
气胀
花生酱
他林
夏姑草
瑞巴派
健胃
骆驼
怡
吃兰索
什什药
及肠化
变轻
潴
多系
癌症前期
什幺药
宫肠
胃康灵
饮茶
谷氨酸钠
平长
卡其
花蒂
會有
转氨霉
人一累
赛若金
回输
肉多
拒
存水
痩
铅表
探视
吃片
仔黄
性性
保肝护
泄肝丸
五更
锦州
彩照
吃安络
化纤
会治
F#F#
曲改
F#
红药
复水
保胆取
石术
哪一科
结多大
嘴发
胆炎
先送
脆
蒿
病原体
健下
削掉
内炎性
取不清
大吃
岁肠
肝里
偏稀
调配
查得
差出
提取物
药肚
养生堂
短段
胃低
vll
胃严
∀
抽姻
前表性
丁三醇
并症
T#NIM#
炎会癌
打胃
用分
平散
陕窄
未胃
除后
能吃兰
索拉唑
賁门癌
胃常
聒约
手求
父
皱壁
短腿
伴发脑
绿豆稀饭
补钠
低氯
熊猫
烧热
芍药
打结
失代尝期
活不长
这甲丙戊肝
丙丁
丁肝
有戊肝
戊肝得
甲丙戊肝
我戊肝
乙丙
血小低
戊肝要
发酵
发寒
周肝
索洛索
带能治好
隐处
病外
病涂
邓蛋
人民院
会治肝
中到
肝脂
注音
通利
切肠
奶会肠
了腸
移肠
漏肠
桂附
蛔虫药
病吃点
十四
度半
疾病症状
旋涡
肛旁
人长
肉苁蓉
尿尿痛
老会
药业
石快
金乌
一人位
终合症
昔布
lag
呼冷呼
喝玛
喝雪碧
LCL
因数
因何
证膜性
肾喜
伤肾
冰梨汤
加要
黄桃
莫片
新月
rb
性该
为癌
下腺性
你治好
食疗方
早转
肌干
康唑会
种痒
不队
伴上
正嘛
壁内
捶
远光
虚肿
多维
吃码
乳是
乳症
玛卡
用酒
肝丸会
大盐
金木双
青能治
猪苓
####ml
吃雅翔
增健
巿
硼沙
malb
鸭心
参雄
温阳
很乏
脾软
绿萝花
能冶愈
超负荷
皂苷有
磷酸钠
腰腹部
加二
局灶节
金维他
潜能
三加
肾区
万爽力
试药
骁悉
四型
猴
入组
igA
会过
一饿
键子
六五
小白杏
消渴
脚腿手
尿病
瘦下去
查甲功
优甲乐能
分布
丁能
用油
下脂溢
发油
反覆
蛇脂
皮宝霜
出油会
下马
人中
用爱宁达
用康王
乙氧苯
柳胺
常年累月
溢性
性脂溢性
止脱
硫化
油发
侧柏叶
皂洗
这观
亿珂
二疗
Burkitt
IghTcr
放射治疗
带瘤
NON
GC
LDH
贝塔
IVB
脑该
非奇
腮瘤
主型
草汁
猫爪草
声声
颈后
白片
左额
BUrkitt
再取
陈昌
可及
克耐糖
椰青
麦芽糖
二十九
亚铁
隐亭会
包绕
证是
关结痛
必达
转流
仃
橋本甲
狀腺炎
兩年
喝贞氏
有亚甲炎
乔
痛風
优甲乐会
压积
槐角
遺傳
哪科治
合不上
截趾
mu
万京红膏
未预
截趾后
病喝
王丸行
前痒
点该
小檗
碱片
身患
炎挂科
地奥司
甲勾炎
实变
硬状
症有治好
会脱
病兆
拜新同
变大变
治方
本病
发僵
颈前
紫纹
我易
奥泰灵
邸
疼脚
脚环处
颞下
总苷是
白云山
强脊炎
颞下额
二十二
有木
神经过敏
蒸脸
护肤
舒敏
之星
用舒敏
股及
用玉泽
我类
对类
药贴
胯部
对朗
电扇
可的松
类克
苍耳子
摩托
阴雨天
白脉
粗隆
服痛
淤斑
药科
吃强
地松
桃酥
过甲泼
吃涝
糟
容颜
阴血
ASORFCRP
猪瘦肉
出小血点
轻量
圣病
大龙虾
萝卜汤
烟嘛
不预
喝人奶
药剂师
蒸房
褪掉
鹌鹑
莴苣
会升
线雕
问看
外擦
痛风病
变冷
sle
关节病
害冷
格列卫
急淋
新装修
完全缓解
FAB
老喘
白癫疯
刘翠
漱口液
龙葵
金戒指
肿会
一疗
球型
可然
肿瘤性
洗牙会
腺病毒
周天
脱困
干涸
周论
药迟
巾
吹箫
阴转阳
毛状白斑
化学发光
一夜情
灵敏度
借
hpv#
复层
钱治好
手帕
蒋
阳具
长小肉
男男口
菌状
皮上
区囊实
肾窦富
几把
武夷路
舌系带
性假瘤
安顺
朝阳医院
吉林市
怕水
咬了一口
痒长
碰掉
周出
彻夜未眠
擦破
填平
一湾
培未
岂
顺德
桂洲
xxxx
芬有
铁杆
一连
这起
我起
伴双
夹色
HSV#
老红
LgG
吐不出
黄泡
洗月子
咬后
急呀
醋精
根儿
起痒
手里
麟屑型
脚成
药脚
长该
刮除
用拔
夹掉
挑除
用夫
老发
长瘤
天凉
白癣
舒霖
去屑
说血热
≥
锥
阿米巴病
RPR#
咬得
海群生
肉毒
泡沫状
排泄物
粒状
胶状
发泡
用林旦
林旦
虫卵
毛用
胃缩性
岬炎
菌性
穿掘性
性反应
药冶
创可贴
优卓尔
豆印
长痣
完光
达芙文
侧长
寒性
发量
糠
新霉素
日晒
康乐
白包
脚起
脚是
二十多岁
涂唇
釉
克洛对
吃芹
芽
隐翅
伤痕
糊
小白块
药到病除
片装
脱失
用涂
wood
更白
打腿
干冰
火烧火燎
鸡油
擦赛
肤润
问约
处治
有化
煎鱼
烧烫伤
泡肿
层皮
横批
袪
发暗
用调
吃泛
只起
毕想
菱角
生水
蜘蛛网
芙
不抹
戴久
方颅
贴成
角质层
膏好
股癬
檫
银片
用卡泊
卡西
力士
五倍子
上池
怎半
馅儿
龟裂
卤米松
皮检
拔甲才
伏能
大姆指
凡士林
手骨
右踝
酸沉
慢吃
眼眉
架子
用莫匹
液氨
涂艾洛松
皮诺欣
乐王
霜剂
濕疹
过针
凸疤
砍
消疤
电风扇
瑞松行
强效
波西
阴颈
想了个
病死率
皮外
艾坦治
宜忌
皱
只涂
电子线
辽妥
敷贴
小痣
吴军
湿乎乎
前阴
水产
紫红色
误区
香肠
组胺
用新癀
病犯
指腹
雅漾
裸脸
红鼻子
股藓久
瑞松后
擦维丁
挑出
肿肿
电刀
用线
濮阳
对户
颌面
症脚
须疮
得口
两颊
洛美沙星
药越
瘊的
瘊吗
长刺
面怕
灰白色
叉
艾地
苯醌
症喝
症带
女婆
和椎间
右下致
椎突
膨突
阿心
菅凤增
蓬出
甲古胺
李向前
压排
L##
医姐
做小燕飞
还冰
峡部裂
崩裂
植骨术
襄性度
两断
端销
取钉后
北京积水潭医院
轻微伤
额突
额窦
末节
远节
应打
出白
舒根泰
精不
面包皮
阴经
检吗
还晨勃
无梦
腹下侧
泌淋清
用白
裤头
翻上去
美芙宁
银离子
结长
后尿口
不干皮
阴痛
加静
皮里
阳委
克洛片
黄尿
BpH
尿屏
cvvvbnbnhjjjm
寄
關於雙側
算鞘
熬成
炎咋治
凯克
杀灭
四妙
cm#.#
灶用
尿线
涨往
协调性
粉妍片
薄膜
第十一
百分之五
雞胸
佝僂病
缺鈣
胸严
胸嘛
刀子
套扎术
壹级
危组
候咙
爪后
样骨
膨隆
前脑
出后
不锯脚
筋脉
深静
收口
镇痛药
上腔
窦性停搏
紫颠
血印
比星
头能
不长算
时羊
蝶鞍
封开
有条
大阴
代代相传
整没
疤药
裂痛
搽些
猫爪
血亲
看四
得话
整能
钱能冶
鄂裂会
有怀
频
裂快
有屑
最加
现治
好辣
无针
面横裂
点血
上牙槽
翘皮
歪塌
缝样
并长
小疮
雨下
唇边
忌奶
上唇线
有粒
换儿
裂肿
首饰
高血酯
减降
蹄子
服部
久座
快犯
刚清
完毒
病需
陆
龙凤胎
那家治
彩能
不垫
三分
裂该
大排
周排
看兔
极致
梳
能碎
psa###
反生
石耳
天晴依
psA
要食
白粉
比卡
龙能治好
比卡鲁胺
生植
达芬奇
尿不畅
肿水
PSA#.##
坦索罗辛
宿小
转低
放療
能癌
七十四岁
孔造
CAB
腰腹
移行
拨
Fh
急迫
套扎
越爽
外痣
上气
片血
发时
期下
痔有
报警信号
疝术
挣长会
疝变
开放式
跟肠
派克
核是
类能
肝移
三令
吃防
啼哭
顺是
航空
连洗
藥能
多白
鼻渊片
好成
鼻类
硇砂
宽大
长不治
求知
黄骅
矫正术
空鼻症
趾骨
长途
半切
警惕
伴双侧
吃洋
看挂
胰尾区
突部囊
周肺
癌化
性橫纹
藤熬
掏粪
同病
腺泡
班点
侵润型
树花
赫赛
仲留
管癌
吃角
诺扬
开麻方
cA
约物
重离子
怀接
续命之
多行
多发病
双膦
酸盐
患旧
癌肿
患病率
两码事
血钙高
松液
做颅
糟透了
鱼骨
刺中
胎癣
外生性
身心
颗会
叛逆
茂名
却定
填
单亲
猛烈
光斑
痛麻胀
腰护要
药能治疼
应变
没入
一个胎
说胎
算胎
跟胎
很弱
或药
停滞
率高会
胸不涨
后会胎
天会胎
現在孕
停會
戴牙套
牙拔
眼贴
千度
近視
裸眼
阿瞳
选取
板腺炎
眼晴红
儿科医院
加视
需管
伪膜
咬合
恒牙
满口
上牙
牙用
马牙
杯盘
代付
前房
有妙少
佩带
老病号
or
东莨菪碱
青睫
現己
太阳镜
有雾视
眼发会
窝沟
种牙
孩儿
视弱
梅氏
花针
双下眼
临床医学
仪能
黄头
眩光
冷光
风沙
用施
云体
含漱
子疼
害眼
色彩
调节性
薄唇
发雾
蒸气
远眺
眼力
眼轴
眼晴飞
沃丽汀
后飞
亠
飞来飞去
萘敏维行
驾校
单色
红绿
格式化
贝伐
高盐
鼓膜炎
基台
种植体
植体
患泪
炎泪
托百氏
胆碱钠
双声带
卤
上肉慢
伴发
鼻泪
窦炎伴
总掉
挂水加
眼仁
孔头
瞳会
磨眼
滳
左右眼
老花眼镜
自评表
森田疗法
恐病
忘不掉
安乐
自閉
恋爱婚姻
患得患失
帕洛西
婚姻
学前
封闭式
SOS
辛能治好
图下
母爱
没来由
厌恶
木僵
双向性
好感
嫉妒
裤裆
正能
残缺
部腹
烧纸
城泡
孕宝
阴肿
凯妮
细茵
浅色
乳酸杆菌
三生
莓菌
治预
加肤
过甲抗
HCG####
手热脚
出月
多周
天底下
血会流
流產
血不多
这月
晦气
天血好
天血
不来量
孕症
我流
通管
烧痒
挺痒
厚壁
性液
hcg#.#
囊状
胎死腹中
过子
现想备
孕应
诊问
导服
亮丙瑞林
卑
吃欣
肿节风
药才治根
乳个
乳結平
有会动
对育
纤体
往胸
幅乳疼
停停看
化肝
服用量
考品
素治
消遥
六样
英行
逗长
爆痘
冒痘
低属
内分
看裁
昆泰
出痘
现孕
很会溢奶
周算
漾奶
做护脑
栓会
成水状
怀得
周胎头
小牛
胎龄
小馒头
包头
背对
见红后
刅
拉拉
老不疼
胎泡
为孕
性刺激
红算
环酸片
针反
停要
营养元素
吃天
盆炎
有子
枫斗
甘诺宝力
能吃维
巢之安
票
生小
内伴
良
天帮
有印
假阳
举出
浅印
省肿
宮頸癌
年紀
李晓光
#A#
扁豆
阳会
稀如水
tctp
全切术
apv##
性经历
打得防
内疗
De
期低
#b#
IIa
la#
打水光针
很火
LCT
tbs
低型
偏早
东营
中靡
治疗率
cnt
爱犯
超影能
好西
付爱宝
斯密
留黄
美唑
查觉
电磁
用玉
庸医
破处
输暖管
补血针
奥诗蒂妮
老小
人名医院
上消
hPv
需耍
lvshi
钱前
張会
骚味
土话
赶
身孕
蛇床子
乳线
药消
有强
卵细胞
查清
后忌些
蹲厕所
血多
黄脓色
缩阴
珍妍
滕药
根能
經會
痛經
吃待
因片
宫炎
汤要
吃服
滕能
能破
见红能
出说
已达
颇
#g
沙井
不内
射会
农和能
韩姣
去北
信阳市
九州
听闻
弟兄
功能主治
吃莓
沉迷于
宫寒女
炎阴超
炎嘛
打甲
英达
綜合症
爱爱会
超来
宁好
查为
口裂
空军医院
症加
阴骚
太儿
诺佛
灵栓
妇全
色黄
用舒安
有敦
小产
坐小月子
没流
希米
juc
会通
通没通
经痛
旳
后放
环用
新乐市
复连
线中
先涨
更成
管膜
粘接
完照影
变现
薄取
菲薄
能流开
康丸
血和尿能
有危
放线菌
用卡波姆
摘坏
宫暖
天末次
神经细胞
明怀
第十七
看女
血融算
霜会
性命
想顺
没缝
多胎
反疼
中孕
伴腺
结扎术
次宫
要孩
推注
上节育环
做皮
空囊外
博动
唾液酸酶
早破伴
三四十
排异
伴麟化
栓好
磨烂
伴麟状
长多大要
来后
pet
要明
甜玉米
全麦
椰汁
喝西梅
玉米面
红毛丹
充饥
籽粉
引向
新养
营养师
周餐
面能
喝土
s##
孕产妇
玉米糊
阿尔发
喝德运
粽和肉
粽
板票
吃块
豆沙月饼
食多音
核型
#qh
类人
医源性
Lop
西黄丸
水有
即食
外股
总股
癌刚
Gigo#
卤鸭
#ag#
癌治得
有多厚
孕激素
癌大
癌一
癌阴超
阶性
极似
年尿大
结灶
癌冻
调味品
二十多
弥漫型
風險
癌有何
天腹
高中低
王不和能
期已
肌体
节育器
代孕
黄豆粒
十九岁
欠均
束后
CRP
乌市
授
腐竹
##CM
打达
我接
解不出
消糜
酒糟
银尔舒
all
回乳
吸好
追奶
要全
廦
拍奶
催奶
师排
奶给
喝花
胶炖
初产
吸烟者
按通
关吊水
完吊液
便少
尼西
地酸纳
散利痛
HE#
项刚查
PE#
会小会
哈有
会能生
有验
流多
毒是
次孕
海星
抗心粼脂
滑胎
动红
吃坤泰
排针
早衰现象
雙子
閉經
amh
发稀发
再天
触碰有
幷
还算弱
AB
症和弱
活率
得弱
中信
这弱
左卡尼丁
NP
希维力
精对弱
畸精症
多尿会
锐
博力
精病
弹丸
过生
精药
阴劲
龈
下功
能治功
体息
会难
利与弊
泰利必
上曼
纤细
造影剂
妇幼医院
佑
簿
成能
超测
就测
氮平片
脚轻
宝丸
能症
手眼
干热
湖热
混身
衍宗
我弱
性欲强
学位
发法
性桨
前沿
宝妈生
阴带
种高危
患人
黑骨藤
趁短人
hpv######
混血
HpV
型弱
H##
hc#
h##
低该
淋病菌
用祥顺
达克
宫镜
腹超
心形
角型
奇形
隔完
疑浅
怀到
结孕
胃泰
fish
做细针
港
hRV
癌女
热炕
说期
交出
千微线
ib#
样儿
姨姨得
猜能
糜爛會
不會成
為子
宮癌
∞
恶型
二十四五岁
稍厚
立普刀
利普
理赔
累级
cin#hpv
能足
通极
囊瘤
吃拉贝
康能
和护
长春市
巧囊会
多囊加
手术室
游
显微镜
精能治
钢圈
待产
一宫角
Hcg#####
转正
右宫角
好清
宫角略
做爱做
双宫
角能
SSG
三六妇
甫
蔬通
液输
胚泡
阻能治好
一触即发
冶能治好
国药准字
冷汉
频谱仪
罗沙
左氧氟杀
慢前
梗治嘛
川百
呋喃西林
洗有
馄饨面
参连
还易
分假
LEEP
白后
抹抹
免
偏小是
喹诺酮
小有點
不太有
静若
伴钙
抽查
好顺
七斤
困是
能融
杀虫剂
强阳会
六盘水市
溢水
插线
癖康
拖安
#x##mm
割下去
跟生
膨
肌壁间
治带
破法
小葫娃
黄脓状
乐园
吃护彤
黏糊
不吹全
拉到子
微热
呼哧呼哧
咳用
素能
咖啡因
金线
金振
較
氯倍
小手
发完
菌血症
发烧时
开调
芫荽
出透
回疹
从出
退疹
生急疹
自然风
过花
线衣
急疹期
刚退
热退疹
断掌
住院医生
安微
手要
惠有
你会治
曲靖
会汉
法乐
贯通
氏症
石缺
部能
从右往
左流
威逼
法氏
药预
天男宝
能患
完脐
大不哭
压回去
终
溜溜
臍
药包
凸凸
医开
压老
气脐
黄绿
软该
贴暖脐膏
带勒着
多大脐
德脐
获取
二個
绷
肚挤
气不脐能
欧脉
宝马
收好
孩子气
带行
对气
打亮
丙瑞林
怎眼
喉結
同齡
小夜灯
屌
美素
PT
喝启赋
肛超
有物
盒装
开使
男会
大补
实
一拱
已基
香兰素
打管
看医
变深
岁算
吃大补
要测
来曲唑
般过
红米素
咳嗽病
宗合症
喝球兰
半宝
挂水会
奥斯
他伟
咳一
倆
咳到
鸡叫
出内
青大
黄岛
样本
痉咳
八十六
服水
不美
两口
型会
随州
晨轻
暮重
胸挺
缺和室
凸是
资费
突么
缺锌会
我剑突
练出
吃迪巧
行腿
油煎
近似
缺锌铁
胸窝
治去
哌唑
贴治
会酸
嘟嘴
打百破
看诊
飲食
顺峰
患奶
尖长
乛
五十七
韦他
漏检
会得脑
海螺
早闭
蹲脑
下脑
商
横径
婆姐家
科目
通过率
视神
周患
变强
谱系
伸舌
腦病
TPPA
就生
四十七
黄涕
打屁股
清凉油
蓝消
得输
溺
用胺
典酮
扇动
化使
天重
变左下
坚质
咳黄
片比
烧出来
张肉
冬游后
输些
德众
片怕
洗鼻后
黏是
鼻净粉
鸣
支氣
喝急支
禾
乞
咳不太
吃富
体偏
刚转
嗑
噪子
NaN
克亏
脓涕
鼻渊痛
昏昏
冲能
倒吸
玻料
好药治
内拿舒
辛夷
皮夹
清瘟
净能
金感
多油
吃杏苏
牛油
皇冠
可泰舒有
扑
喝板
兰根
吃微
男风
火泡
实热
虚热
立克
凉水澡
加多宝
焖
算风热
润
肛癌
烧膛
会晚
吃臣
康安
疏风
拗片
可威
后血钾
批号
乙形
集水
百货
血播
洞会
曲菌
时护
常鹏
nse
星对
干酪
iii
穿山龙
DR
辞掉
吞痰
导物感
洗牙咽
慢心
洋洋
事谊
蓝族洁康
能注
有阻
梨状
核感
慢严
舒柠
干草
分叶核
埃
滋补
氨卡
液用
再输
化胧性
zmzl
真空
变蛋
杀鱼
华联
一品
心蛋
离着
代皮
N#n#
黄焖
羽绒服
小鸭子
鸡头
好晕
胗
鸡毛
嘴会
有受
厨娘
鸡能
风波
死鸡
工序
鸡旁
蒙城
触碰生
治防
下人会
万恶
超敏反应
肉馅
疼觉
下蛋
口诀
n#n#
血豆腐
养家
鸡排
不染
瑞安市
卖鸡
吃用
粘过
诊状
翅
碰猫会
临床实验
炸鸡腿
有血会
砂
药会伤
pdd
复星
打风
痛宁
赛瑞
调忘
批林
八子
交流会
法国
接出
血线
烧有
安国
肺氣腫
中日友好医院
支要
食量
问世
胸水为
爹爹
直揣
买家
气源
退肿
逸疫能
咖来
#S
用蜂密
浸
祘
缓助
肺心症
活菲草
个科
立得
全托
赛普
胸科
肺结
药如
脸麻头
没泡
夹管
胸小
气少排
用信
重隔
我吸
右側
受壓
形態
发菜
撕心裂肺
摩擦音
好胀
icU
震震
窝觉
宁乡
纵核
以经动
鼓泡
难肿
氣
猛会
闷喘
排管
突然性
缴痛
深吸气
家务活
布勒
难干
喘鸣
寒热
什儿
患热
刚怀
头疼脑热
吹成
加点
会代
若得
怎一腺样
能不痒
起一
快俩
rvigg
專家
剛起
發風疹
正患
IgG##.#
越多越
某
性毒疹
能吃息
思敏
hafp
lgg###.#
零月
吹到
IGg
肤舒
喝冰
应服些
咳簌
签别
环丙
有二宝
出泡
口嘛
出疱
满嘴都是
春夏
血气
药时
胆香
谈多
指多大
脱氧
天反
一哭会
打美平
红霉
养狗会
Hsv
裸音
针才
呛着
嘴吐
igg###
能倍
乐克儿
弊
用治氧机
怎以
出玩
加钟
吃辅
罂粟碱
肚肠
细辛
真均
高厚
门特能
脚虚
紫肿
药可冶
什肺
唬
玻酸美托
气冷
出屋
咳束
治以
经有
天血项
邻家
吃华法林
張嘴
咳断
定喘片
波生坦
喝冷
IMG#
海藻
完纤
七珍丹
提眉
吸不上
溴索
喝补
红红火火
恍恍惚惚
肺血
零岁
什叫
奶得
有毒气体
溶洞
上页
痰刻
药胸
肺底
职有
兩边
伴实变
焑
破碎
梨儿
求赐
尖段
压胸
百分之八
肺模
门旁
计
多叶
心慌慌
侯镜
影双
慢支气
会觉
项背
苏黄
打斯奇康
百部
咳臊

吃错药
ssss
发吐
终末期
延安
救援队
科帮
外排
网上医院
红案
还治
小粉
虾米
圹
线片
病难
临床用
咳粒
支气
男慢
肺能治
低流
可治慢
老漫肢
即慢
扩养
对慢
桉柠
蒎
九芝堂
斯奇康
氧要
湿罗音
有膏方
司匹林肠
溶能治慢
气冲
YIJpi
鉴别方法
糖原
Ca###
肺会
肺及
肺多索
堡
肺天
支和慢
打什针
流快
流浓是
踢翻
加甲
韦吃
剪到
臭有
欧凸
女宝甲流
指缝
是样
查甲流
达后
焦急
庖疹
😥
多半年
求会
乳蛾
热毒
前犯
后敢
会烧
康唑片
蓝宝石
偷
鳞性
us
性型
TcT
盐会
淋状
性鳞状
ASC
忕
黄辣丁
声嘶
赛可瑞会
我姥得
邢台
马胞
芝麻油
节疼
结病
局澡性
眼环前
头孢西丁
鲶鱼
炎喝
炎打
COPD
黏痰
叶小肺
音有
几童
苍白球
潜状期
会损
烧煤
困觉
吃尼美舒
氧好
樱桃红
酲
越久会
晕迷
高氧
干月
治咳嗽
血样
下管
尤用
安全措施
男口
门内
期有治
须查
鲨克
升力
PD#
独参汤
分用
马刀
气门
凯好
肺伴
肺门处
吃鹅血
药类
坚消片
喉下
硅酮
深置
留针
休重
做血常
爱儿加
两要
补维
选惠氏
黄那敏
澳佳宝
性黄
可需
图解
多指
戴子扬
做开
反流束
并膜部
大者
后右房
mm#.#
单腔心
部型
未闲
天能查
隔瘤
卵元孔
看脐炎
败皿
晒查
对娃
K
项是
有少
似痛
服拜
控释
下药
大为
披肩
康麦斯
鬼针草
酒会
安灵
阿司
阿卑斯林
灯盏
PCI
肝胃
艾力
麻针
硝酸甘油
柴银
完牙后
老发沉
咳牙
看晚
吸沙丁胺
羙
㽖
化性
心痹
分几总
心脏病发
五十二岁
黄灿
位疼
胸阀
挂靠
喝杂
毒死
水代
伊可新会
同吃会
化学物质
发芽
肚能
永川
纤
冬笋
会进
醒酒
新车
心中
桃吃
消毒液
防制
完电
功臣
抗休克
出大汗
有磨
放花
脸手
皱起
火堆
泼酒
炮仗
凤尾草
疼擦
疙疙瘩瘩
敷蒜
庙里
香烛
膏后
姜粉
嫩皮
浓硫酸
火星子
烧熟
甲酸
皮肉
固化剂
火苗
揭掉
烧碱
明火
石灰石
伤愈
腿威
电火花
机动车
趴皮
地西
扩长型
zhengz
体考
毛克
懵懵
打丹红
校医院
鱼生
紧想
反响
喝防
大白
二锅头
虚脱
哈密瓜
太虚
入脸
冬菇
簸
解磷
碇
对抗
替孝拉宁
抖会
浑身上下
吾
闷想
重吃
气算
胸压
竹
沥青
天开
瑞坦
灵酊
西淋
服头
nbsp
吃护
病退
闹供
淌汗
有主
说主
症用些
加啡
加心
人炫晕
体循环
心烧
速是
醒侧
肿脚肿
疼点
髌下
左距
上冈肌
脚环
左肩袖
腓后
真实性
腓侧
昨治
吃虎力
辣椒酱
脚会酸
撞倒
尺侧
左膝胫侧
舟
掌侧
骨间
固位
周可
打三氧针
左膑
喙
肱
足球比赛
提物
侧复
支杂
放枝架
能区
替格瑞洛
血壁瘤
容师
ghhhnnbnn
阿士匹林
心耳
壮态
逆时针
与治
述
青块
想太多会
短路
颈心
连包
救护
k
社么
北京宣武医院
RR
窦房结
脉波
停搏
mv
心窦炎
律窦
房游
LGL
偷停
对兵
偶会
心供
室心
言重
院流
隋
活胎
奶少
症见
斑点状
珍爱
行军
热菲
七厘散
吃琴
喝赖
肌醇
用妍儿
肤乐霜
喝亲
儿素
生么
雅士利
磁石
错服
吃斗
米虫
g#pd
服七厘散
施芙洛
肤宝
紫苏叶
喝易
坦净
灯笼
奶味
员过
青草
分母
裸花
紫珠
吃息
吃惠菲宁
七里
柴鱼
润肤霜
胞类
曼秀雷敦
诺如
一慌
红黄色
生痢头
挂过
大烟
同食会
卡上
监定
抗艾要
导入期
cuo
比林
抓握
头型
比智高
手震
系未
捂到
尖足
脑损
大月
捷
拥抱
砖头
危儿
bu
受体
服可达龙
ICD
不对称性
能夜
问下严
扶理
过样
首
脑溢虫
扩展性
脚酸有
达倍
缩进
限制型
鹅口
多大时
思连康
针先
回头
针种
脚肿架
肿放
V#V#
算病
用倍
这道题
五有
完右
左睡
过百
心窦性
做地
stavf
导联
多条
天窦性
早死
stt
分严
竇性
v#t
改速
过轻
波窦性
定悸
超短波
暗色
寒天
黄热酒
完血应
长海
流浸片
活命
天站
脑益
比目鱼
融栓
inr
Dvt
治深
失缺
筛孔
腕尺
不高生
足求
定志丸
焦症
万力
助眠
吃兰释
刺血拔
心区
中危
讨速
洋酒
肺见
发条
索影
会由金
葡菌
单及
还生
出侧
越积越
激化
鸡得
结核杆菌
不同之处
钾过
阿斯匹林
肝药
疼会来
利假
苯巴比妥
小心眼
没音
混液
衹
还拉冻
寶寶細菌
性腸炎
要換
腹瀉
吃克林
素可
顺钟
厂病
休
鹿血
补亏气
亏血
痛已
早量
铆钉
疼感
脱拐
未封
四十二
贴足
转奶
包该
蚝油
蛮痒
打麻腮风
脸皮
特非
那定片
水产品
氯苯
那敏片
养颜片
嗔
鳕
过奶
很癢
手边
草鱼
油菜花
野花
虾导
吃海鮮
脸生
溶肠片
捞
积气加
常痛
支近
心内膜
豪米用
黄丹
含铅量
吃书会
爆米花
拍头
怎排
粉底液
卡莫
藤席
该死
好排
银汞合金
铅含量
偏轴
镰后
时头会
士官
直招
血后
保制
第三阶段
马尔尼菲青
亚级性
三十二
打咯
偏寒
透骨草
体部
右大臂
唤醒
考酚
小红块
漆
米沙坦
大能治好
体温表
口红
消容
谁能给
壓體
檢項
什心药
頭疼
無高血壓
人脚
该拿点
药伤
会颈
伴斑
如怀
懝
应聘
坐立不安
脏器

达到最佳
安眠
痛时
交感
能引
CT.##
合子
木对
脑神
神经末梢
倒闭
新会
性疲劳
会累
仰郁症
腎痛
腎虛
睡不深
苯二氮卓
变笨
头昏目眩
压头
困得
加肩
腰背痛
自珍
可开
买个护
肚皮舞
郑氏
特痛
穴处
考前
雨婷能
面筋
喜普妙
脑磁图
奥严平
郁郁
多虑
镇惊
香烟
王天祥
聊一聊
两协疼
博乐
衰落
大腦
丹红
比灵要
天未醒
能吃蚓
麻脚
占武
通心络
压断
填错
男病
归事
残废
白兰地
赃物
恰
参蛇
制人
挨揍
三氧自血
期多
急时
王敏忠
以症
临忠前
功能区
石柱
参饮
一高
挖针
水脚
親腦
人事
喯
HU
爱动
绸
冬游
傻傻的
睡系性
区小片
不随
口风
麦菜
病冲
肿迈
不动步
侧枝
右份腔隙
胡说八道
药利
司法鉴定
迫害
已换病
什麼样
带药生
性骚扰
隐影
坏话
年老
该生
网瘾
恋父
受虐狂
戒断
中区性
左部
脸瘫
脸凉
口眼
雙側
患测
处起
白豆
老困
睏
在治能
胶股
洽
冷天
益心
腊月
四十度
黏度
汇仁
爱滋病患
复建
涨麻
手碗
兰
他敏
上告
竖横
正真
二伤
大臂
手及
臀上
左上臂
抬平
喷丁有
下齿
对治
喝蛇
姨表
肌萎缩
指症
蛋皮
防再
抬不起
镶
有祝
鹰眼
钟情
能克服
上瘾
我割
专看
腿肚
嘚
瑟
人病发
特能
调药
起博
dbs
自主神经
可口可乐
末稍
变能治好
剪头发
快成
自诊
心胀
吞气症
热嘛
磁控
陀螺
脑下垂体
极高危
性腔际
拖动
后突
柱
腰段
斜肩
保手
吊会
五十多
徐州市
手麻到
爸事
生物制药
杈
西洋
#ml
治好病
仪征
颠痢
血厚
步态
尸体
川沙
脑卢
癫娴
什抹药
脱台
鳊鱼
犟
紧箍感会
不办
打疏
血通能
湛江
侧脸
下视
阿洛
神經炎
雾里
阿昔伟洛
我面
得面
眼晴痛
B#B#
牵到
Oct
半规管
先动
模模糊糊
有皮
右尺
奶能
会酸胀
单桂敏
封闭疗法
灶伴
入侵
劣质
重拳
湾
体格检查
静坐
狂想
手痛会
中合
递
一脚
树
点倍
清星
后疑
一跤
起降
杆
发鸣
凭脑
感音性
会晕
冰片
青黛
别来
WVB
卉
血循环
障该
撤药
手印
二姐
脚内
横断
于脑
喝铁元
病经鹿
量子检测
预防性
压疮
补卢能
坐轮椅
患缛疮
截癱
腳裂
開紅紅
L#L#
二便
截
足下
垂足
胸腰
hid
要试
宝刚
非法
减毒灭
Ipv
糖元
打的好
事因
手术台
睁眼
记性差
粮尿病
男女比例
胶丸
化费
用脏
AM
阿普唑仑
烦闷
熟地
退休职工
脑中
浓饱
术区
菌水
教受
解毒丸
无肌性
双绿
低化
襄阳
性瘾
有小圆洞
开发性
筛准
開放性
採用
樣
长肿
植物蛋白
nf#
颠痫
癔
吓住
玩上
血氧
能味
序
体旁腔隙
左腔隙
北京天坛医院
浓里
rpr
原倍
發張
意義
海豚音
曲克芦
管内
痛醒
脂片
心会
腌制品
右丘
急救法
脚一
發作
外痒
铁西
惠民
尿尿拉血
初得
详聊
肛脱露
眼子
辣菜
洗才
擦长
引诱
九华
栓用
伤该
你治
蚬壳
胃散
委宿性
问哈喝
口酸
乌龙茶
胃慌
霉烂
寸
伴灶性
慢病
我囗臭
叮片
加茛
菪
片治得
肝子
DPM
常犯
hpvDNA
验单
维参
我甲
白边
多加
喝托
半多
总称
太瘦会
平平的
肌酶
坠入
全裸
闌尾炎
腰到
清火
有疮面
过泮水
胄
咱冶
根诒
波利特
肝胆胰
痪
即墨
寒有
叮片加
莨菪
晕菜
NSAID
旺仔
脂球
染病
枣花
胃康
灵行
丈
迷烂型
吃峰
成度
易口
汉方
冼
牙石
杨其伟
游青
加林
超表
盐津
喝马卡
关能症
不伤
就胀
胃言
骨该
疼苦
沾酒
巨块
减痛
桑黄
看图会
用赫赛
冐
医才
吸血虫
乙性
停诊
海门
E##
传染科
十是
鞭膏
没代
肾骨片
野牛
古汉
我资
泥砂
爱活
胆通
铜川市
心膜
移线炎
敖
声透差
胆切
化除
药亮
甲素片
好晚
后胆
普济
会落
胆襄炎
葱油饼
高扎
当事
吃白
藥療程
後還
進行
煮菜
不拉
崩解
悬液
rna
花草
通肠
打压
吃好饭
巴雷氏
普瑞酮
突疼
反气
穈
二军
有漫性
难性
文中
图字
小月
尊
左氧氟好
陈香
露白
总吐
喝大
豆腐干
一吃点
顶胃
脂源性
五回
氯少
衰败
胰汤
能个
烧菜
葱姜
yi
忘性
奥肯
HP#
期严
非罗齐
x.##
但囊壁
较窄
总反
苦水
#mm#X#mm
萨其马
碧欠
海虾
##x#.#
维生
白血
铋
深褐色
吃洛索
不手
丁文周
排么
西米露
可保胆
糖醋排骨
####cm
##mmX#mm
問膽囊
非专业
勿扰
铧
固醇
胆缩
司杜芬
马齿
仇
奥沙利
㖡
食痿
做囗咽癌
胃造
半支莲
蛇利草
葵扇
老往
反是
更常
后气往
上涌
返院
打逆嗝
适形
拉网
后肠鸣
癌气
鼻管
大减
T#N#M#G#
潦草
病中
隔澡
食食查
病检后
易感性
管旁
平术
博来霉素
有癌
试水
北亭
后吐咽
要造
处酸
药致
溃羊
怎治好
不医会
药调
李惠利
陪点
出反
治沂疗
感么
返
漏口
高分
何实
恶便成
梗咽
胃样
时隐
服肠润
全科
淋性
手纸
法能治好
八十
活菌
肠叠套
红脓奶
条物
红丝
志贺氏
冒泡泡
稀是
拉沫
珠芽
共饮
老拉
红白
血脓
黄沫沫
有响
便时
显点
云粥
甚者
拉沫拉
茶叶蛋
食气
皮拉
爱治
克隆病
次该
角皮症
维生素缺
問醫生
苋菜
药可止
特快
段奶
管时
萌
物是
土司面包
喝出
赶趟
倍林达
罗锅
难救
抬重
烂积
丧命
疙瘩汤
竇炎
靡烂
胃好
药上
艾司
侧卧位
吃兰索拉挫
感深
丁香花
象皮
伴肠生
菌片
伴颈腺
甜品
Barrett
泮立
脂肠
酒有
公厕
药胃
血源
胸卧
白扁豆
倾泻
麸皮
吃滴
結
宁吃后
白花蛇
针草能
非委缩
及肠
时解
吸收率
拉得
果条
行大
汤臣
胃窟
吃元
脾湿
#mmx#mm
兴隆
PH
辛伐他汀
事会
恢愎后
衰
泄
中医师
泄血
涌
轮椅
消的慢
会口
kpa
蚕半
酵母
拉冷沫沫
加肝内
草能
下肝内
净石灵
切较
鸡婆
O.#
木薯
病来
病抗
威害
病伤
抗反
流病
医术
次应
亚基
加有肠
后能服
左氧复
个肠
观
数百
esd
节肠
植油
有凡险
亚蒂
排肠毒
阿德福
韦酯
突部
li
管好
那家能
后烧
能为持
不针
分做
会灼心
缐
教指
胃漏
酒泉市
腹空
胆嚷
益渭砂
拌肠
屁
钳平
人身
黄金搭档
多样性
上浮
会能
嘤
AB#
于勇
有血点
球炎会
尿色
张肠镜
W
菌类
天吃点
爱父
附肠
乙壮
肠绒毛
艺状
缺铁贫
能灸
舒肝
好制
会胃
天胃
管口
杂么办
鹿肉
内管
不大要
胰尾大
脫垂
药痛
羊血
嵌顿性
小盆友
第一餐
結扎
科屋
带得压
降脂药
肥胖者
征兵
乍治
瘀方
已造
瘘口
无损伤
脐肠
塮
拉肚产气
括约肌
疝伴
蛔虫
能近
治巾
措失
囊带
癌现
肺关
根治性
后冶愈
能达
利停
农后
探察
会影
记口
银耳汤
失态
踢毽子
弹开
创宁
双飞
重先
红颜色
坠物
刚周
肉用
溃破后
股出
抹护
处擦
马英龙
弽
小硬豆
小脓豆
需多
腫瘤
这牙
双虚
用三金片
必思
咸痰
痒前
下会痛
时不太
有消
黄粘有
尿贫
性保健品
管断
腊黄
小跑
水秀会
帽子
内金溶
石方
经尿管
吸石术
对饮
华莱士
肾粉
芥菜
葵花子
震后
透支
补体
酣
为膜性
空心菜
说明会
股疼
依替
米星
引成
异形
性样
体乏
吃伐
不尿痛
后吃些
老尿尿
盆骨痛
我结
腺状
化合物
治给治
直性
做查
性后
十几趟
腱质性
阴阴
发要
保建品
会拉不出
样病
可次
憋尿會
晚一到
好外
想尿尿怕
伤身
血磷高
罗盖全
长久性
钾量
瘪
肾略
排双
有右
作爱
kcd#
期能治
极草能
CDK#
月酐
杜仲
吃代文
祛瘀
甘蓝
药好治
查尿有
乌洛托品
格华止
伊尔
美去
脉血康
一后
夏草
清温
临床经验
后外
健对
尿多会
桦树
磷高
能撑
血滤
二头肌
素过
运动过度
chishenme
军检时
肾后
可下床
肾切
处后
xp##.#
因找
余况
红菇
累犯
地沟油
TPA
打骨
转针
股会
平消片
肾造
麻完
考昔片
天鸡
T#a
作好
神机
浸入
鹰牌
森茶
喝海
芝士
奶酪
年糕
泌炎
吃菌
洛丁新
血脂康
步入
蒙诺
病期
规
会什
TCH
葵宁
avp
烦渴
弥凝
加压素
柄
朗格
汉斯
水对
瘤术
扩容
能确
比星会
成菜
良多
车前草
蜂蛹
灌洗
知足
平癜灵能
并尿漏
立普
妥会
清蒸鱼
饸
脾肾
女患
###ml
癌有术
须知
怎养
水笋
个药
万艾克
糖前
总拉肚
点半想
掉牙
吃皂角
面都
雪糖
甜甜的
最准
二性
抽子
党
厉
氢
甲減
##w#d
我甲减
替斯
吇
牙一疼
逗逗
适今
服降
根是
淋母
杂粮
去验
肉丸
冬瓜汤
公益
药靠
臧
布丁
加典
缺碘会
紫根草
侨本
优甲乐后
###u
风石
片降
吃别
嘌
醇片
自喻
无症
酸莱类
NSE
何以
看甲功
长实
加衡
糠尿病
血籽
母片
###cm.##
腰才
胖想
俞娟
瘦点
錢
涂涂
优乐甲
胸腺肽
山核桃树
提不高
色台
粘稠度
恶
无尽
沃丽
耵
陈氏
甲囊灵
巯
要冶疗
prl###
隐停
蒙牛
六十几岁
磨刀
聂合性
总苷
乌药
HLA
回纹型
艾炎
膑
下颚骨
颚骨
黄道
膝部
特护
耐德
红热
涂脸
爽肤水
手酸胀
bm
患类
笋
云克
常腿痛
在手
背筋
肩颈筋
背脊
CD##
过敏史
及脚
脖肿
偏高会
拇
冈上
波菜
免疫抑制
幼童
抓烂
吃玉
楔骨
致残
姓
p#
转阳
硬皮
起水豆
黄种人
十么样
欧淇贝康
然发
迈之灵片
十九个
下爱得
林巴
胃里会
是髓性
希纳
先照
籽油
m#eo
项能
预发
亚砷酸
ABL#
拷贝数
按痛
十四万
cart
樟脑丸
老出
阿尔法
β
无穷
表現
給
耳尖
草能治
广安门
ml
清链
牦牛
血清蛋白
合成
益阳
快生了
口行
资深
沙利度
症朱
肝吸虫
做锥切
浓血
阴推
黑曲霉
鲍曼
刮伤
射进
指甲刀
人性
鲍温样
白且
里念
囊实
湿是
痉上
吻会
刚哥
特急
湿犹是
情趣
看珍
自慰器
包一
碰疼
碰不痒
危会
乳交
套破
致疗
张斑
牛心
昏沉沉
转科
周吃
心隔
处出
疫区
传播方式
抠破
姜枣
儿保
子长
印和痘
韦要
与非
开完
骚庠
该嚓
抹黑
豆油
逍遥
点好
用土
左氧氟星沙
叶煮
结黄痂
健力宝
红片
砸伤
花掉
往后仰
黄班
无光泽
浓水
浓泡
用达
断层
掐
出红子子
运动感
关能
出站
双解
止泄颗
发疹子
mr
球下
易发
疥虫
眉心
见水
剃刀
有小块
洗不掉
折断
金丝
佐痒
为病
国防生
根紧
会溃
单帮
器械
結核病
燙
隨發燒
核扩散
淋巴液
大微
火眼
宝丽
內消
#O#
卓青
何卫害
水剂
后滴度
特疼
有症
淋必治
萘芬片
稀稀
捎
vb#
患骨
anti
HiV
纹美
周阴
回盲
福建省
性瘤
性皮
性炎伴
唊
性烟峡炎
性骨
狭炎
性胸
hi
我涂
盛
起小红
胶布
干干
经久
xing
性毛
逗印
艾蒿
躯干
開始長
脚好
该涂
斯皮仁诺
最痒
柏树
双清
药肓
射线
毁坏
有白块
烙印
碰破
膏前
涂碘伏
火炉子
饮水机
毀容
须花
捋
定皮要
蜂蜡
金璞
后红
聚氨酯
暖宝
暖手
问涂
生皮
带摩泡
粗香
热水管
金针
伏行
不掉
比奈芬
用氢醌
潮
用氯雷
汤剂
不散
剧痒
丁酸
RMB
脚太臭
脚钉
想扣
肚上
沟有
严宁
药长
激素类
病想
廯
光喝
银宵病
艾洛松
五肽
包埋
基本常识
上测
八九岁
用五妙
水仙
蚌埠
脸峡
用迪维霜
长烦
脸好
摸维
药摸
烦劳
衍生
张个
层所见
髓样
好手
碗长
性状
用七草
魔吉夫
大拇哥
后涂
钳甲
磨莫匹
甲沟
嵌甲性
脚肿且
用包
碾压
拳峰
污
吃痹祺
弯儿
肌和梨状
长厚
一弯腿
放多高
直角
时哇成
多深
吃辣会
弹
患跖疣
刺猴
氟尿嘧啶
小粒
蓝痣
小黑
左鼻
这疤
打耳眼
排线
想割
变平
参芪
长指
domain
穿太多
磋
卡波
尤文式
酸涩
巨疼
超级抗原
摩
涨个
上生
杭州市
复膜
波拉
切不切
下长个
周张
保肢
皮外瘤
沟出
完头
暴晒
太阳光
整形科
凹凸感
普通纸
这痣
皴裂
瑞松痒
糖稀
脚坏
手址
脸前
康肤
脚因
红彤彤
小家伙
脚冻
冷腿
手冷
模样
希刻
疗效显著
能用维
刺络
脚骨
外途
对清
反跳期
虚火
低高
远红外线
下该
屑
绿豆芽
疮会
眼边
眼帘
心火
发涩
病治
斑痣
游乐园
淡变
按次
丰台
广济
底于
癌该
癌早
还裂
千里光
涂地
色菌性
治污
黄肤乐
葱花
可知
维甲酸
长软
残端
同硬
红泡
清液
甲紫
天起
瘊在
瘊是
软肓
处多
百尤欣
大兴
耐结
瞎掉
吹头
通痹
棕
妙药
用小珍
間盤
症拍
做骶管
滴注
症右
小飞燕
用泄血
床要
吃弥可宝
考率
数码
齿状
窝底
挂钩
办毒
麻卡
土元
性膝
眼涩
龙骨
手腕子
手举
骨伽
骨痂
后断
尺子
胸比右
双拐
钛合金
粗隆间
误工费
额面
磨破
缝合处
口像
结了婚
尿滴
有意
八味
后皮
韩式
变长
包沙布
扯住
罗西
软绵绵
药先
双贤
余沥
列腺
中年男子
尿尿发
郑大五
神效
太子参
保列治要
小茴香
蘋鸟
通淋片
哈乐要
蝼蛄
喝菲纳雄胺
男鞘
问鞘
侧鞘
矾
伱
郭宸宾
凯凯
绥棱
周半鞘
有侧
抽几
处鞘
氯铵
联笨
射不出
就治好
用宁泌泰
癌长
疗状
折线
拨弄
血彩
托举
手轻
变疼
副睾
期为
忽大忽小
阴经癌
小软块
算硬
六根
擦音
四到
瓜籽
评上
十三根
打致
可定
托动会
搂
手会肿
肋疼
位片
治疗剂
作疼
保护性
难吃
第六根
老多
左八
反比
助骨
劣骨
胸带
右四
伤肺
牙松断
多约
反不动
湿肺
开气
后收
参汤
溃口
不拉下
炎点
取食
失速
生抽
哪盒
女会
fanh
洁节
苏醒过来
后解
格雷多
医方
样胃
自足
岛叶
胫前
左股
背侧
矩阵
偏侧
内握
摔头
尿湿
矿散
还治得
腦腫瘤
mra
神针
诊壮
元气
部进
跨中后
嗅沟
周痒
胰管
粉剂
眼俭
肉变
请创
砂锅
右图
黑红
冰王肤
立安是
后新长
烟头
陈年
强碱
事顼
奶迹
妇女儿童
说隐
面糊糊
慈善会
腭咽闭合
亳州
昨做
用抗
超照
软镜
肿眼肿
沉渣
牙印
问能
带尿袋
局嘛
打尿
发张
长径
男同志
还拉血
后纸
得长
比病
比内
扁细
双红提
肛方
肛窦
提睾
能手
沭
坎顿
掉入
过肠
甲基化
次行
痕
痛老
黏冲
有肉团
球会
排大
肝曲
尽块
眼长
外像
缝长
指指
陰
道口
之間
便细
里米长
岁末
调敷
肝酐
起皱
偏曲成
手压
拓骨
tg
∽
闪
乳菱
出双
广瘤
照起
并囊性
欠清
伴低
吃朗致
胸长
图应
红金消
结片
吃钙维
吃炎
药可医
对位
骨肽
狀
卡培
内上
液下
要痛
輕微
微癌
囊内
窝里
权健能
治肿瘤
薄会
攻克
乳状
医学界
壁上
痊得
针一
门声
好苦
癌放
没割
牙髓息肉
地诺
内生性
帽
会尿不出
三嗪
mect
发挥作用
觉额
想测
有话
合用
和躁
我想测
优郁症
周才
耳疼
张器
耳炎
脑仁疼
吃佳乐定
浓黄
肥肿
知疗
喷鼻剂
有方
松龄
球面镜
感能
包色
飞症
忽闪
打以
振荡
会太会
会导制
昏眩
小白花
黑条
羽毛
有食
郁热
四节
欧吐
闹人
张嘴说话
湿内
在阳
能治牙
引致
做快
根探痛
电磁波
鼻加
牙源性
涕血
释清
后会会
两生
残膜
四五十岁
有得治好
普艾斯
忽好
屈光度
做慢
度升
药放好
酸会
溠
磨疼
断掉
缝疼
石牙
刚拔
整牙
石鹏
口腔医院
斜眼
视力表
割开
刮治
植牙护牙
牙松
臭豆腐
脓放
喷点
事药
牙不疼
虚焦
斗眼
爱困
配硬形
三十二岁
配低
离远
唇癌
用维胺
脂维
玻混
价钱
影子
漂浮物
华素
络合
埃美丁
贝复
看近
耳堵
骨粉
瓷牙
牙贵
黄白色
滴托百士
对声
无殊
右会
闷塞感
左慈丸
周全
脱洛
点施
线会
滴眼
牙龈增生
炎鼻
用滴
会时
切牙
多生牙要
难拔
有睑
土豆片
晴
药得
基质
変
头朝下
窦炎额
米黄色
保首
焦距
看灯
有红肉
共同性
花眼
手述
应点
树枝状
特殊性
台州
量表
終身服
公安
中身
片利
张玑晴神
奥单平
主见
心理学
幽室
脸盲
恐懼
害死
阴暗
心理健康
有產
锡林浩特
西想
產後抑鬱症
不開
愛鑽
舒必利
羊癫疯
用思
怂
zhuy
版
西同静
厌学
男同性恋
钱会
圈会
补到
完做
周定
左枕后
正枕后
ROA
LOA
有血池
哪句
盆不称
完血后
弱酸性
光后
这验
尿到
补剂
出刚
天验
油麦
体溫
老留
baby
欸
没到验
低好
懷
間
會大是
高原地区
这正
鞍状
筛要
孕童
胸胀
射入
很正
喝保灵
胡剂
心荒
##tct
加德纳
养是
捶打
芦荟汁
天稽胎
肧
会松
稽溜
一輩子
以婚
满血
糜
频射会
度用
纸测
史是
回血到
要诊
督促
胚会
第五日
自流
区囊
一无
备胎
占多大
希要
钱冶疗
不照影
碧超
上胀
试孕纸
已降
用试
孕囊会
或仰
HCG##
hcg#.##
Hcg##.##
瘾
输孢
呋辛好
满心
阴超查
司帕
沙星片
腰坻疼
做照
影疼
栓能治好
令
喝乳核
消液
药塞好
nn
黴菌性
时太痒
康乃馨
凯妮订
对证
用卡贝舒
斑多
周能活
氧气管
比足
剪伤
早教
小暖
准妈
看下脑
混奶会
周头位
周可生
周差
白肺
可心
牛肺
周流
凯尼
未过
点为
耳心
援引
筋拉好
内前
神么会
假宫
月断
前药
一孩
多痛
及餐
开指
参是
胎盆
和睦家
开全
前宫缩
無痛
不會痛
喷头
多宫缩
乳林格尔
负作用
产能
亲头
天出
Rh
临
栖霞市
剖后
金斯利
胎头入
入盆后
开三指
破膜
先见
备皮
缩紧
发粉
开一
指后
he
监床
驴肾
喜堂
乘七
壁肌层
紧贴
DDS
今次
需早
生長
怡和
危不
玛卡能
保字
耳穴
金元
体大者
感站
三贤
山益
母膏治
雪燕皂角
绒促
羟氯奎
杠一深
和验
早测
最药流
一杠
郦
电烙铁
孕掉
天胸胀
先测
灰印
孕干
残次品
排放
要晨尿验
测不出
要晨
第二道
烧糊
hcj
翻备
孕弱
杏仁露
帮握
晨尿验
打绒
促后
深线
hcg##.##
试笔
点测
孕放久
孕测准
晨尿测
两杠
孕卵
十好
吃固
有宫
缩感
串色
剛剛驗
四號
孕是
孕试条
試纸
必乳素
hgc
孕能测
有测
垃
腰眼
爱抚
白泥
黑黑
三板
生娃
完胎
mh
洗服
朝内
宫炎康
栓药
阴片
盘腔炎
针水有
验上
凤宝宁
历单
用筑美
闺美
Bo
微生物
papa
私护疑
胶治
舌诊
剃掉
真能治
三颗针
架痛
叫床
白戴
背脊骨
阴到
丝蜜儿
爱奥儿
怀有
阿齐
鱼珠
胶对
芸
草集
黄黄
贝丽丹
奥消
娇诺
人中长
扭变
非赘
日行
内透声
女金
宫旁
zmb
姿燕婷
黏链
侵润
几该
内异
优思敏
c###
高未
莱芜
肿标
崎胎瘤
一齐
分大
Bc
用宫
炎康
裂破
高甲怡
吃益母
查能
暴菊能
用暖宫
清里
打缩
宫针
要流
有奶
会白己
流净
HCG#.#
样无
咆
阴阳水
后血值
胎囊会
两瓣
母丸
半血
没射会
没犯
用霉淋康行
粘腻
缠身
服务者
疼后
该药
舒阴宁
最常得
五月花
赛药
百福丹
PAPA
帐气
困痛
较多会
皮裤
小变
刮腹
放平
见红有
低致性
剖产要
吃花
拋腹
会压
吓傻
血窦要
帮里
做排
顺好
置于
改扇
超上
孕妈咪
利托君片
周才够
周拿
有麻痛
周检
瘢痛
绕劲
大头菜
ke
胎劲
少符
安环会
榆次
婴泰
ruo
炎吃桂芝
炎和多囊
炎偶
推脂
炎吃妇
炎消
金坤
炎再
热晕
炎做
炎多厚
炎留
举摆痛
达英加
炎加
卞
左氧好
算多囊
大麼
得人能
多囊症
急要
人不象
后多囊
能治多囊
我疑
下多囊
液洗
得流
豆粒
淡红色
再備
妊
用洁尔
泥
婴爽
棒棒
周犯
好红痛
肤芩
药内
半宝会
粉末
涂祥顺
毒癣
塞氟康
麦咪康
帕栓
溃破用
百世
益康
被准
伊康
那痒
核妇
搔
咋天
溃痛
我想生
三镜
一丝
欠通
Cmf
来曲唑片
阿克苏
王华
促成
高等
成后
能用制
克霉挫
发复
有撒办
酿造
乃
性事
杨才
刨子
gm
配到
无有
堆
尖疼
用开
過後有
對方
加五
真烦
高粱
清掉
会绝
好见
疼带
环子
姆
鳞化严
会该
自复
术手
p##
吃桂附
地黄
凡有
一降
懷過
幅度
侵烛性
第十次
月径
双精
治不治
次生
促拍
hch
出物
畸变
胎芽会
绒癌
刮后
镇级
问孕
空孕囊
提日
流嘛
拨动
宝妈会
流加
刮薄会
做化
怀了孕
有感
湿有
最多保
开一指
全开
早破后
三十九
分泌液
点多高
内诊会
会湿
保注
放药会
样能
样治
用奥平
麟化
银道炎
点局
CINI#
色嘛
ClN
山泉水
熨
开复
线用
右腹长
##hu
IIIC
脓瘘
庆城
白开水
鄂弓
XN
##xymar
嵌合
不和会
男宝能
zenme
沈
##xxx
哪条
欠損
颈项
檢
集爱能
创产前
XXY
无精有
胎吸
助产
天不哭
双颈顶
剖复产
双头
brca
激进
易感
葛粉
重楼
安环后
很淡
宮颈
烯酮
亮炳瑞林
束腰
台江
日本料理
腹下
盲刮术
用养
巢包
不匀
很容
能预
资
查准
加输
长衣
经起会
完子
幾時
微光
崔经药
栓能
吃定
证做
由流產
不积
草籽
不积奶
奶会少
t##
莉
芙敏
巢会
七籽宝
催
保護
李小平
打促
ve
做供
黄化
蒙会
保养品
超能查
指明
极有
lh##
高促
能懷孕
赠卵
胎粉
供卵
菲帛
超能照
DHEA
有纳囊
澈底
非均质
纳囊用
清栓
伴纳氏
治标
糜后
下宫
轻糜
糜触
呐式
内检是
上柱
纳襄
胖会
中糜
求祥解
松有
妇产医院
精脉
精好治
能治死
精无精
精吃玛
膝下
吃药时
精虚血弱
精给
精者
精和少
查少
A##.#
B#.#
精吃右
尼丸
抗精
弱阳该
吃维参
精备
精多
abc
精治好
精都
补精
至宝
三鞭
##b
之缘行
精看
玄驱
如弱
精等
育之缘
墨
挺高
精五子
衍宗好
精及
血都验
查甲
供功
蒙有
症和功
二三十天
亲功
开米
酸片
县县
治功
K#
五加
宫血宁后
负做
前功
清过
盘点
低泵血
功血达英
性六
功血病
后得
诊乱
胚宝
乌梅
片和功
血宁能
甲孕酮
英流
血伤宁
完功
血诊
越治
天未净
女功
月经过多
安络血
功血应
用妇
康宝
啊呀
真厚
宽有
消钟
㎜
剥膜
剥史
剥嘛
剥下
傅产
月宫
剥血会
流到
剥要
周该
蹲会
寻
海扶
已带
算重
喝血
环是
丩
用抑
症伴
性增
做妇
輸卵
并通
盘腔
用宜
爱宝
未孕会
巢宫宝
续断
健身操
艾拉
触
宫腹
多次通
液后
孕史
人炎
积
笀
请告
为弱
初根
生两
吃独
阔
拦住
he#
##cmX#cm
太原市
结婚的人
做盆疗
我莓菌
时摸
托环
后带
带会
问子
影想
提拉
流尿
垂挂
是子
增后
快掉
活会
加肛
肛乳
项高
计划生育
火胜会
凡会
精浆
来事能
出孕周
體囊
腫會
纳史
加有
囊块
松挂
科对
尖銳
濕
有關
塞入
himama
住院部
天行
縱
隔子
宮手術
幫
單子
月经血
水煮鱼
一震
四四
爬炸皮
偏小能
妇人
伴伞端
伴壶
林老
畅该
复通
作通液
另一则
孕对
盆壁膜性
藤胶
蘘治
徦
散端会
加堵
通直
盆壁
外壁
通而畅
包囊
伞段
卵管
pp
药泥
躁
查高
吃尼福达
腹产有
糖能
怀下个
尿查
加三
黄松
腺囊
抽吸
脓以
涨合
破出
小手指头
肿不疼
环吡酮胺
后常
口流
后会流
消毒片
破嘛
用茵花
产复康
医让
紫车
可意
检完
摘后
hvp##
重制
喝掉
断经
最看
饥瘤
刮诊
调动
吃葆宫
肌壁
下全
全应
腾
需氧性
毒菌
美卡波姆
而胎
榴蓮
喝藍莓
洗得药
长肉粒
寶麗婷
另一方
能塞
炎該
要栓
尿尿尿
放药治
丹黄
记率
拥有
患无精症
高丸
症验
送子
能治如
检无精症
痄腮
男无精症
##xxy
梗阳能
内未
水质
遗过
查液
精无精症
出无精症
周产检
乳安贴
鸡脚
贝壳
阿长个
交大
提心
胆中
转成癌
单绒
单羊
柚
超现示
使验
涨大
真有假
一浅会
日来
加入
會體
現出
反應
囊用
杠会
证状会
按例
内射
真孕
纸会
HcG
千会
会试
润肠
用侧
单么
問會
放曼月乐
病腺
打电
完塞
线百
左通右
上扎
不着
征生
mp
加烤
什末
鞍形
矫形
火考
频普仪
湿养
外因
用冰王
湿毒洁
氧擦
苯海拉明
粒白
剧
涂上
痒立平
触碰会
Juc
图画
多越
暖寒
vvc
滴蟲病
活疗
龜頭
小紅點
栓要
根请
雌三醇
痫症
生下宝
湿会
宝空
此方治
游疼
坐月手
天在
脚干
风怕
会受
多房
内含
怀在
无脑
数直
唯能
病理科
用朗
乱交
中来
主药流
过西
月台
患无
率多大
百想膏
一个十五岁
安达
紫苏
此时此刻
癌常
变系癌
外扩
端腹
哑铃
阴吹
孑官
因来
孕六
买缩
阴球练
初变
高医
宫前
下多
下病
性症
严重危害
低促
嵩
尚
后屈
做往
半未孕
呼吸声
芙蓉
也样
赖氨酸
去童
玩嘛
儿脾醒
打喷堤
企月
蒸水蛋
堵用
炎宁拉绿
红哑
省心
吃妈
轰轰
利韦粒
喝能治
饱克
神阙穴
ocean
春
捂秋冻
夜见
分风
喂狗
小快
九九九
鼻滴
会吐奶
付款
一代
治后
支起
喝护彤
兑
热速
散能行
优卡丹
正安堂
舌黄
能吃念
晚非
睡否
宁吃
黄病
消食
清开
藥比
张磊
影响力
拒食
噴物劑
內服
老二
很喘得
下腔性
喝东鹏
特饮会
丰鼻
肥皂水
柴葫吗
拍脑
服视
人易
补髓
珍宝
克莫斯
抗痨
寒怕
石衫碱
能吃胞
另类
随心
咖那敏片
毛果
云香碱
磕伤
索片
轻塑
补晒药
渐
张雨宁
时挂
抽鼻子
四枝
头点
肩耸
挤眉
黄龙
族片
颈源性
左海
扭脚
怀凝得
自闲
症顷
健可
灵牌
挫口
崩片
舍头
自诉
阿力
已点
照料
湿咳
完水后
硫眯能行
药置
次烧
液才
湿洛音
金莲花
打痰
打足
如喉
鸣气
喉骨
宫高
兩
每頓
儿长
长胎
手巾
大忙人
长湿
菲子
有疹
迎光
大半个
贝亲
郁静美
嬰宝
白印
用济肤堂
护婴
寶寶生
青该
红癣
特校
感统
干坏事
连小学
乘法
脑控
搜去
症值
马国红
高苯
值超
失查
先进性
考察
脱壳
邵阳
横贯
束带
破能
包护
庶壮
诃
琉挫
分第
亿儿
利康
老给
脓鼻多
一遇
音大
髖
还拉肚
加轻
吃氨加
背气
稠状
鳄鱼
脸出
快克能
后口
妙方
吐点
罗音
用头
会喘
七介
根煲
抽索
要够
鼻宁
自酿
注塑
用火療
阿斯
挂点
润肺
慢气
肺痒
夜咳
下解
药一
血说
露施
会哑
有脓要
右孔
硅胶
咋制
风尘
喷辅
鼻里
钾肥
肉味
千柏
气流
更昏
内眼角
断药会
该驰
喷铺
内舒拿好
新泰
纠整
霍胆片
流鼻
发辣
吃安儿宁
麻黄汤
咽痒
天风热
双克
白无
及风热
水治风
夏桑菊
治风热
拿些
🍎
患风热
没钱买
龙泰风
转风热
薄荷糖
对风
斯哑
离死
发后
alk
大陆
初检
副流感
打抗
流黄涕
擒
铺满
AIV
韦吃重
晶珠
四米
阳减
扛过来
麻腮
躲过
针扎似
金珠
药打
今冬
我药
北仑
TBigra
核能
血散性
透視
笑会
斑片影
带表
带电
葎
adp
瑞尔
姿
力排
肺疾
车间
冷烧
咳净
呼入
特药
拷
进藏
总卡
吃泰诺
咋搞
支周炎
挂水好
簌口
小浓点
姑好
公会
鸟尿滴
来袭
用鹅
卤淋饭
鸡腿菇
吃酸料
延续下去
医疗卡
最多报
漯河
启付
复勾股
杳不出
怎祥
功能测试
crp##
生疮
供痒
血氧低
因硬
肿症
收索感
血单
美罗培南
毛尖茶
伏立
吐气
甘之露
金胆粉
哑着
结咳性
咋治能
喷万托林
呋辛片
打盐水
咳速
发颤
候痛
热会
返酸水
鼻酸
脸发
咳瑟
一半脸
治热
半热
二十五岁
敷囊
东动
怎破
嗉
清瘟治
不治热
分热
體溫
沒有量
臉和額頭
發燙
冷穿
北风吹
因热
面热
时热
总吸
弓虫
昌
姜水梨水
老痰
多索
烟不戒
舍瑞深
脉康
消药
水肺
治帮
信必
济
白及
没得解
逾
锈味
治错
幼师
红痰
长有何
EV##
口足病
疮疹
密致
脫
飞沫
骇冷
第四回
发灰
哑发
晕沉沉
风风光光
会亚哨
美脲
千
服阿骨法
软醇
铜振
纠不
环说
球基
乙酸
食料
看尿钾
酸过多
美迪
丙酮酸
患酮证
能初
辛芩
黄纳敏
鼻噻好
矬林
钠治
柴桂
卢大夫
可嗽
后症
舌手
周无乳
草绿色
吃氟康
星群
置入
实际性
后治好
已治好
甘素
病吃华法
林来
总胀
拔气
容掉
病知
前负荷
气晕
有降
后卡血
poems
华山参
完波
生坦
对房
缺开
初级阶段
iv
压值
排外
周心
做功
倒管
能不输
lgE
味蕾
有店
乳清
素要
肉食
服阿奇
打先锋
治加
化州
雷丁
鱼会
病能治根
鸣哮
木工
冷空
常喘
病龄长
平喘
一断
早操
健敏
肽聚糖
君子兰
花会
派源
吸药
全逾后
香囊
吃暑
白日
里生
思雅
头胞
介囗吗
归脾丸冶
鼻干
还伴
炭疽热
姨父
己括
强心针
限行
多片
全安素
连锁反应
有个治
有吸
白令
富路施
脚冷
吨
鼻毒炎
肺活量
隧道
火桶
口喉
气舒
合度
温肾
喷涂
叩诊
浊音
魚腥
风热犯
豉
时肺
咳能
金芥
射干
百瑞
咳白
施
麻杏
吃克洛己
喷涕
天圣
喜仔
yu
伪麻美芬
咳痛
浦地兰
极要
温开水
咽候
利菌沙
珍黄
说甲流
病毒传播
发骚
纬
吗啉
周期长
会喘坏
易坦净
免疫病
套扎敢
木香
顺气
瓜子金
接诊
发堵
这写
赘物
腺留样
加做
增癌
有颈管
粼状
寨
并局
鲮状
鳞妆
LBPSYSTEM
长量
agus
txt
超薄
三变
写得
丹加
治腺
诊刮术
类伴
被覆
编
US
鳞狀
猪娃
单克隆
索状
马蜂窝
CR
高强度
咳漱
河车
大造
辅舒铜
过用
过易瑞沙
进化
毒草
貼壁
美纳
肩酸
冶愈率
寿
驱寒
肩颈能
现脚肿
盳
药制疗
kras
李新泽治
培美曲
WHO#
管不拔
伊瑞
秀
t#bn#m#
易瑞沙药
巧克力糖
治肺
地坛
生物性
新发
n#
盲吃
凯有
IIIA
前放
处能
太伤
培美
sTAs
吉非
IB
外显子
该选
半大叶
口谈
得大叶
男贺宇
凡大叶
血向
退钱
肺炎球菌
过大叶
咳过
能应
根筋
炎得
炎钟胀
黄藤素
炎对
红痘
炎起
肠膜
肺气通
鼻耳
相同点
涨水
最多活
左大右
抽能
XT
犹
同屋
口一
软流
单核
软庞
尤能
飞蛇蛋
只痛
trust
罗旋菌
TPHA#
##O
艾血
血干
水贱
小肿囊
耳隆会
缓冲液
软疚
染油
引尤
坐板凳
公共厕所
妇检会
没射
抗酸
失活
有套
不聚
曝露
软犹么
易瑞莎
梨水
纤支镜
做纤
前略
上中下
涂复治
鸭叫
凯对
用射
波刀
癌脑
脑有瘤
象数
脚脸
雷丸
原值
吐红
替莫挫
安多
软油
弓形
体病
好玛
软四指
病能治外
飞到
鼻流
清帝
连接不断
疑血用
肚涨
全吐
外部性
甘脂
优博
斤足
转成惠氏
颅磁
宮内
用断
药退
退要
岁断
最多停
升会
天停
预针
隔奶
用吃茵
叱
烤过
黄有
攒肚
照兰光会
奶都
皮胆测
全退
黄行
胆红
eo
不挺奶
喝茵枝
黄退
喂茵
爱退
照完
黄药
白蒿
长嘛
后噜
很列害
囟
心音
指标值
GBS
轻和重
蓝氏
第边
毛虫
目旋
以兴
除虫菊
低着头
颈间
乔起
老爱忘事
宿醉
侯会
揣气
完完
埋久
有紧
牙关
间会
手想
泛力
天昏地转
安博诺
了样
可棉
隐亭片
倒下
溺水
头眼
肿尿尿有
易忘事
山七花
净化
黄里
香干
小阵
没说的
糯米酒
中效
腊八节
桂肉
气吃点
冠心
美药
胸导联
八十二
可减轻
应注
夹部
回旋
v#v#v#t
pci
野山
吃昊
HCHD
强化训练
心宝丸
低化癌
人参酒
喝雪
一级预防
倒影
空难
折痕
COQ##
次算
除草剂
白草
油子
闻多
甲拌
车厘子
冰棒
塑料瓶
木子
煤球
氰酸
蛇胆
桃汁
测血能
八角枫
致毒
敌敌畏
身亡
平菇
硫丹
同食
烧焦
闻会
小茧
洁
厕灵
桃花
血压计
凹位
头低
晕到
会面
经来
艾司唑仑片
湿冷
扑腾
玉溪
起跑
天那水
后龙
皮后
用炉
可大泡
粒能
有留
返黑
红疤
手油
电瓶
葱白
焊渣
几丁质
足球
心焖
吃荣
速算
血绸
类产品
火燎
燎
军姿
去暑
防暑
打安痛定
昏可算
风一吹
完痧
冬夏
红星
扭痧
zenmebu
花花
抓砂
慌会
补得
消栓肠
...........
比索
#o##
求诊
蜘蛛
西宁市
中膜
个线
图能
洋参
动脈
治广疗
腸胃
下植
伴班块
吸脂
双椎
养才
脊骨
重指
静脉滴注
简
极重
极快
阿普唑伦片
BNP#####
喝鸿茂
值高到
亚心
出心
回身
冒风
忎
早斯
爸心
BNP
曾心
心活素
药请
缺有
鹿心粉
老咳
米力农
乳头肌
吃心
癞蛤蟆
氯底
蓖麻油
喝后
岳阳市
根有
区闷
酸枣
下换
藏医院
连发
脑梗要
化不全
消溶
囬
普罗
阵法
亚麻酸
心下
大冒险
防患
八十一岁
及要
张锐
过劳死
打桥
qu
闭型
脸心
污是
稀黑
側壁
全反
热身
用森
鼻子嘴巴
瓜片
能献
坚壁
长寿面
烈酒
预备
吃得饱
盛夏
忙会
组织学
东南亚
一哈好
一玩
太频
死去
重口
速过
冻得
QT
呼快
呼慢
亡
爱抽烟
流行病
侓
长哒
处死
直窦远
小隐
尿激酶
通次
人会换
取栓
手微麻
身闷
暗示着
脚沉
间息
关乐
药定
手料
恍
心会痛
噎住
照要
胎监
农药味
勒死
山会
太低会
打羊
退奶
回导
流黑血
缩宫
短会
探到
穿针
做引
单胎
黄囊
一活
头俩
成水
细胞分裂
固淳
压死
肉样
白药
非诺
贝特
腔梗脑
左锁
怎会
示肺
頸
锒
用易
阿苯达唑片
喇叭
牌正露
水便
下浮
枣能
卷
雪碧
总拉
氨加
液行
老喊
请来
咸鱼
吃莫砂
利片
吐会
半熟
体软
芸豆
还光
看些
蒙托
石散
痢头
宋明
敏敏人
西瓜子
外直
肌麻痹
医住
天人
半瘫
挑动
腰力
喝特仑苏
后内
行醒
如仔
切管
现人处
撞成
压过
后蛋
惺
依证
孰山
猫步
受过伤
张家口
口史
翠
火爆
箱
左半脑
吸进
头盖骨
脑复康
Ug
发挺
二分
强心
马黛茶
告之是
瓣加
值大
风心
冻干
预防接种
苍
解收
脑面
打玩
百白
栝
爱闹且
妞妞
打右
MenA
鹿泉
起疤
miao
acyw
退热药
打前
百破
预苗要
针同
抽回
同天
先扎
没扎
剂行
嘧啶
处一
打疫
防针
陈风香
人份
寶寶怎麼
群好
兵检
电位
范时
传倒
双源性
三万九千
米片
如用
议器
内渗
我舅
五十五岁
青肿
靜脉炎
经脉
麻涨
温珍
骨底
出筋
应气
gao
挂出
抛出来
中级
阿尔玛
想换种
砵
地平
脸老发
掰
旋昏症
备孕能
眼供
直降
股浅
打高糖
红曲米
位眼盘
患窦
林应
抗凝需
聚体
脑补部
浅度
抗栓药
糖酐
减持
融掉
沈州
龙玛
显脉片
小腿肚子
#mm##
型求
迪巧
孔会
锯断
有右心
双孔
有阔
缺損
挟窄
窒
睡不热
精神异常
香槟
精神失常
酒瘾
麻木不仁
利
水灵
脑细
微细
山海
渝
卢内
神片
微缩
神安片
病弟
用丙球
病打
三明市
血常
打丙球
吃宁
心宝
率过
永恒
高电
阻滯
一形
成二形
段略
一刑
介吗
孟治好
屁针
眼变
开宁针
得了吧
产褥期
好红好
韦眼用
末闭
阁
心筛
卵园
孔未
非紫型
达力芬
血亏
肺慢
又验
吃曲美
大衣
后遇
贪血
衰歇
四宝粉
刺血
加肥
血痕
正方
跳速
下毕
嘴和手
从口
长血
后肠
盖化点
堵到
竹罐
长血志
内深
疼查
搭桥术
拥堵
高低压
排血好
度供
部过
能始
术士
流液
骨科医生
数额
娃卵
会闭
深及
尖半
反流能
对卵
做卵
男宝卵
消痰
出卵
时卵
吃路雷
威海
缓用
缓应
STT
稍短
##bpm
動過
緩
腹式
喘定
脸供
缓及
qtc###
缓该
稍底
休检说
全息
束支
v#v#
QS
波略
吮
齐心
面摊
油酸
###Ct
###ct
动身
桥该
乐克有
桥病
橋
收縮期
約
拾
桥吃益
左冠前
及远段
老冒
密
桥表
浅型
微胖
桥服
上室
后取
摔断
伸不伸
学懂
相对性
乙醇
抗宫炎
内行
总便
假腔
吃甲芬
调蛋
夾层
病毒血症
生脓
二瓣化
诊断率
nt#.#
法四
二瓣
两形
骨瓣
玄武
不逐
参龄
集对
强笑
手参
筋豆
預激
参松
劳务
区逸搏
wpw
伤缝
性侵
蘸
外踝
硬脊
出股
用门冬
怎莫
脑腔
DSA
顺应
颞前
替麦
尚志
科布
煮沸
齐齐哈尔
做布病
上布病
直吹
灵便
对布病
能治布病
养羊
得布
朗布
汗氏
布病治好
用切
查布病
味丸治布病
桐乡
手指尖
总苦
圆卵
孔未闭
骨质酥松
da
tui
右骨
渣
级现
逆灌
肺静脉
阁伴
环宽
心能
段会
浙一
生物能
減退
号头
线缝
处少
症未
痒肿
测血
斑快
化斑
男颈
板块
出颈
艾司唑仑
要害
多梦该
枕小
这久
过零晨
天光
有夜
助
乙派
立松
問經常
抽缩
会引
麻有
头急
伸舌头
咬不动
叫喊
不犯
变味
颞页
发愣
嘴合
回传
掉魂
军海
值治
阶级性
秦皇岛
腹型
精神衰弱
会腿困
坐呀
夏天无
飞燕式
活嘛
或事
突发状况
勞損
筋膜
舒活
睡久
戴护
脑闷
培元
通脑
泰嘉
缺会
補血
有三大
能吃克
迈舒
除夕
区腔性
春秋季
龙心
求泡
脚方
赵波
慢性期
抗栓
得压
加肺
旁散
腙
融
劲椎病
培酮会
瞧不起
体系
既视
死不认错
医疗保险
利多
要诀
多眼
片药
孝感
安徽省
阜阳市
赌博
萌芽
朝代
哥有
性压抑
病耻感
mx
检测仪
三岔
亨特
咽症
暖风
露齿
没全
能敢
抬不太起
足球运动
海风
下榻
耷拉
疑症
起居生活
天鼠
做汗
蒸会
癱过
脸会痛
现面
周脸
德病
天冷下
转成面
嘴往
福龙
白花油
完水光
侧部
医有治
熏艾条
剩上
赵氏
一贴
冷凝
受风会
全威治
脑垂
求转
辨识
深林
夜游
失去平衡
问非
所答
哈米
瓜汁
腰栓
一新
TC
nmdar
爬子
想继
输上
嘴烂
烧聋
过人
解毒药
抽起来
MNDA
一个九岁
什了
从县
有肿
症兆
服理
脑梗过
脚像
郑州市
脑梗刚
脑梗需
施慧达
明现
正兆有
替勃龙片
素对
总爱困
旽
嗅敏亭
步子
迈大
提防
丁类
脑年
起早
心腦
跨专业
不苏服
腰盘间
况脑
兰州市
会阵
情有
红曲
司匹林能
痛心
化风丹
尺动脉
互斥
郎有
看脚
中躯
为渐
冻人
泊甘
脚胀
巴林
致双
还久能
舌下神经
阵挛
迷走神经
双颊
胡哲
忆
后助间
痛觉
平残要
腓部
肩柚
滑车神经
下牙槽
鰓
#L
暴裂
奥德
右胛上
感觉神经
腓肠
右腋
拆膏
铙
枞
救嘛
鸣叫
大脑神经
神經性
回纳
症习
性颈
c#c#
药能治颈
下代
遺傳病
burgada
遗传学
肝哀竭
史手
章
近亲
霍金斯
隔代
血汗
夜对
常显
他哥
痘子
质谱
紊亂
多血酸
期手
吃宝健
跟常食
立春
熏鱼
过现
做血疗
做取
熟食
输多
微针
酞行
痊嘛
哈喇子
脚破
路通
脑络通
脑塞
蓟县
高想查
注重
栓住
奥扎
格雷
含羞草
一聊
嘲
人一抱
叠加
美多
震颤麻痹
苯海索
森福罗
头和手
总抖
息宁
用美多
剂末
帕金
惩状
僵吃
帕药
海蛇
消安散治
安脑
色情
服右佐匹
癫
哈海来
掰掰
阿苯
变可
潜伏性
黑乎乎
滚蛋
性感
辣椒素
灵通
气郁
信阳
吃度
洛西汀
lp
法宝
饿感
反刍
bbbbbhk
证个
mmmm
隙缝
又治好
金钠
科在
乔头
荞头
牙木木
舌肌
忽视
#e
语言不清
求住
手腿动
因车
货
法医
圆中
戕
分岭区
总忘事
节区
能生口
苍是
隙腔性
炫晕
动不起
⊥
病腿
为腔隙
倾嗝
困一
花青素
闪腰
肩宽
做卷
粉得
银针
失失
语
冰僵
情况紧急
心硬
悴
病侯
满脑子
老得
助间
鼓不起
刺刺
枕大
变视
肾膏
胁间
岫岩
皮有治皮
炎手
喉上
炎不治会
养颜
耸
脑梗小
舒血宁能
左肢
腦萎
病入
小解
問神
經性
頭痛
迪通
直想
吃丹珍
伤大
连累
需何
后会否
打死
治头
助眠片
持点
紧绷着
头受
嘔吐
健脑
受装
碰头
磕出
电车
摔得
脸着
一触
头撞
疑阵
很抖
撞后
摇哄
五六斤
枕骨
小床
脑太
力锤
头和头
全无
那疼
病时
問腦震
蕩
推翻
脑震盪用
记载
CT##
入脑
髓鞘
神病发
人胺
缺痒
氧性
终未期
经得
hie
肝细
徐动加
伢
请速答
铁血
癫性
纵裂
液好
耳聾
金纳多
伤损
这副药
安全可靠
感官
越急
👧
眼动
连贯
心塞
阻挠
轮替
重生
无障碍
软皮
障脖起
刚硬
体像
凝视
抵
ED
长吃
万菲乐会
一舒
dpoae
不善
交叉性
扭伤脚
索乐
蓬勃
手麻要
老伤
并胞
雄鸡
西好
接尿
药治乳创
脚肌
意外事故
全瘫
脚动
握力
怎能治
想吐女
脑丸
西比
灵药
婴孩
过多能
吸散
颞脑
促醒
挫骨裂
大慢
脑血瘤
神外
后脱
多乏
痛发直
健忘症
疹治
总往
具象
枣核
晚晚
曲唑酮片
悄
菜能
酸枣仁
喝有何
自卑感
眼跳
搐出
精性
该进
震痛
顶约
定级
医症
动是
吹口哨
不冶会
裂能学
旱冰
高会会
由视
弱性
用全
强会
双目失明
眼晴根
肌瘫
蓖麻
眼斜
扎坏
华佗再造丸
IA#
拟腺
打糖
有视
隙性
林会
萧鞘
低场
DMT
普萘
耳胀
椰果
比术
生养
痈
内疼
型炎
病耳
耳内痒
伴痛
往出
跑不了
锥体束
奔跑
頸椎病
前三甲
间歇期
吊丙
止晕
本方
蜜环菌
症吃些
症肌
头脑清醒
症动
症医得
手尾
喷出
人成
人病
宣判
割脉会
吐饭
心录
人接
皱疮
发烂
汤嘛
上痛
痛站
痛還
战栗
甲粉
疼是
精醉
长见
组会
碰为
昕
鞘瘤术区
亨丁顿
亨延顿
享延顿
纠筋
需忌
多动性
忐忑不安
恼火
巴氯芬
胸髓
喝痹通
做隐
夹膜
用伏立
荚膜
罗伦隐
维量
做大梦
好智
恉
做吞噎
手肿用
咬掉
抽畜
右颌
颅內
天打
能生个
房网
###E##
有丹
二五
阳打
HBSAB
叶下珠
史克
三系
小马
做产检
打舒宁
毒量
全阴该
携手
陆龙
###dpm
罗干
干黑
冷品
堵胀
内因
怀着
胃水胀
涶
紧疼
苗岭
胃方
吃健
夏萨德
西丸
仁青常
觉治
备些
新治
康复网
纯奶
幅
调补
维安双菇
李惠凯
粤
美拉挫
冶胃
躺倒
胃会痛
反嗝
过午不食
汤有
肠部
身體
淡茶
里响
盘龙
体木
瘫软
喝调
结气
茶树菇
没因
渴是
双补丸
打膈
瘦小
毒品
困困
两是
状甲
不肥
看肌
病好点
甲盖
某好
骺
血验
顶针
样甲
不红不痒
减症
蜡黄
核有
營養
胸变
多骨
瘦弱不堪
DMD
会肥
改动
头缝
横沟
净饿
很纹
唾
流出物
他妈的
粪块
刘玉芳
石性
鱼丝
会拉出
旁是
天右
八成
按去
lCU
化隆
病历本
胃蔻
颗肉
胃泰散
隔餐
复合性
抗愿
自勉
特征性
形态学
放疆
白馒头
呼碱
CkLDHHBDH
沏
血找
板少
不少次
中秋节
近一
前中期
复水该
脤
肝伴
体恒健
GGT
轻中重
茶能护
壁超
烧药
细沙
肝区胀
胆泥
肝大肝
發黃
喝什麼藥
起石
粗纤维
需戒
湿滞型
周走
右能
反烧
肝囊炎
上岗
应禁
饮良
优思
弗
拍肠镜
突瘦
七十一岁
右膀
缝子
疼内个
AFP#.##
恶吐
伴肝内
中晚
肠转
马兜铃
仙人掌果
败血病
胃脚
番瓜
喷门炎
孔裂
胃疡
红掌
医師
验單
饱时
並且
有膽
桥形
想吐想
散会
咕噜噜
药同
总爱犯
娃哈哈
养身
扁条
健儿
altast
显啥
血滴
血里会
粗强
五灵片
用吉
擂
e#.#
高变
䏜
###E#
吉三
索菲不谓
索菲
达卡
高精
hcv
用不起
╳
吃罗蓉
打丙
LGg
桅
喝护
丿
Hcv##
吃鲜
奶好
志根
黄色素
刚挂
并失
宁治不治
太饿
乳制品
久冶
油漆味
压倒
wg
重者
科研
癌症肿瘤
黑边
白玉
菇
意可贴
时剑突
双孤有何
症里
小面包
指腸
胃菌
耐信
提子
砖伏
补一补
苜蓿
暑假
胶体
酒石酸
胃境
碑脏
样便
状阳果
hav
生效
后眼
上饶市
戊干
麻腮砜
gG
验后
戊抗
我关
弱阳治好
带毒
乍得
港大
俩对
减毒会
活苗
几付
完号
请门
小山羊
护彤
牛羊
保护期
饭会
价隔
陈凤贵
非尼有
活苗后
号接
管壁增
仅以
周反
几能
黄秋葵
贲
胃账
发噎
胆惠
吃泌
特好
驰援
金奥康
油性
萎宿性
白玩
喝凉
粗乱会
尼妥
晚一
熊泡
国没
磨姑
泡饭
能治癌
父系
交粗
服十枣
噎阻
分一
分一到
咽食
秦成
使密
火山
义
水术
旷善
半流
堵上
隆下
疼咽口
成方
七十多
HT
该持
人胖
胆反流
血本
变大胃
dpm###
吃丽珠维
毒力
为结
双歧杆
息湿
湿嗒
陈醋
下肠镜
有连液
肛安
鸣能
姨腺炎
罐肠用
转型
ai
丙性
马上治
复善护
吃润众
G#SO
吃溪
黄草
偶麻
淺表性
会拉黑
全御
奇亚籽
伴中
灶肠化
佯
竿茵
ghbbbbbbb
濆
门炎
咸肉
为角
但针
细查
淡方包
林嘛
肉蛋
降调
盐酸环丙沙星
澄
吃肠舒
天犯
因吃点
吃肉蔻
四神丸
旅遊
海鮮
蚂蚱
布拉
倒奶
爱吐
腸炎食
的藥
食錯
枣糕
转治
吃巴柳
说治
兵马
根去
壹号
又拉肚
能爱爱
煎蛋
虎地
能脉
结腸炎
还拉烂
羊脑
增胖
枳术
腰后
菱
奘
灵水
酥糖
营养配餐
便物
浓血状
白霜
腰痹通
活菌片
后拉
痛且
粗后
过肠镜
凯纷
后拉绿
喝酸
石榴皮
黑会
那痛
抽着
哽
吃卡
盯
胃片
有肠化
胃仙
汤管
糖膏
雀巢
应忌用
惊散
酸特布
乔麦
广藿香
對寶寶有
眉豆
指球炎
鲜奶
潜表
口淡
舒液
单吃瑞巴派
吉法
烘烤
类食品
果干
胃得安片
八爪
喝养
川楝子
更涨
拉唑行
返流加
阴一
胃透
局灶杯
尿囊素
指胃
或肠
肠节
多肠
肠攻
小痛
四神片
若素
絮
生物钟
肠间
肚凉
肠意结
气多且
肛能
带油
消炎痛
寒凝
肠菌
CA
哽噎
热食
牛脑
莫沙必
得乐
肠乐
丁玲
方对
垮
穿线
以手
敲
腹嗝
五指
通关
厌油
仁青常觉
胃大
胃中
胃下
ATP
高热量
胃托
瘀积
鲜活
三姨
回气
已杳明
不死
要冶
hui
较瘦
赌挺
窝沉
胃向
做治
瀑布
胃豆焱
淤滞
呈长
勾型
郑多燕
胃能
升上来
天枢
养呢
炎反
总值
点严
毯
说照
兰光
优思弗
响起
花舞
会得肠
排不净
头鸣肠
一肠
恩病
酸牛奶
肝太乐
发右
地龙片
役
请辨症
肝欠
cmx#cm
区低
包虫
肝油
三脂
能食
饭想
非委缩性
生肝源
損伤
舒肝宁
鲜牛奶
水飞
蓟宾
医嘱
安栓
查婴儿
胆汁酸
高说
算肝
遮虫
宝行
雪症
中寒
流口
涎
失气
超肝
五十几
菜籽油
肝瘤
左肝囊性
完海
搬运工
肝右页
电极
固化
金茵
电图
药肝
好能活
透明质
苦参素
韦福得
韦脂
肝弹
化瘀
喝御
农甘
红素
区串
药尼
调制
五连征
出肝内
融石
叶强
喝浊石
清茶
石侧
冲掉
苗寨
石清方
页
#mm#mm
体有
右肝痛
叶肝内
数粒
浑
伴生
胃浆
㫜
吃柏龄
胆康灵
膽囊炎
輸液
怎什办
类别
咯能
口会
质硬
护工
偏硬
活动度
时口
愿
杠肠科
治喻
肝硬
脾胀
有钎维化
韦卡
罗欣好
佩乐能
那味
根菜
贺普丁
稍密
儿泻
九十天
#t#
病现
吃泌特
阿嗪
药不疼
绿叶菜
反口
药化
须肉加
腊
转太酶
脂肪性
失代
肝会痛
号诉
晦
高大
大近
活多厂
肝藥
赶黄草
酒去
挂什科
体胖
蓟
食胃
曲突
swisse
介定
普遍现象
专安酶
脂防肝
白砂糖
索拉非
现拉不出
迷睡
约等于
血氨高
伴皮化
能肠
临表
参岑
改喝
动物油
被确
长段
开来
#x#CM
闩
动抑
定水
批柏水
长胃
体大是
送检
烧鸡
汤济
山来
疗胃
粉条
疏果
号行
胃休
达喜行
累胃
黑绿色
胃缩型
后留
莱
花状
看胃
送点
因胃
天拔
内尚
值数
天值
共震
血宝爸
烤箱
退复始
天因
胆什性
后常发
会吏
已切
胰线炎
缺铜
朝阳市
无尿
胀大
脾大能
消水
吃红茹
噻米
多血供
打检是
抗进
集气
林下
参么
分為
幾個
階段
开胃
山羊
上化
大和脸
疼涨
代失
偿期
办麻卡
安海
复肝
浓包
胆绞疼
伴球炎
及球炎
钻痛
点装
艾瑞昔
后肠痿
绿叶
病请
从肠镜
水果汁
潜表性
账
反流加
药够
那胃
冶法
胃复安
癌肝
捐肝
黄坦
渲染
带病毒
缘来
培菲康行
青枣
代茶
蓖麻子
芝麻汤圆
这聊
不会弄错
抽后
右腹会
瞧脉
起紫块
判
大胆
操能
宜早
转安
緐
###kg
公
牛癣
利通同
利通
膽石
胃氣
修息
点算
胆石病
腹胀满
吃胆
远动
户胃
时胃
卧则
胃发
会白
蟯虫病
肠粉
阻梗
好方
胆原
能气
潜负
灵敏
六十一
鉴护应
法新
半男宝
易生
普食
横胃
胃大弯
左隔
膨升间
位结
奶到
日宝
白线
二爸
拟似
园硬
有齿痕
举不坚
胖瘦
没水
玩不动
阴精
调回来
老上
舌胎
阳瘘
不举
两虚该
直腰
亏损
特细
难补
药制
和生
炉
浓壮物
帐
瘦到
来得
问解
根热
男上
杠菌
读用
讲下
那课
先锋霉素
问哈严
磷酸酶
华康
聊骚会
鲟鱼
流走
发咸是
扰乱
四味
紫殿性
胡桃
完制
蚧
宗合证
识疗
倒苦水
肾于
证型
肾孟
三鑫
疼输
浮沙
星好
三干片
学压
洗美
黑黄
肾膜
踪合症
Lga
华中科技大学
能吃索
非布
宗和证
钾性
jianchs
Ⅰ
ga
布鲁病
服肿
酒能
NOS
含钾
昌乐县
cdk
渗透性
需去
光氧
lgA#
gia
agi
总合
尿微
弓起
化学性
碣
前状
肾石童
好想哭
zvp
CTUMRI
稍窄
##Mm
凹性
肠梗堵
右有
猪尾
大双
CTU
左输
管下
周照
储留
全患
相见
全待排
清胃
清盐
耙齿
黄会
吓片
血潜
iga#
郁金
吃百今
喝头花
能邦
期应
吃丹
粗喘
嘴馋
石韦
后尿尿会
坦啶
金色
晨尿黄
夫辛
剧节
没尿
叽肝过
多元
做用
移殖
四加
会尿少
脓疮
指成
银鱼
阿娇浆
多宝鱼
花絮
好肥
他克莫丝
毛肚
补上去
减得
拨罐
半量
后脸
郭利洁
门冬
备孕受
加能
双省
快速增长
#mm.#
青黑
男右
提大
内件
写右
药能化
并囊壁
及囊
喉片
殴打
榕
姑丈
毒尿证
继及
最贵
医漫性
肝肌
脂肝高
钾高
摄
有大叶
非少尿型
治句体
昆牌
或成
吃蛇果
仙灵
能断
慢炎
刘小荣
木通
拜糖平
参麦
我张
加一
增殖性
高尿
异体
摄入量
系膜性
氯沙坦
血红
玛替
考芬
医疗费
高钾
北大第一医院
血高
读片
详细资料
用托伐
普坦片
髓质
窦式
豪囊
院能治
拐棒
微化
羊胎素
美年
加强锻炼
伴感渠
去定
肾好
会像生
几算大
反腰
尿尿时
泌尿器
面肌炎
想喘大
治骨
藤黄
塞可平
五型
吃丹媚
我叔
消食片
频频
有尿感
乌
小白瓶
期膜性
飙升
黑玛
咖粉
大环内酯
详询
专勿
节瘫
小黄鱼
骁溪
加甲安喋令
苹果酒
喝百令
个椎位
左内叶
Lee#
吃知
CKD
发能治好
马多
第四阶段
粉降
查尿能
挂面
吃算
比餐
发虚
暈倒醒
不來
元数
补回
低钠
减生
为甲减
于甲减
转甲减
TT#
减病
氏病
什是
因甲减
减有何
减能治
锉夫
逆光
长脂溢
较多要
治脂溢
阵痒
用娥
罗纳
英
用马油
酚图
爱脸
梳头发
求脂溢性
用米
洛地尔
头较
乌黑
锯
棕榈
非遗传性
防脱
治脂溢性
真该
光头
公认
好油
长密
地尔酊
用曼迪
液对
地尔有
zhiyix
洗会油
两额
确症
地尔酊对
菲娜
雄胺
防脱发
护发
采乐能
能用育
发液
水土不服
曼迪
线变
充
喝益
补骨液
能染头
脱得
很绒
脱小
洗发液
满是
四口
缺乏性
荞麦面
无脂
碱面
提前结束
低糖
食些
吃麻
吃松
喝雅培益
力佳
恩母
宫保鸡
盖饭
鲳鱼
能以
老玉米
双山
菜汤
很撑
喝启韵
桑叶
保健茶
腊八
加糖
钙奶
腹好
西柚
吃青
血前
生米
熟米
测餐
安佳
白芸豆
糖分
以後要
事項
双瓜
会导直
妄行证
咨詢
流转
糖平
干点
活腿
账疼
脆皮
怎么着
病足
面甜
含糖
需低
能治去
桥式
洛
乔本式
泼尼脸
侨本氏
氐
减脂
##u
多磨囊
孝
药康
###cm###
###KG
阿阿阿
宗和症
减肥法
肉太多
###cm##kg
太粗
##kg###cm
斤算重
想瘦
飞该
胖脸
一百三十斤
###cm##
特胖
##KG
超准
太强
九十九
特粗
很肥
长膘
及营
胖人
两虚型
六体
我想变
变美点
低产
哺
算低
多吃含
疼经
症比
得医
苦苦
症长
身材矮小
减该
周亚
减和亚
烹调
眼黄
出高
用人
成像
怎疗
产检低
出低
十七八岁
消毛
事例
疑患
胸毛
毛症
毛才
費用
过剩
并囊
叶小
冻虫
乌头
谷粒
吃海
圧
血证
总高
高酸尿
术术
棚
检兵
广西南宁
胸大是
汗发
没验
伴结甲
肮有
啮颌
用类
银手镯
或类
短袜
环杓
关节盘
伤性
已侯
渗腿
胸肋
美因宁
冲激
波治
C##
风化
口能
张张
痟
骨变
捏合
颖
加钙
回弯时
灌输
频会
双醋
瑞因
氯诺
昔康
过节
跟月子
甲泼尼
油擦
修美乐
会启
用雅漾
奈膏
搭档
抗敏药
喷计
基素
氯地
喝大骨
喝花胶
松用
红小
过会会
针好点
得类
妙法
年类
一以
木桶
和晨
问类
但解
型类
桨
行动不便
中山市
有筋
脚筋
臀肌筋
过片
跟键
虎力
纳和纱纳
条索
推开
肾周
托尔
敏行
黄安
会晨
脚和手
电能
薏辛
扇
吃吃饭
清虫
药换
两条腿
腿子
口腔卫生
雷洛氏
软弱无力
安舒贴
腱
鹅足腱
髌前
莱姆
蝶形
陈有
缔结
怎吃
喝鸡
dle
双链
餐饮行业
青蒿素
做雾
日健
大汉
盘型
用环
磷酰
海鳗
SLE
二十八岁
有紅斑
狼瘡
個
坐飛機
贝利
要人命
西兰花
肾四型
少上
清菜
绝不能
雾眉
青蒿
喝图
省二院
簕
泡片
生骨
脑堵
阿塞松
hai
我尿里
结蹄
鸡精
什什
更治
华浓该
单传
立克次体
包经
高底
发灼
酸酸乳
受冻
###umol
脚腕子
舒尼片
云乐
抽五管
研究进展
Pas
LgE
复松片
挂号费
三岁时
危症
根呀
硬斑病
哪治好
博芝菌
感光性
性寒
新家会
血质
好补
铁行
hba
求介紹
缺鐵性
输铁
现实生活
异食
铁锅
软枣
头蒙是
水补
用补
当半
易补
对铁
貧有
白殿
察
SEA
a#.#
缺矢
不冶
SAA
凝血因子
广卅
留观
几间
两行
出红疱
巴结
调亡
骚骚
致力于
下巴颏
哪此
电子手表
科急
憜
出能
野洋涛
铅毒会
带过
横膈
肿过
钟翠梅
质控
溶性
能考
鼻湿
帝王
血尝
归单
口形
真红性
糖葫芦
近亲结婚
除颤
什魔病
差配
白得
过份
助视器
振昌
铁过
巨噬细胞
吞噬
HlV
全脸
划
甲床
捂热
只亲
万孚
爱会
测酶联
九大
越热越
人分
必物会
嫖
缺定
看病贵
人挠
美甲店
按摩女
建小卡
艾博
或传
足店
有酸水
乱性
膏能行
药泛
醋白
科男
鸡子
中红圈
完房
v#
wtfj
含液
眼爱爱
手破
疯狗
狗屎
蜜袋
鼯
滚能
家猫
被家
豚鼠
有恐
哑型
老鼠屎
吃辣点
涂炉
大坑
蛋花汤
回校
想破
还会出
难脸
炒油鱼
对巧
惊风
同睡
坑能
脸烫
岁成
孩长
嘎瘩
一疤
事向
跳蚤
印有
喷丁
蒜皮
天能治
针没好
龙济
NG
式子
萝莉
控来
荥阳市
阳性菌
武昌
科特
聊到
这刚
UU
軾
革兰试
药塞后
乱搞
辛有
必治来
算全
非淋会
复返
有治过
初愈
可医好
根不
目和非
HGG
活鸡
虎耳草
起红嘎
推背
该途
药理学
完起
既快
特力
蕨菜
喝生
微烧
核病
咳要
起源于
口忌
肯尼亚
疟疾疫苗
奎宁
再燃
媒介
寒麻
叶子
预防药
喀麦隆
赞比亚
热型
夹色会
菌鼠
伤寒论
lgm#.###
LgM#.##
灰性
DNA##
#IGG
破用
igm#
##IgG
#LgG
Igg
hsv#ab
长嘴
DAN
溃破要
hig
卤鸡
#lgg
IgG#.##
#igg
#gG
元要
墅
手杆
丁安
AU
嘴脚
lgM#.##
变大后
ijm
有白泡
娘娘
有个胧
肿病疆
玻璃纤维
上望
跟会
那针
二万
像种
每天花
花开
总仰
看天
犯痒
入眼
小尖
HHD
如人
管跖疣
新买
吊灯
表面现象
苦胆
晕乎
登革熱
根手
净手
就会裂
大癣
约膏
治出
起壳
疼不痒
修车
破后
好裂
手起
冒血
灰甲
一付
峁
绝眼
斯皮仁诺能
后治
水土
指肚
用何
或配
消红
腳泡
水會
腳癬
治脚癬
还白
掌拓
易喷净
有士方
就养
加烂
脚窝
茧
范红流
刑
癣菌灵
配制
老顽固
夹出
有莎好
膀碗
有白尖
挑开
除术
夹疼
无痛苦
嘎子
很苦脑
丘性
激光医疗
夹点
夹除
急帮
翠家
皮伤炎
有郊
王后
骨癣
起癣
棉裤
乳么
体癬
图里
问由
团会
印到
别得
用特比
特比好
比尔
夫
黑痕
烟能
西地
泰诺林
尹
吃七珍丹
蛋羹
冰毒
预苗能
打写
类有
灰灭
针出
能接
上栓
清火宝
喷布
粒大
象牙
丝炖
天阿奇
军团菌
纹唇
多尿期
霍乱弧菌
起红痘
乳母
蘚
只疼
高微
三阳
血青会
长藓
完身
点皮
费时
痕痒
过名
肤股
皮肤癣
澡堂
流了血
人血会
跤
朱芮仪
单毒
用膏膏管
菜苔
有红泡
皮雪
有微
高挂
妓女
甲流药
织
于长
猫癣
补疼
贝舒宁
伊夫
剪光
多成块
结晶状
合烂
事有
多掉
有治头
松鼠
人奶
铁铵
铜维
脚弯
准么
尿口
支原
危之分
型解
孕检有
问下解
看解
治解
跟解
能治解
女解
##h
介脲
恙虫
肝是
HCV
科收
传单
右足
水在
陕西省
化能
种上
天种
清脓
需内
病和布
打苄
RPR
上会出
状治好
吃益髓
看腿
盆骨侧
软骨病
短而细
核用
能变
算比
猪杂
细条
留出
内角
稀便
土黄色
沫沫
拉沫沫
谪度
退兵
病擦
官方网站
剃到
虱子
病得
比郊
成虫
病摸
被口
会入
过高危
整容手术
口爆
患甲
下炎性
梭性
缘炎
非炎性
侠炎
盒
jisnjia
胃底炎
腺炎性
色拉
趾头
炎质瘤
炎证
伴嚷
交织
勺炎
出炎性
性前
历假
药妆
牙本质
干起
没腿
老睡
抓挠
奶藓
典必殊
非医
淹
柏林
低和长
合骨会
重庆大学
印用
用珍
美使
前熊
招有
印红
看不大
已尽
很红该
宿便
相互作用
仁青芒
觉能
点水
糠皮
治用些
拉色菌
擦抹
用平肤
切排
苗皂
没挤
鹗
魏
这腿
可认
腳氣
光治
起干皮
汗脚
离皮
染到
气能
窝长
內侧
糠诊
前起
痕养
脂意
氧是
干发
卖敏行
有溢脂
脂性
铅要
趐
农科院
小片
变话
白矾
卡力
只治
补骨脂
町
唇红
奥能
福尔
处光
培植
男星
药起
白蚀
签子
伤是
温
留痕
給油
傷擦
药還
洗烂
烟筒
拔甲根
粉状
时后
小窍门
暗沉
┳
艾益生
损毁
加酒
上海长征医院
韦乳行
喷漆
昔落
韦行
鼻唇
靠水
林好
阿西
洛韦好
记吃
长热
一头
菩利
皮宝
涂派
我挠
墨汁
敷用
贴要
庑
手贴
踟疣
網多會
變成
斗雞眼
没是
膏用
足趾
上磨
問皮膚
雞眼
聚肌胞
膏要
贴长
硬不疼
拓疣
my
脚缝
冒起
斗鸡
鱼痣
必亮
顽癣
用达肤
老痒
治除
生么样
睾囊
根起
uvb
面值
艾婴康
调能
完金
纽尔
长癣
那起
金卓玛治
喝会
煤焦油
春冬
皮毒
重福度
它制
有白圈
用皮检
西湖
打血毒
清能
多年不见
呤
焦油
根么
医嘛
百癣
削
假药
鹅掌
皮发
耳上
窝长个
纤微
有眶
我肚
公母
攘
手肚
小肿
快块
抽脂术
腹多生
辣子鸡
长法
压会
线处
结有
长啦些
终丝
吴鹰
按个
繁殖
散瘀
四叠体
注院
四叠
池区
直窦及
矢状
巨痒
用孚琪治
谓
膏布
皮藓
发医
氟米松
一致性
泛发
往肉里
拔甲有
边肉
床瘤
指起
汇脓
白鲜皮
马鞭草
次拔
过拔
二拇指
嵌到
指肿
大拇脚
走肉球
剪才
都化
手豆肿
挑烂
钻肉
脚滴
拔线
甲边
手化
修店
问么治
擦不掉
甲藓
嵌甲症
店能
疤大
用火针
膏拔
好切
阴丘
用刀
非点
疮毒
阴包
旁起
疼发
耳背
长疥肿
消么
加抹
小白泡
整掉
寻跖疣
尋常
藥膏
快捷
带刺
登科
江湖救急
有小硬
处老痒
皂来
好时
藏方癣
开银芩
药外
触之硬
康宁
布特
吃二妙
变大痒
隐膏
不摸药
派瑞
用金肤
陰囊
可林
张在
打祛疤
水光针
这腿算
八针
消不去
太原省
事一
粗是
淡疤
列如
普诺复
洗眉嘛
體質
针缝
易留
印痘
用费
肌会
缝过
想拉
产检时
怎该
西可韦
不能根除
去浩疗
遇风
火炕
罐头
治好治
大椎穴
喷昔洛伟治
没隔
白块
张出
药唑
伊曲唑
甲癬
辉灰脂
水杨酸
结决
特比来
甲变
得甲癬
甲母
忍冬藤
用小萌娃
黄痂
富清
玉米粉
安丘市
长太多
斑该
西式
象荣
康们
耳骨洞
大长
体长
切痣
动无
咬出
背起
geftiat
鼓着
尤文氏
肿瘤发生
裆
防锈油
腰肿
口长
上能长
腚
耳孔
单相
好想长
脑袋瓜
洼坑
下起
今个
海滩
白芷
治晒伤
伤要
手晒伤
肩带
伤涂
玩晒伤
撕
脸晒
很辣
时脸
伤辣疼
冲浪
除疤
曲尼司
肩后
喜疗
传么
下甲下
这会癌
老人斑
一碰疼
这课
Pd#
临沧
万分之
药治得
外洗
卡松
冰柏液
菌素
想捞
杀感
康酸莫米
默氏
感有
冷媒
偏弱
好用些
不冻手
一热痒
弄水
热后
儿朵
长冻
伤手
有冻
冻过
冷手
天然气
冻裂
疗伤
护手霜
原色
严冬
凍傷
手都会
配菜
可狠
娃脸
脸霜
冻干粉
天冷有
现涂
痒红点
阿求
手教
手易
冻脚
冰箱
冰时
逗和疤
乳酪
Xiazhi
下阴
洁钵
草晴治
受风得
中医理论
用雷
用化
湿膏
肤痒
肿消
发该
卢卡
上机
水得
录雷
蜈公
浦银散
鱼片
有替
伏期
地下室
时涂鱼
超疼
张秀文
带脚
炖汤
明矾
枯矾
足藓
科类
性要
用汗
利克止
汗机
高温作业
胡臭
头汗
欧脚
汗光
阻术
遺症
做激
蓝灯
有脱
薇诺娜
泰尔
擦剂
益肤宁
换肤
型阳型
查人
分秘物
项高危
人乳
hpvL#
开具
黑制
胖疗
这不像
鲍温
可拍照
麟癌
不家
没钱医
秀眉
征照
烫水
坏肉
蛆子
变嘛
帕林能
数控车床
求付
jijiji
阴宝
皮宝灵
护理液
电椅
有血用
灵方皮
舒克
药求
纪常
联邦
优克
氧死
皮舒克
用氟芬
丁酯
有足
般痒
三十四岁
脸成
普林
曲咪新
癣肤
灵治
当患
脓点
遗留下来
伤科
泡菜
胃滞
起汗
尤汗
症汗
犯赠
眼底下
粟丘疹
胃火大
垓
织炎性
圆区
区前
深面
左枕部
层内
起皮癣
狗皮
股皮癣
肺鳞状
原发灶
癌后
头颈部
好鳞状
得亚甲炎
米会
增重
口生
肿毒
火毒
三弟
很显
宿迁
晒斑
多才
青医
每平方
灰褐色
样斑
vp
面疹
脚汗症
过手
号口
抹些
用喜
氧环利嗪
于口
满背
布鞋
ige
涂完
炎毒
会始
能挠
只痒
有麟
刀切
肉赘
性黑
寻天刑
大疱性
可硬
奥硝挫
肉白
口底
如打
皮厚
纹路
长老
硬壳
涂克霉挫
涂克霉错
左下长
浓疱病
人中起
起像
微发
起疮
瘡会
诊以
养鱼
高照
癌不治会
癌多
凭借
癌光
病型
地摊
瘊要
瘊儿
瘊么
瘊能
瘊会
上脸
鼻长
曼迪米诺
地尔酚
排脓
片该
红圈
指上
腰侧
安阳市
海淀区
石景山区
神疲
肛镜
外有个
旮瘩
有肉状
半圈
病炤处
会生虫
pi
rw
幼体
处赘
长嘎达
肉牙类
处发
浸到
濡
迸发
多高才
可珍断
会招
瓶血
黄软细
指路
针人血
发质
鲁
想询
骨不连
钉会
血源性
此证
磕破
植骨后
完下
颔
窦瘘
仍感
侧隐窝
腰五胝
穿负
螺钉
根峡
出应
部裂
突基
六节
低尾
伴中颅
中山医科大学
一院治
檢查
网球肘
脚治
点燃
护养
灵丹
不換
骨能
能法
古蚀
頭壞
智疗
它痛
庵堂
会弹响
期做
喝鹿
痛芝
骻骨
普安
坍塌
氯挫
依巴
下腿会
事坂
泡后
湿困
入冬
治膝
酸纳
回弯
两负
具体步骤
手撑
肿账
直不疼
接歪
左厕
带要
半约
胸锁处
左肩锁
订订
天要
并肩
锁
妨
游乐
钢片
斜型
举高
主诉
要话
倾角
拆钉
头下
成角
软组
固定术
一正
桌面
鼻颌缝
塌
复员
交错
泡影
没响
突及
筛骨
纸板
后塞着
额骨
车门
切刀
脑撞柱
廣州
会令
奥特
癃清片
热疼
用邦
列安
起泡沫
用哌拉
##ML
症段
对病
癃清
通瘀
恩瑞特
珍段
三围
导融
分必物
后线
皮长
割个
完线
起白泡
色情电影
以累
阴火
衰盛
梦有
烈腺炎
精锁固
遺精
一累
nuo
一言不合
退酸
变干
遗了
流精
菟丝子
晨勃少
用金锁
三夜
我长个
萎了
舂
刚行
洗行
日岁
力康霜
邦治
茋
美孚
克雷白
用特
海飞丝
三十几
涂敷
用百夫灵
马眼
小诊
用酮康
光电
毒康
办请
龜頭炎
霜能
海鲜大餐
吃宁泌泰
业
外带
坚挺
隆闭
舒片治
尿尿多
吃窿
闭舒行
地尔
左沙星
流白快
阳伟
治医
用高
猛酸甲
吃桶
膏剂
消膏
用赛
念株
卡唑
套环
干水
包养
漏不出
自翻
内八
异闻
分拆
辣酒
皮节
环要
付启睿
关源
条红肉
口紧
辜丸
线口
环没掉
商环
动术
射太快
翻得开
下割
不软
天伦
有尿精
右道
触碰疼
男下
簧片
宁泌泰
蛋卷
天替
销唑
地尼是
针嘛
勃而
胜红
左氧费
疼下
福高炎
金樱子
秘尿科
咖能
拔起
不力
尿里会
通瘀片
蜃
司力捷
辣会
精不化
但血精
射血精
球腺
林对
尿胆
湿团
炸整
有丝
酒类
血精有
血里
消人炎
射完
克月
喝英红
会自
解不完
细带
自吸
半鞘
出鞘
亀
吃莫沙
苗药癣
涂会
用红敏素
点痒
guitou
上痒
克霉磋
红潮
高猛酸
钾粉
瑞松治
药和涂
荘
百夫康
证退
一抹
龟沟
啤洒
流变
场效
左痒
前度
啉
完菌
药好娜
先清
癌好
癌看
实拍图
癌炎
阴根
变别
不割行
老戒
癌转
蛋痛
体楂
蹲墙
无梦滑
完花
快前
斑声
斑用
灶该
炤
去体
班用
略大
斑能治
斑严
精卖
左附
石附
x#
尿流细
尿流率
扩完
扩越
狹窄
扩会
扩张器
清微
入伍
坠下
经隐疼
透光
疼一
碎石机
残尿
撤低
普尔
图拼
莖
鐘
好割
切后
环性
情绪性
脉炎
活血化淤
射出
精来
无精少
难射出
射得
好彡
特硬
半男
完病
看太多
搞通
老排
千年
喝鹅血
电子厂
症嘛
尖部
没破
胸到
胸取
补法
胸挂
肚腩
凹窝
胸多大
胸中
喉鸣
胸小该
废力
最专
算晚
胸不开
胸与助
查疑
胸应
胸好
胸能治
带贝贝佳
医在
胸拍
............
严害
平残
制话
套扎后
肿吃
药吃来
降要
氯咪
银杏果
做心
癀
脑池
单硝酸
舒肋
前中
右椎
青蟹
不灵敏
鞍上区
要装
夫乃
脉瘤
额内
塞术
##mmX#
或支
蛛网
池旁
出腹
CmX#.#
后钠
下出
下前
五十三岁
部小
脑内严
夹形
严跟室
看深
圆空
Galen
胼胝
稍量
膝干
臁
痛烂
管城
淋巴腺
药炎
平都
财证
扫雪
必塞性
红筋
暴起
曲脹
区张
疼通
已烂
育防育
有静
我足
打印
手月
鼓骨
PD
完胸
口不疼
脑上
四十三天
方肝血
feibu
情下须
肝页
痕处
难有
有升
穿长
右肢
袜能
最靠
已至
泡能
经都
缩成
站长
讣
乌龟
儿童房
塞栓
针口
沈阳市
泗粉
拉栓
十片
墙
脑硬下
摔水里
坠床
质变
成脑癌
开录
网瘪
俞合
外板
硬膜外
盖州市
碍不碍
做射波
天幕
半拉
线射刀
CCT
哈医大一院
鼎城
院能
天脸
额部
结水会
幕上
分险
傌
临明
良瘤
及柏金逊
右额部
左顶
并脑
脱离危险
李圣亮
微寒
好丽友
保单
咨询电话
渴
未确定
北医三院
金贵
该方
叮咛
流术
姜艾
消瘤
肝针
刻有
生命期
胰漏
患肝门
MRCP
性大嘛
老娘
肠型
塞黄
年现
腹气
肠腔
外径
用善宁
子娴
兰尾炎
助孕后
深约
完股
电棒
热压
漏电
电弧
电伏
泄漏
用汇
涵术
起皮用
这药管
硝磺
冰敷时
想射
史长
含曲林能
肾不疼
金丹
能扎出
腺上
来原
通丸
##x#
治疼
内置
震石
有沫
状癌
完造楼
终末
药防
刺身
尿炎
下挂
吡柔
罐注
pral
移植术
可莫司
漂呤
肾出
出尿
针叫
输尿
佛山
洞用
砂石
中出
男同事
哈尔滨市
肝复水
落入
hdghjfghhjjjjj
会得腺性
完腺性
酿成
做半麻会
通能
左氨酶
手术台上
放双
完手術
要定
痔核
肛里
外漏
老拉血
犯得
扎线
路该
肛口边
坐不住
结蒂
会癌
痔比
zzxxx
方苓
新肉
痔能治好
痔伴
痔发
口线
可冶疗
得用
头粉
肉球用
偶时
治找
耍用
如厕
窦炎加
肛窦炎加
还胀
伸腿
可下
变越
复性
特殊照顾
一嵌顿
tep
钉枪
半女
除手
用瓶片
会因
顿性
生命垂危
怎仫办
有小肉
球痒
支付
榛子
早治
初孕
能用肤
孕植安
发啦
用高酸
钾浴
角菜
能泡
周吉堂
肛痒
痔膏
活摸
白兰
四块
胃潰瘍
嵌钝
跑步机
补它
天男
创好
吃千禾
伊舒能
腺病
手书
naxieq
电子鼻
镜上
畸突
近排
鼻豆炎
面偏
白脓
内腔
偏曲算
导
偏曲娇
左內
鼻下
插哇胶
通气管
男多大
干澡性
辅舒良治
共鸣
偏曲下
相挤
收术
如样体
偏曲刚
偏曲头
虎口
巴掌
性器官
温烧
皮病性
欧
肠内
红道
异病
液晶
呼嘟
脚扭伤
螺旋形
耾
排期
节是
以去
用腱
女兵
索坦
晚欺
胰脏炎
大腸
大腸癌
边细
化便
##ng
xelox
瑞格
非尼
厕会
对消
鹿胎粉
料酒
rads#
留是
手诊
会溢液
根茶
姜醋
对虾
陷
水性
取好
肌留
诋毁
直经
🚾
足状
有囊液
不填
软肝片
应三
蜂窝状
散癖
安乳方
想治
长根阻
橘核
吸不出
叛断
吃酚
咖敏片
排不完
外打
结团
吸掉
邦达
地西酸
劳嘛
可宁片
样痛
奶堵
输克林
奶裂
存及
胸显
泊污酯
打氨曲南
捣烂
帽粉
内得
漳州
宜昌
核桃仁
左尺
扶沟
复股
大斜
带癌
留点
癌分
优甲
癌易
治德好
能蒸
戒些
窦速
癌未见
仲硬
癌半切
亲润
癌双侧
多为
癌己
狀癌
平阳
左叶囊
被疑
有囊
纯囊
属瘤
CVR
值能
IPMN
头囊
腺要
微囊
苏对
喝苗岭
胰肿
叚
胃轻瘫
CiK
后癌
骨维力
衍变
后骨痛
去势
生碱
见癌
脸能
her#
全乳
涂除
FS
莫昔芬
灰度
区别情况
ct#nmoIIa
泰迪得
已转
期又活
漏液
喷香
钯
甲癌
伴隐
ngal
肌里
涛
癌属
马卡多
纵格
偏高为
声道
彼会
扣志
左舌
scc#.#
叶源性
吃冠心
乳靡
吸鼻后
会淌
用红升丹
胃地
mt
TT
右小复长
合作医疗
阿华田
完安
要化
小记
内火
快变
状新
放射疗法
原声位
淌出
服侍
性药
拨管
造囗未
吃哈药
三脑
偏盲
边缓
爸手
零米
攥
拳
患脑癌
床头
霓虹灯
转脑癌
辽后
舌管
儿童期
涎腺
来闭
脑梗脑
申立
惡性
Ah
Yeah
腮肉会
槟郎易
危言耸听
泡泡糖
内有个
舌弓
长一
麟形
牙牙
花子
肺转
大切
偶感
渗血能
肾内
诊挂
#mm##mm
宝鸡
帽是
右腿骨
颈骨
完骨
说骨
瘤动
骨上
回弯疼
外缘
言
浓性治
会范
用定
总爱泛
化糖药
算麻
枕有
什以
条索影
改药行
灵魂
scl##
潍坊
人绒
黑糯米
加柯子
睡下来
讲师
总么治
现痰
咳之不净感
喉咯
含个
壁及
烟戒
颌部
舍根
］
五周年
因得
喷雾瓶
长肉息
入口处
好行
转季
库民福康
管置
药滴
青酶素
非脓性
轰隆声
棉球
提定
士
耳死
起牙轩
完滴
耳油
耳药水
药之然
腹稀
一整夜
不昊
死路一条
冴
西洛韦
这学
散点图
好肿
丽科杰
年数
较多应
观长
小皮赘
脸老
导治
细该
稍宽
维都
洪瑞
十分困难
滴漏
鼻渊丸治
鼻渊丸
蜜蜂窝
有骨头
如冶疗
有米
耳呜
喷爱赛
說
指检说
样体
里腺样
乌贼骨
后尿不出
滴药进
泷性
长肉牙
滴理
买滴
流浓要
里治好
非化
膨化食品
急化
克洛干
热重
喝秋
下焦
皆
催胎针
湿证
完双羊
伏帖
羚贝
嗽
玩好
再孕胎
胎芽长
##ps
胴降
孕九周胎
未次
元月
就会胎
问下胎
停育史
太累会
刚胎
停有
会停
cd#
cd##nk
高会胎
手水后
停验
孕棒会
时胎
连续流
孕空囊
过慢
下会胎
排胎
停发
率怪
连着
次胎
抗心
万会胎
停史
育人
流后
懷孕要
週了
還會
發生胎
周会胎
月光
使胎
血会胎
一液
孕早
尖盘
足后
治料
浓密
刚板
臭得
后牙碎
封药
不动牙
坏牙拔
有止
丁硼
根冲
牙岁
打麻牙
中央尖
牙科诊所
封牙会
折裂
拆药
后牙能
拔下来
不牙
阿琪
拨掉
次药
磁牙
能烧
贴面
后牙会
街区
部落
芬和甲
迟有
多牙
牙会痛
那牙
钻开
镊
鈦
剩菜
半死
一塊
牙经
宁酊能
上牙套
要套
套上
腰康
证名
小柳
原田
水波纹
后犯
眼说
强龙针
福克斯
瞳仁
地塞美松
周期时间
链连
晶睛
炎寒性
房积
炎病发
萄
光疑术
炎膜
谷有
生蒜
不大肿
一个通
越橘
北方
珠贝
定喘丸
不太通
瞎眼
看光时
何氏
Rgp
半查
太深会
可变
发干用
守岁
不太开
淮
度能治
型镜
读有
移入
眼镜店
宣
米外
ww
改正过来
青能
打网球
南到
框要验
透光度
鼻舒乐能
加黑
有膜
三面
散瞳药
烟丝
配美瞳
光复
查要
洛神
特红
普南
扑灵
杀牙
直哭
未掉
智慧
及牙
斑菌
全坏
想拔
跟烂牙
牙银
蛀空
断牙
钻
龅牙
氟斑牙
牙线
嘴张
洗牙要
有牙齦
牙黄
小宝贝
冰硼散
Qing
wen
牙子
上制
比大要
微循环
开角性
白变红
初中期
比大
d##
ds##
闭角
血影
吃佳蓉片
pm###.#
六十五岁
眼瞳
雪压
有虚影
爆胀
滤过
体危
高近
脂会
彩虹
過度
眼會
龙泽
有虹视
完怕
邻面
塞内
驻斑
涂布
药哈
治口臭
牙周脓肿
显示器
指纹
眼不治会
应配
快散
加散
光带
机子
明普慧视
换镜
完童
爱一
这代
远散
能学车
半戴
完贝复
震顫
好麼
遮眼
虚龄
阴正勤
弱視
要交
排脓后
半长
更肿
外肿
涨肿
板腺口
包变
老爱长
化肿
眼晴长
起拢
有烂
情红
好几层
露达
可脓硬
周齿
电动牙刷
洗牙能
过牙
完牙会
洗牙有
吸吮
林行
易喷爽
常年性
该点
脲体
完药询
金眼膏
发严
柔
眼皮底下
液沙
查解
嫂
检出限
勒马
眼衣
痒醒
度严
眼发涩
题体
绿泡
荒
沂山
日体
眼盖
眼要
越快
有校
下火
包破
温热
水液
单吃甲
硝磋
长肉球
脐橙
饭去
氨苄西林
度米芬
能用炎
立消
英太青
口腔诊所
抽脓后
木木的
失音
红眼
复光
ds
加近
㪚
能慢
恢愎
花镜
接力
戴起来
坐近
远点
阿童
义能治
喂光
度少
睡帮
眼向
重有
隐形眼睛
时不加
运视行
常做
检查室
用配
无隐斜
眼昏
戴同
值太低
低常
对比度
柳州市
脱屑性
嘴起
款
五毛钱
幹
爱宁达
护唇膏
香芋
雾点
依美
度后
双影
老飞
仪么
跳楼
镜框
望远镜
找对象
杌
it
施图伦
远能
症小亮
爱护
吃太辣
楞
瞪
icl
GPR
萎
瞟
塑性
角撞
派力奥
牙体
跳远
眼飞
汤发
问飞
yag
飞龙
影飘
沃丽仃
問飛
看白
点飞
混蚀
有虫影
构纪
浑乱
绯闻
看亮
用莎
小线线
适于
计算机专业
小伙子
这飞
症变
会弱
内体
用帕坦洛
肿不痒
皮衣
用康敏元
一版
盲区
认清
没得医
牛和鹿
专冶
色盲症
分得清
盲该
色觉
辨清
图时
绿灯
红色盲
高中学生
内战
应欢
仪对
graver
沙普爱斯
黄班病
辩
预放
变蓝
树状
高糖治
沙普艾斯
病干
眼烂
大雾
眼障
发花
正视
乾眼症
百眼
尖见
好闷
开合
前牙
义齿
牙基台
有纯
下威
内倾
虫蛀
老男年
用通
半泪
通泪
炎时
蒺藜
滴托百士加
窥镜
炎拔
眼管
遭罪
淚囊炎
淚道
幾
总给
求泪
起眼
越滴
显泪
水打
囊炎会
炎妈
说通
探通后
白眼
用托佰士
眼炎
女宝能
阿佛
负压
一走床
症输
尼尔
年防
有光感
油泡
经线
意为
后扣
高看
恢复原状
闷响
牙垠
拳击
杨洋
美尼
高招
治国
遮光
骤低
乔治
因光
点拔
云锭
眼栓
为社
哑有
会塌
呼出
喷金因
多组
牛肚
牛筋
熟后
混烛
油墨
乳化
闭缩
注油
黄莲上
内障
囊样
孔裂性
累积到
区深
两三岁
高浓度
引体线
义眼
缝用
诺卡菌
换假
住油
障
照亮
完油
化眼妆
内路
有飘影
好几道
微软
舌腹
完泪
防治所
窦炎性
顶后
对眦部
把典
必殊
有眦部
用痒
眼缘炎
轻时
干且
多种类型
kpi
外青
快五周
症症
顽
防防
冶彡
陡峭
丁片治
杨路
嘉兴
苗方草
眼晴视
物像
最张
期后
蚕蚀性
联谊
酵母菌
溃瘍
虎牙
完多
生牙要
好拔
长睑
炸串
或睑
做睑
用杰
奇尼
炎乍治
炎怕
一减
红疼
红成
用埃美汀
熊旦
萘敏维
水仲
爱尔
用火疗
手木
部皮表疼
变弯线
硬型
后膜
崽者
长阻
坐标
拔好
齿拔
ou
组筛
炎筛
炎双侧
吡卡胺
hbo
药急
病室
湿度
配梦
戴维
为眼
性双
得眼
呲
扎眼
眼晴里
跟眼
茶润珠
沙粒
问下眼
会得眼
会眼
做行
枪眼
眼干口
挑多会
石磨
青囊
磨得
氟骨症
光反射
粉治
視
网膜炎
病损
眼都肿
克洛来
血涕
养目镜
左眠
怎会事
雷击
OTC
苦丁茶
事坎
神像
颗粒物
一千度
LASIK
通過
眼鏡
矯正麼
戴大框
散光镜
歪头
斜轴
散光眼镜
挺大有
跳伞
内眦赘
垂直性
法好
改观
会正
smile
带防
热涨
四白穴
泪小管
泪点
贴眼
青鱼
地草
永药
眼表
诊好
面型
肿好
眼尾
肿涂
前膜
对取
眼水会
伴多
灶微
眼酸
询医
万金油
电打
肿成
能整
翻足会
弓足
想约
吕俊兰
攻击
傻笑
名师
我吃治
躲床
好扣
麻果
鹿邑
老走
恐狂
老子
全想通
几十遍
杨圣凤
牛角尖
攻击性
举例说明
速答
爱瞎想
没话
事要
ssri
咨询师
大未
女女
出纳
安医有
吃舍
曲林药
老含
強迫
阿戈
吃维思
培酮片
用氯氮
平好
自控
振源
孤獨症
证会
统称
订好
阿普唑
仓
两情相悦
穷思
竭虑
产治
药特
昆虫
刺面
人际
丑陋
算数
生人
新婚
密麻
幽暗
狂恐
疏肝解郁
能治疑
馅入
行列
固执己见
恐白
恐病疑
明治
性疑
跟疑
自理能力
退缩
多病
看乱
累疼
症疑
疑心
凑字
得疑
求疑
聪明伶俐
怕人
团体
真人
吃安非
分析法
催眠疗法
退群
腼腆
文拉法辛
用多塞平
出丑
晋兰
屎尿
制呀
强迫式
搭救
遍
公共设施
错话
浅到
心疑
占有欲
挑毛病
人太
文静
消极情绪
心脾
飘逸
百忧解
吃成
药转
打水豆
多梦用
地龙治
单相思
冲动型
PTSD
开利
孙相
意志力
陈孟
六粒
氟桂利嗪
能吃治
iT
症哈
朱孔
义乌
必利片
云
触觉
借掉
恋袜
连裤袜
有恋童
异装癖
女性内衣
校服
对立
白袜子
女同性恋
确定性
Xxoo
三性
恋
双重人格
窥
阴癖
孤僻
耍酒疯
恐高
咬手
癖好
易悲
易困
软弱
彼得
med
贪食
艾症
自律
血团
路边摊
襄肿严
透明膜
吃点易
后会查
龙岩
不爱动
用曼月乐
阴续
底置
晚琪
用泰索帝
比顺
##IU
志
周看
能正
lot
不太正
roa
回正
绕经
胸操
枕后
出胎
余空肉
没宝妈
有血痘
保得
要注
康膏
比产前
挤脚
肩疼
线光片
四回
后足
柔软性
军校
养个
唇样
喀
腰要
变及
肩衲
